{
  "version": "1.0",
  "truncation": null,
  "padding": null,
  "added_tokens": [
    {
      "id": 0,
      "content": "[PAD]",
      "single_word": false,
      "lstrip": false,
      "rstrip": false,
      "normalized": false,
      "special": true
    },
    {
      "id": 1,
      "content": "[UNK]",
      "single_word": false,
      "lstrip": false,
      "rstrip": false,
      "normalized": false,
      "special": true
    },
    {
      "id": 2,
      "content": "[CLS]",
      "single_word": false,
      "lstrip": false,
      "rstrip": false,
      "normalized": false,
      "special": true
    },
    {
      "id": 3,
      "content": "[SEP]",
      "single_word": false,
      "lstrip": false,
      "rstrip": false,
      "normalized": false,
      "special": true
    },
    {
      "id": 4,
      "content": "[MASK]",
      "single_word": false,
      "lstrip": false,
      "rstrip": false,
      "normalized": false,
      "special": true
    },
    {
      "id": 5,
      "content": "<|system|>",
      "single_word": false,
      "lstrip": false,
      "rstrip": false,
      "normalized": false,
      "special": true
    },
    {
      "id": 6,
      "content": "<|user|>",
      "single_word": false,
      "lstrip": false,
      "rstrip": false,
      "normalized": false,
      "special": true
    },
    {
      "id": 7,
      "content": "<|model|>",
      "single_word": false,
      "lstrip": false,
      "rstrip": false,
      "normalized": false,
      "special": true
    },
    {
      "id": 8,
      "content": "<|endoftext|>",
      "single_word": false,
      "lstrip": false,
      "rstrip": false,
      "normalized": false,
      "special": true
    },
    {
      "id": 9,
      "content": "<|assistant|>",
      "single_word": false,
      "lstrip": false,
      "rstrip": false,
      "normalized": false,
      "special": true
    },
    {
      "id": 10,
      "content": "<|end|>",
      "single_word": false,
      "lstrip": false,
      "rstrip": false,
      "normalized": false,
      "special": true
    },
    {
      "id": 11,
      "content": "<|search|>",
      "single_word": false,
      "lstrip": false,
      "rstrip": false,
      "normalized": false,
      "special": true
    },
    {
      "id": 12,
      "content": "<|search_end|>",
      "single_word": false,
      "lstrip": false,
      "rstrip": false,
      "normalized": false,
      "special": true
    },
    {
      "id": 13,
      "content": "<|result|>",
      "single_word": false,
      "lstrip": false,
      "rstrip": false,
      "normalized": false,
      "special": true
    },
    {
      "id": 14,
      "content": "<|result_end|>",
      "single_word": false,
      "lstrip": false,
      "rstrip": false,
      "normalized": false,
      "special": true
    },
    {
      "id": 15,
      "content": "<|thinking|>",
      "single_word": false,
      "lstrip": false,
      "rstrip": false,
      "normalized": false,
      "special": true
    },
    {
      "id": 16,
      "content": "<|thinking_end|>",
      "single_word": false,
      "lstrip": false,
      "rstrip": false,
      "normalized": false,
      "special": true
    },
    {
      "id": 17,
      "content": "<|tool_call|>",
      "single_word": false,
      "lstrip": false,
      "rstrip": false,
      "normalized": false,
      "special": true
    },
    {
      "id": 18,
      "content": "<|tool_result|>",
      "single_word": false,
      "lstrip": false,
      "rstrip": false,
      "normalized": false,
      "special": true
    },
    {
      "id": 19,
      "content": "[code]",
      "single_word": false,
      "lstrip": false,
      "rstrip": false,
      "normalized": false,
      "special": true
    },
    {
      "id": 20,
      "content": "[/code]",
      "single_word": false,
      "lstrip": false,
      "rstrip": false,
      "normalized": false,
      "special": true
    }
  ],
  "normalizer": null,
  "pre_tokenizer": {
    "type": "Sequence",
    "pretokenizers": [
      {
        "type": "Punctuation",
        "behavior": "Isolated"
      },
      {
        "type": "ByteLevel",
        "add_prefix_space": true,
        "trim_offsets": true,
        "use_regex": true
      }
    ]
  },
  "post_processor": {
    "type": "ByteLevel",
    "add_prefix_space": true,
    "trim_offsets": true,
    "use_regex": true
  },
  "decoder": {
    "type": "ByteLevel",
    "add_prefix_space": true,
    "trim_offsets": true,
    "use_regex": true
  },
  "model": {
    "type": "BPE",
    "dropout": null,
    "unk_token": "[UNK]",
    "continuing_subword_prefix": null,
    "end_of_word_suffix": null,
    "fuse_unk": false,
    "byte_fallback": false,
    "ignore_merges": false,
    "vocab": {
      "[PAD]": 0,
      "[UNK]": 1,
      "[CLS]": 2,
      "[SEP]": 3,
      "[MASK]": 4,
      "<|system|>": 5,
      "<|user|>": 6,
      "<|model|>": 7,
      "<|endoftext|>": 8,
      "<|assistant|>": 9,
      "<|end|>": 10,
      "<|search|>": 11,
      "<|search_end|>": 12,
      "<|result|>": 13,
      "<|result_end|>": 14,
      "<|thinking|>": 15,
      "<|thinking_end|>": 16,
      "<|tool_call|>": 17,
      "<|tool_result|>": 18,
      "[code]": 19,
      "[/code]": 20,
      "!": 21,
      "\"": 22,
      "#": 23,
      "$": 24,
      "%": 25,
      "&": 26,
      "'": 27,
      "(": 28,
      ")": 29,
      "+": 30,
      ",": 31,
      "-": 32,
      ".": 33,
      "/": 34,
      "0": 35,
      "1": 36,
      "2": 37,
      "3": 38,
      "4": 39,
      "5": 40,
      "6": 41,
      "7": 42,
      "8": 43,
      "9": 44,
      ":": 45,
      ";": 46,
      "<": 47,
      ">": 48,
      "?": 49,
      "@": 50,
      "A": 51,
      "B": 52,
      "C": 53,
      "D": 54,
      "E": 55,
      "F": 56,
      "G": 57,
      "H": 58,
      "I": 59,
      "J": 60,
      "K": 61,
      "L": 62,
      "M": 63,
      "N": 64,
      "O": 65,
      "P": 66,
      "Q": 67,
      "R": 68,
      "S": 69,
      "T": 70,
      "U": 71,
      "V": 72,
      "W": 73,
      "X": 74,
      "Y": 75,
      "Z": 76,
      "[": 77,
      "\\": 78,
      "]": 79,
      "^": 80,
      "_": 81,
      "`": 82,
      "a": 83,
      "b": 84,
      "c": 85,
      "d": 86,
      "e": 87,
      "f": 88,
      "g": 89,
      "h": 90,
      "i": 91,
      "j": 92,
      "k": 93,
      "l": 94,
      "m": 95,
      "n": 96,
      "o": 97,
      "p": 98,
      "q": 99,
      "r": 100,
      "s": 101,
      "t": 102,
      "u": 103,
      "v": 104,
      "w": 105,
      "x": 106,
      "y": 107,
      "z": 108,
      "{": 109,
      "|": 110,
      "}": 111,
      "~": 112,
      "¡": 113,
      "¢": 114,
      "£": 115,
      "¤": 116,
      "¥": 117,
      "¦": 118,
      "§": 119,
      "¨": 120,
      "©": 121,
      "ª": 122,
      "«": 123,
      "¬": 124,
      "®": 125,
      "¯": 126,
      "°": 127,
      "±": 128,
      "²": 129,
      "³": 130,
      "´": 131,
      "µ": 132,
      "¶": 133,
      "·": 134,
      "¸": 135,
      "¹": 136,
      "º": 137,
      "»": 138,
      "¼": 139,
      "½": 140,
      "¾": 141,
      "¿": 142,
      "Â": 143,
      "Ã": 144,
      "Ä": 145,
      "Å": 146,
      "Æ": 147,
      "Ç": 148,
      "È": 149,
      "É": 150,
      "Ê": 151,
      "Ë": 152,
      "Ì": 153,
      "Í": 154,
      "Î": 155,
      "Ï": 156,
      "Ð": 157,
      "Ñ": 158,
      "Ò": 159,
      "Ó": 160,
      "Ô": 161,
      "Õ": 162,
      "Ö": 163,
      "×": 164,
      "Ø": 165,
      "Ù": 166,
      "Ú": 167,
      "Û": 168,
      "Ü": 169,
      "Ý": 170,
      "Þ": 171,
      "à": 172,
      "á": 173,
      "â": 174,
      "ã": 175,
      "ä": 176,
      "å": 177,
      "æ": 178,
      "ç": 179,
      "è": 180,
      "é": 181,
      "ê": 182,
      "ë": 183,
      "ì": 184,
      "í": 185,
      "ï": 186,
      "ð": 187,
      "Ċ": 188,
      "Ġ": 189,
      "Ģ": 190,
      "ģ": 191,
      "Ĥ": 192,
      "ĥ": 193,
      "Ħ": 194,
      "ħ": 195,
      "Ĩ": 196,
      "ĩ": 197,
      "Ī": 198,
      "ī": 199,
      "Ĭ": 200,
      "ĭ": 201,
      "Į": 202,
      "į": 203,
      "İ": 204,
      "ı": 205,
      "Ĳ": 206,
      "ĳ": 207,
      "Ĵ": 208,
      "ĵ": 209,
      "Ķ": 210,
      "ķ": 211,
      "ĸ": 212,
      "Ĺ": 213,
      "ĺ": 214,
      "Ļ": 215,
      "ļ": 216,
      "Ľ": 217,
      "ľ": 218,
      "Ŀ": 219,
      "ŀ": 220,
      "Ł": 221,
      "ł": 222,
      "Ń": 223,
      "ĠÐ": 224,
      "Ð¾": 225,
      "Ð°": 226,
      "Ðµ": 227,
      "Ð¸": 228,
      "Ð½": 229,
      "ÑĢ": 230,
      "ÑĤ": 231,
      "Ñģ": 232,
      "Ð¾Ð": 233,
      "Ð»": 234,
      "Ðº": 235,
      "Ñĥ": 236,
      "Ð²": 237,
      "Ñı": 238,
      "Ñĭ": 239,
      "Ð¼": 240,
      "Ð´": 241,
      "ÑģÑĤ": 242,
      "ĠÐ¿": 243,
      "ĠÐ²": 244,
      "ÑĮ": 245,
      "Ġ,": 246,
      "Ġ.": 247,
      "ÐµÐ½": 248,
      "Ñĩ": 249,
      "ÑĢÐ°": 250,
      "ĠÑģ": 251,
      "Ð¾Ð²": 252,
      "Ð·": 253,
      "ĠÐ¸": 254,
      "Ñħ": 255,
      "Ð¹": 256,
      "ĠÐ½": 257,
      "ĠÐ¾": 258,
      "Ð¿": 259,
      "ÐµÑĢ": 260,
      "Ð¾Ð´": 261,
      "Ð°Ð½": 262,
      "Ð±": 263,
      "ÑģÐº": 264,
      "Ð³": 265,
      "ĠÐº": 266,
      "Ð¾ÑĢ": 267,
      "Ð¾Ð»": 268,
      "Ð¾Ð¼": 269,
      "Ð°Ð»": 270,
      "Ġ\"": 271,
      "ÑĢÐµ": 272,
      "ĠÐ³": 273,
      "ÑĨ": 274,
      "Ñİ": 275,
      "Ð½Ñĭ": 276,
      "Ð¾Ð³": 277,
      "ĠÐ´": 278,
      "ÐµÐ»": 279,
      "Ð¾Ð¹": 280,
      "ĠÐ½Ð°": 281,
      "Ð¾Ð½": 282,
      "ÐµÑĤ": 283,
      "Ð¶": 284,
      "ÑĪ": 285,
      "Ð¸Ð½": 286,
      "ĠÐ¼": 287,
      "Ð¸ÑĤ": 288,
      "ĠÐ±": 289,
      "Ð°ÑĤ": 290,
      "ĠÑĤ": 291,
      "ĠÐ¿ÑĢ": 292,
      "ÐµÐ½Ð¸": 293,
      "Ð¸Ð»": 294,
      "Ġ1": 295,
      "Ð¾ÑĤ": 296,
      "Ð¾Ð³Ð¾": 297,
      "ĠÐĴ": 298,
      "ÑĦ": 299,
      "Ð°ÑĢ": 300,
      "Ð½Ð¾": 301,
      "ĠÐ·": 302,
      "Ð¾Ñģ": 303,
      "Ð¸Ðº": 304,
      "ĠÐ¡": 305,
      "ÐµÐ¼": 306,
      "ĠÑĥ": 307,
      "Ñī": 308,
      "ÑģÑĤÐ²": 309,
      "Ð¸Ð¸": 310,
      "Ġ-": 311,
      "Ð»Ð°": 312,
      "ĠÐ³Ð¾Ð´": 313,
      "Ġâ": 314,
      "ĠÐŁ": 315,
      "ĠâĢ": 316,
      "Ð¸Ð¼": 317,
      "ÑģÑı": 318,
      "Ñĳ": 319,
      "Ð¸Ð¹": 320,
      "ĠÐ°": 321,
      "ĠâĢĶ": 322,
      "Ð°Ðº": 323,
      "ÐµÐ¹": 324,
      "ĠÑĩ": 325,
      "ÐµÐ´": 326,
      "ĠÐļ": 327,
      "ĠÑĢÐ°": 328,
      "Ð°Ð¼": 329,
      "Ð¸Ñĩ": 330,
      "Ð¸Ñı": 331,
      "ÐµÐ²": 332,
      "ÑĢÑĥ": 333,
      "Ñį": 334,
      "Ð¸Ð²": 335,
      "Ð¾ÑģÑĤ": 336,
      "Ð°Ð²": 337,
      "Ð°Ñı": 338,
      "ÐµÐº": 339,
      "Ð¸Ñģ": 340,
      "Ġ2": 341,
      "ĠÐľ": 342,
      "Ð¾Ð±": 343,
      "Ġ19": 344,
      "ÐµÐ»ÑĮ": 345,
      "Ð¸Ñħ": 346,
      "ĠÐ¾ÑĤ": 347,
      "ĠÑģÑĤ": 348,
      "ĠÐ±Ñĭ": 349,
      "Ð»Ñı": 350,
      "Ð¾Ðº": 351,
      "ĠÐ¾Ð±": 352,
      "ĠÐĲ": 353,
      "Ð¸Ðµ": 354,
      "Ð»Ð¸": 355,
      "Ð½Ð¾Ð¹": 356,
      "ĠÐ»": 357,
      "ĠÐ¿Ð¾": 358,
      "Ð¾Ð·": 359,
      "Ð¸Ð·": 360,
      "Ð¾Ð»ÑĮ": 361,
      "ĠÑį": 362,
      "ĠÐ½Ðµ": 363,
      "ĠÐĿ": 364,
      "ĠÐ¸Ð·": 365,
      "ĠÐĳ": 366,
      "ĠÐł": 367,
      "ĠÐ³Ð¾Ð´Ð°": 368,
      "Ð½ÑĭÑħ": 369,
      "Ð°Ð»ÑĮ": 370,
      "ĠÑĦ": 371,
      "ÐµÐ½Ð¸Ñı": 372,
      "ĠÐµ": 373,
      "Ð½Ð¾Ð³Ð¾": 374,
      "ĠÐŀ": 375,
      "Ð¾Ð¶": 376,
      "Ð¸ÑĢ": 377,
      "ĠÐĶ": 378,
      "ĠÐ·Ð°": 379,
      "Ð³Ð¾": 380,
      "ÐºÐ°": 381,
      "ÐµÑģÐº": 382,
      "Ð½ÑĭÐ¹": 383,
      "ĠÐ²Ñĭ": 384,
      "ĠÐĵ": 385,
      "ÑĤÐ¾": 386,
      "Ð¾Ð¿": 387,
      "ĠÑĢÐµ": 388,
      "ĠÐ¿ÐµÑĢ": 389,
      "ÑĥÑİ": 390,
      "ÑģÐ¿": 391,
      "Ġ20": 392,
      "ÐµÑģÑĤ": 393,
      "ÑĨÐ¸": 394,
      "ÑĢÐµÐ´": 395,
      "ĠÐ¢": 396,
      "Ð½Ð°": 397,
      "Ð¸ÑģÑĤ": 398,
      "Ð´Ð°": 399,
      "Ð¸ÑĩÐµÑģÐº": 400,
      "Ð½Ð¸Ðº": 401,
      "ÐµÐ½ÑĤ": 402,
      "ÑģÐºÐ¾Ð¹": 403,
      "Ð¾Ð²Ð°Ð½": 404,
      "ÑģÐºÐ¾Ð³Ð¾": 405,
      "ÑĥÑĢ": 406,
      "ĠÐĺ": 407,
      "ĠÐ¶": 408,
      "Ð»ÑĮ": 409,
      "ĠÐ³Ð¾Ð´Ñĥ": 410,
      "ÑĢÐ°Ð½": 411,
      "Ð½Ð¾ÑģÑĤ": 412,
      "ÐµÑģ": 413,
      "Ð°Ñģ": 414,
      "ĠÐ±ÑĭÐ»": 415,
      "Ð½ÑĭÐµ": 416,
      "ĠÐĽ": 417,
      "Ð½ÑĭÐ¼": 418,
      "ÐµÐ½Ð¸Ðµ": 419,
      "ĠÐ¿Ð¾Ð»": 420,
      "ĠÑģÐ²": 421,
      "Ð¸Ð´": 422,
      "ÑĤÐ°": 423,
      "Ð°Ð´": 424,
      "ÑĢÐ°Ð²": 425,
      "ÐµÐ·": 426,
      "Ð¾ÑĤÐ¾ÑĢ": 427,
      "ĠÑħ": 428,
      "Ð°ÑģÑĤ": 429,
      "ÑĥÐ´": 430,
      "ÑıÑĤ": 431,
      "ÐµÑģÑĤÐ²": 432,
      "ÑĥÑĤ": 433,
      "Ð»Ðµ": 434,
      "Ð½Ð¸": 435,
      "ĠÐ¿Ð¾Ð´": 436,
      "Ð¾Ñĩ": 437,
      "Ġ:": 438,
      "ÑģÐºÐ¸Ð¹": 439,
      "ÐµÑĢÐ°": 440,
      "ÑĨÐ¸Ð¸": 441,
      "Ð°ÐµÑĤ": 442,
      "Ð°ÑĤÑĮ": 443,
      "ĠÑĢ": 444,
      "ÐºÐ¸": 445,
      "ÑĥÑĩ": 446,
      "ĠÐ¿ÑĢÐ¾": 447,
      "ĠÑĢÐ°Ð·": 448,
      "ĠÐºÐ¾ÑĤÐ¾ÑĢ": 449,
      "ÑħÐ¾Ð´": 450,
      "ÑĢÐµÐ¼": 451,
      "Ð°Ð·": 452,
      "Ð¶Ðµ": 453,
      "ÑİÑĤ": 454,
      "ÑĥÐ±": 455,
      "ÐµÑĩ": 456,
      "Ð°Ð¹": 457,
      "Ð½Ð°Ñı": 458,
      "ĠÐ¿Ð¾Ñģ": 459,
      "ĠÐ¤": 460,
      "ÐºÑĤ": 461,
      "ĠÑı": 462,
      "ĠÑĩÑĤÐ¾": 463,
      "Ð¸ÑĤÐµÐ»ÑĮ": 464,
      "ÐºÐ¾Ð²": 465,
      "Ð°Ñħ": 466,
      "ĠÐºÐ¾Ð¼": 467,
      "Ð¶Ð´": 468,
      "Ð°Ð¼Ð¸": 469,
      "Ð°Ð½Ð´": 470,
      "Ð¾Ðµ": 471,
      "ĠÐ£": 472,
      "Ð½Ð¾Ð¼": 473,
      "Ð»ÐµÐ½": 474,
      "ĠÐĹ": 475,
      "ĠÑĤÐ°Ðº": 476,
      "ĠÑĪ": 477,
      "ĠÑĨ": 478,
      "ÑĭÑħ": 479,
      "ÐµÐµ": 480,
      "ÑĢÐ¸": 481,
      "ĠÐ¿ÑĢÐµÐ´": 482,
      "ÑĢÐ¾Ð²": 483,
      "ĠÐ¸Ð¼": 484,
      "ÑĢÐ¾": 485,
      "ÑĭÐ²": 486,
      "Ð¡": 487,
      "ÑĭÐ¹": 488,
      "ÑĭÐµ": 489,
      "Ð¼Ð¸": 490,
      "ÑĳÐ½": 491,
      "ÑĥÐ¿": 492,
      "ĠÐ¾Ñģ": 493,
      "ĠÐºÐ¾Ð½": 494,
      "ĠÑģÐ¾ÑģÑĤ": 495,
      "ÑĢÑı": 496,
      "ÑĢÐ°ÑĤ": 497,
      "ĠÑģÐ¾": 498,
      "Ð¸ÑĨ": 499,
      "Ð°Ð»Ð°": 500,
      "Ð»ÐµÐ´": 501,
      "ĠÐ¾Ð´": 502,
      "ĠÑįÑĤ": 503,
      "Ð°Ð»Ð¸": 504,
      "ĠÐ´Ð»Ñı": 505,
      "Ð½Ñı": 506,
      "ĠÐ¿ÑĢÐ¸": 507,
      "ĠÐºÐ°Ðº": 508,
      "ĠÐ²Ð¾": 509,
      "ĠÑĥÑĩ": 510,
      "Ð¾ÑĢÐ¾Ð´": 511,
      "Ð½Ð¾Ð²": 512,
      "Ġ201": 513,
      "Ð¸Ð»ÑĮ": 514,
      "ÑĥÑģ": 515,
      "ĠÐµÐ³Ð¾": 516,
      "Ð½Ð¾Ðµ": 517,
      "Ð¾Ñı": 518,
      "ĠÐ¥": 519,
      "ÑĤÐ¾ÑĢ": 520,
      "ÑĢÐ°Ð·": 521,
      "ÑĥÐ½": 522,
      "Ð¸ÑĤÑĮ": 523,
      "ĠÐŃ": 524,
      "ĠÐ´Ð²": 525,
      "ĠÑģÐ¿": 526,
      "ÑĥÐ¶": 527,
      "Ð±Ð¾ÑĤ": 528,
      "Ð¾Ð½Ð°": 529,
      "Ð°Ð½Ð¸Ñı": 530,
      "Ð»Ð°Ð²": 531,
      "ÐµÐ¿": 532,
      "ÑĢÑĥÐ³": 533,
      "Ġ3": 534,
      "ÐºÐ¾": 535,
      "ÐµÐ³": 536,
      "ÐµÐ³Ð¾": 537,
      "Ð¸Ð½Ð°": 538,
      "Ð¸ÑģÑĮ": 539,
      "ĠÐ¸Ð½": 540,
      "Ġ200": 541,
      "ĠÐ§": 542,
      "ÐµÑħ": 543,
      "ĠÐķ": 544,
      "Ð½Ð¾ÑģÑĤÐ¸": 545,
      "ÑģÑĤÐ²ÐµÐ½": 546,
      "Ð½Ð¾ÑģÑĤÑĮ": 547,
      "Ġ;": 548,
      "ĠÐ´Ð¾": 549,
      "ÑģÑģ": 550,
      "Ð°Ð³": 551,
      "ÑİÑī": 552,
      "ĠÐ¿ÑĢÐµ": 553,
      "Ġ18": 554,
      "ÑĥÐ¼": 555,
      "ÑģÐºÐ¾Ð¼": 556,
      "ĠÐ¾Ðº": 557,
      "Ð¾ÑģÑģ": 558,
      "ĠÐ²Ñģ": 559,
      "Ð°Ð½Ð¾Ð²": 560,
      "ĠÐ¾Ð½": 561,
      "Ð¸Ð»Ð¸": 562,
      "Ð°ÑĢÑĤ": 563,
      "ĠÐ²ÑĢÐµÐ¼": 564,
      "ĠÑģÐ»": 565,
      "ÑĢÑĭ": 566,
      "Ð¾ÑĢÐ°": 567,
      "ĠÐ¾Ð¿": 568,
      "ÑĥÐ»ÑĮ": 569,
      "Ð¸Ð³": 570,
      "ÐµÑĤÑģÑı": 571,
      "ĠÐ½Ð°Ñĩ": 572,
      "Ð»ÐµÐº": 573,
      "ÑģÐºÐ¸Ñħ": 574,
      "Ð½ÑĥÑİ": 575,
      "ÐµÐ±": 576,
      "ĠÐ°Ð²": 577,
      "ĠÐĿÐ°": 578,
      "ĠÐ²Ð¾Ð·": 579,
      "Ð¸Ð¾Ð½": 580,
      "ÐµÐ½Ð°": 581,
      "ĠÑģÐ¾ÑģÑĤÐ°Ð²": 582,
      "ĠÐ³Ð¾ÑĢÐ¾Ð´": 583,
      "ÑĨÐ¸Ð¾Ð½": 584,
      "ĠÑģÐ²Ð¾": 585,
      "ÑģÑĤÐ²Ð°": 586,
      "ĠÐ°ÑĢ": 587,
      "Ð»Ñİ": 588,
      "Ð°Ð±": 589,
      "Ð¸ÑĢÐ¾Ð²": 590,
      "ÑģÑĤÐ°Ð²": 591,
      "Ð»Ð°ÑģÑĤ": 592,
      "ÑĥÑī": 593,
      "ĠÑģÐ¾Ð²": 594,
      "ĠĊ": 595,
      "ĠÐ¨": 596,
      "Ð¾Ð»ÑĮÑĪ": 597,
      "ĠÑĩÐ°ÑģÑĤ": 598,
      "Ð¸Ð±": 599,
      "Ð¼Ð°": 600,
      "Ð¼ÐµÑĢ": 601,
      "ĠÑĢÑĥ": 602,
      "Ð´Ðµ": 603,
      "Ð»Ð¾": 604,
      "Ð°ÑĤÐµÐ»ÑĮ": 605,
      "ÐºÐµ": 606,
      "ĠÐ¿ÐµÑĢÐ²": 607,
      "ĠÐ½Ð°Ð·": 608,
      "ĠÐ¿ÑĢÐ°Ð²": 609,
      "Ð¸Ñİ": 610,
      "Ð¸ÑĤÐµÐ»": 611,
      "ÑģÐºÐ°Ñı": 612,
      "ÑĥÐ»": 613,
      "ĠÑĢÐ°Ð±Ð¾ÑĤ": 614,
      "ÑĨÐ°": 615,
      "ÑĥÐ·": 616,
      "Ð»Ð°Ð´": 617,
      "ĠÑĢÐ°Ð¹": 618,
      "ĠÑĤÐ°ÐºÐ¶Ðµ": 619,
      "ÑĭÐ¼": 620,
      "ÐµÐ½Ð¸Ð¸": 621,
      "ÐµÑĤÐ°": 622,
      "Ð½Ð°Ñĩ": 623,
      "Ð½Ðµ": 624,
      "ÑĳÑĤ": 625,
      "Ġ5": 626,
      "Ð°Ð½Ð°": 627,
      "ĠÐ¸ÑģÐ¿": 628,
      "Ġ4": 629,
      "Ð°Ð½Ð¸Ðµ": 630,
      "ÐºÑĥ": 631,
      "00": 632,
      "ÑĬ": 633,
      "Ð°ÑĢÐ°": 634,
      "ĠÐ¿Ð¾ÑģÑĤ": 635,
      "ĠÐ¾ÑĢ": 636,
      "ÑĢÐ¸ÑĤ": 637,
      "Ð°ÑİÑĤ": 638,
      "ĠÐ±ÑĭÐ»Ð°": 639,
      "Ðł": 640,
      "ĠÑģÐ°Ð¼": 641,
      "Ð°ÐµÑĤÑģÑı": 642,
      "Ð¾ÑģÑĮ": 643,
      "Ð´ÐµÐ»": 644,
      "ĠÐ±ÑĭÐ»Ð¸": 645,
      "Ð³ÑĢÐ°": 646,
      "Ð¸Ð¼Ð¸": 647,
      "Ð²Ð»Ñı": 648,
      "ĠÐ¼ÐµÑģÑĤ": 649,
      "ĠÐ±ÑĭÐ»Ð¾": 650,
      "ÑĥÐ»ÑĮÑĤ": 651,
      "ÐµÐ½ÑĮ": 652,
      "Ð¸ÑĢÐ¾Ð²Ð°Ð½": 653,
      "ÑģÑĤÐ²Ð¾": 654,
      "ĠÐ²Ð¾Ð¹": 655,
      "Ð¸ÐºÐ¸": 656,
      "ĠÐ²ÑĢÐµÐ¼Ñı": 657,
      "ĠÐ¿ÑĢÐ¾ÑĤ": 658,
      "Ð½ÑĭÐ¼Ð¸": 659,
      "ĠÐºÐ°": 660,
      "Ð¾ÑĢÑĤ": 661,
      "Ġ194": 662,
      "ÑĨÐ¸Ñı": 663,
      "ÐºÐ°Ð·": 664,
      "Ð¸Ð»ÑģÑı": 665,
      "Ð»Ð¾Ð²": 666,
      "ÑıÐ½": 667,
      "Ð¾Ð½Ðµ": 668,
      "Ġ199": 669,
      "ĠÐ¡ÑĤ": 670,
      "Ð¿ÑĢÐ°Ð²": 671,
      "ÐĲ": 672,
      "ĠÐłÐ¾ÑģÑģ": 673,
      "ÐµÐºÑĤ": 674,
      "ĠÐ½Ð¾": 675,
      "Ð¸Ð»Ð°": 676,
      "ĠÐ¿ÑĢÐ¸Ð½": 677,
      "Ð°Ð½ÑĤ": 678,
      "ÑĥÑħ": 679,
      "ÑĳÐ»": 680,
      "ÑĢÑĥÐ¿": 681,
      "ÐµÑĢÐ²": 682,
      "ÑĢÐ¾Ð¼": 683,
      "ÑģÑĤÑĥÐ¿": 684,
      "ĠÐºÐ¾ÑĢ": 685,
      "ĠÑģÐ¾Ð±": 686,
      "ĠÐ´ÑĢÑĥÐ³": 687,
      "ÑĥÑģÑĤ": 688,
      "ÐµÑĢÐ¶": 689,
      "ĠÐŁÑĢ": 690,
      "Ð°ÑģÑĮ": 691,
      "ÐµÐ½Ñĭ": 692,
      "ÐµÑĢÐ½": 693,
      "ĠÐĲÐ½": 694,
      "ĠÐ·Ð°Ð¿": 695,
      "ĠÐ¾Ð±Ð»Ð°ÑģÑĤ": 696,
      "Ð¾Ð»Ð¶": 697,
      "ÐµÐ¼Ð¿": 698,
      "Ð¾Ð»ÑĮÐºÐ¾": 699,
      "ÑĤÐ¸": 700,
      "Ð¾ÑĢÐ¼": 701,
      "ĠÐ¸ÑģÑĤ": 702,
      "ĠÐ¸Ð»Ð¸": 703,
      "ÑıÐ·": 704,
      "ĠÑĢÐ°ÑģÐ¿": 705,
      "ÐµÑĨ": 706,
      "ÑĮÑİ": 707,
      "Ð¾Ð»Ð¾Ð³": 708,
      "ĠÐ¼Ðµ": 709,
      "Ð°Ð»ÑģÑı": 710,
      "ĠÐ¿Ð¾Ð»ÑĥÑĩ": 711,
      "ĠÐºÐ¾Ð»": 712,
      "Ð¾Ð·Ð´": 713,
      "ÐµÐ½Ð¸Ð¹": 714,
      "ÐµÑģÑĤÐ²ÐµÐ½": 715,
      "Ð¸ÐºÐ°": 716,
      "ĠÐ¾Ð±ÑĢÐ°Ð·": 717,
      "Ð¸Ð¿": 718,
      "ÑıÐ±": 719,
      "ĠÐ»ÐµÑĤ": 720,
      "ĠÐ·Ð°Ð²": 721,
      "ÐµÑĢÑģ": 722,
      "ĠÐ¿ÑĢÐ¾Ð²": 723,
      "Ð½ÐµÐ¹": 724,
      "ÑĥÑİÑī": 725,
      "Ð³Ð°Ð½": 726,
      "ĠÐĶÐ¶": 727,
      "Ð¾Ð»ÑĮÐ·": 728,
      "Ð°ÑĪ": 729,
      "ĠÐ´Ðµ": 730,
      "ĠÐŁÐ¾": 731,
      "Ġ6": 732,
      "ĠÐºÐ¾Ð¼Ð°Ð½Ð´": 733,
      "Ð»ÑİÑĩ": 734,
      "ĠÑįÐº": 735,
      "Ð½Ð°Ðº": 736,
      "Ð¸Ð½Ñĭ": 737,
      "ĠÑıÐ²Ð»Ñı": 738,
      "ÐµÐ»Ð¾Ð²": 739,
      "ÑģÐ°": 740,
      "Ð¸ÑĢÐ°": 741,
      "ĠÐ¾Ð±Ñī": 742,
      "ĠÐ·Ð°Ðº": 743,
      "ĠÐ¿Ð¾ÑģÐ»Ðµ": 744,
      "Ð»ÐµÐ½Ð¸Ñı": 745,
      "Ð¾ÑģÑĥÐ´": 746,
      "Ð¾Ð³ÑĢÐ°": 747,
      "ÑĢÐ¾Ð½": 748,
      "Ð°Ð½Ð¸Ð¸": 749,
      "Ð±Ð¾ÑĢ": 750,
      "Ð¸Ð·Ð²": 751,
      "ĠI": 752,
      "ĠÐ½Ð°Ñģ": 753,
      "Ð¾Ð³Ð´Ð°": 754,
      "ÑĥÑĪ": 755,
      "ÐµÐ¶": 756,
      "ÑĳÐ¼": 757,
      "ĠÑģÐµÑĢ": 758,
      "ĠÐ¯": 759,
      "Ð¾ÑģÑĥÐ´Ð°ÑĢ": 760,
      "ĠÐ¼Ð°ÑĤ": 761,
      "ÑĢÐµÑĤ": 762,
      "Ð¾Ð¼Ñĥ": 763,
      "ĠÑİ": 764,
      "ĠÑģÐº": 765,
      "Ð¾ÑģÐº": 766,
      "ÑĳÑĢ": 767,
      "ĠÐ±Ð¾Ð»ÑĮÑĪ": 768,
      "ĠÐŁÐ¾Ñģ": 769,
      "ÐµÐ½Ð¸ÐµÐ¼": 770,
      "ĠÐ¶Ðµ": 771,
      "Ð¾ÑĢÐ¸Ð¸": 772,
      "Ð¾Ð²Ð°": 773,
      "ÑĢÐ¾Ð¿": 774,
      "ÑĢÐ°Ð¶": 775,
      "ĠÑĥÑĩÐ°ÑģÑĤ": 776,
      "Ð¸Ð¶": 777,
      "ĠÐ¿Ð»": 778,
      "ĠÑģÑĢÐµÐ´": 779,
      "ÐµÑĪ": 780,
      "ÑĥÐº": 781,
      "Ð¾Ð»ÐµÐµ": 782,
      "ÐµÑĢÐµÐ²": 783,
      "Ð³Ð°": 784,
      "ÐµÐ½Ð¸Ñİ": 785,
      "ĠÐ¿Ð¾Ðº": 786,
      "Ð²ÐµÑĢ": 787,
      "ĠÐ¿ÑĢÐ¾Ð´": 788,
      "Ð¡Ðł": 789,
      "ĠÐ¦": 790,
      "Ð¾Ð²Ð°Ð½Ð¸Ñı": 791,
      "ÑĢÐ°Ñģ": 792,
      "ĠÐ½Ð¾Ð²": 793,
      "Ð¾Ð²Ð°Ð»": 794,
      "Ð°ÑĤÐµÐ»": 795,
      "ĠÐ¾ÑģÑĤ": 796,
      "ĠÐ¸Ñİ": 797,
      "Ð²ÐµÑĤ": 798,
      "ÑģÐºÐ¸Ðµ": 799,
      "Ð°ÑİÑī": 800,
      "Ð¸Ð½Ð¸ÑģÑĤ": 801,
      "Ð¸ÑĤÑģÑı": 802,
      "Ð»ÐµÐºÑģ": 803,
      "ÐµÑģÑģ": 804,
      "Ðļ": 805,
      "Ð°Ð¿": 806,
      "ĠÐºÐ¾Ð¼Ð¿": 807,
      "ĠÑĤÐµÑĢ": 808,
      "Ġ7": 809,
      "ĠÐ¿ÑĢÐ¾ÑĤÐ¸Ð²": 810,
      "ĠÐ°Ð½": 811,
      "ĠÐ¾Ð±Ð»Ð°ÑģÑĤÐ¸": 812,
      "ĠÐ®": 813,
      "ĠÑĩÐµÐ»Ð¾Ð²": 814,
      "ÐµÐ¼Ð¿Ð¸Ð¾Ð½": 815,
      "Ð»Ð°Ñģ": 816,
      "Ð»Ð¸Ñĩ": 817,
      "Ð¾Ð»Ð½": 818,
      "ÑĨÐ¸Ð°Ð»ÑĮ": 819,
      "ÑĮÑı": 820,
      "ĠÐ¸Ð³": 821,
      "ĠÑģÑĤÐ°Ð»": 822,
      "Ð¸Ð·Ð°": 823,
      "Ð½Ð¸ÐºÐ¾Ð²": 824,
      "Ð°Ð²ÑĪ": 825,
      "ĠÐ¸Ñħ": 826,
      "ĠÐ¿Ð¾Ð¼": 827,
      "Ġ8": 828,
      "Ð½Ð¸ÐºÐ°": 829,
      "ÐµÐ¹ÑģÑĤÐ²": 830,
      "ĠÐ¾ÑģÐ½Ð¾Ð²": 831,
      "Ð¾Ð½Ñĩ": 832,
      "ÐµÑī": 833,
      "ÑĢÐ¾Ñģ": 834,
      "Ð°ÑĤÐ°": 835,
      "ĠÐ²ÑĭÑģ": 836,
      "ĠÐµÑĳ": 837,
      "ÐµÐºÐ°": 838,
      "ĠÐ·Ð°Ð½": 839,
      "ĠÐ´ÐµÑĢÐµÐ²": 840,
      "ĠÐ¹": 841,
      "ĠÑĤÐ¾": 842,
      "Ð²Ð°ÑĢ": 843,
      "ĠÐ½Ð°ÑĩÐ°Ð»": 844,
      "ĠÐ¿Ð¾Ð²": 845,
      "ĠÐºÐ»": 846,
      "ÐµÐ´Ð¸Ð½": 847,
      "ÑĭÑĪ": 848,
      "ÑģÐºÐ¾Ðµ": 849,
      "Ġ198": 850,
      "ÑĭÑĤ": 851,
      "ÐµÐ²ÐµÑĢ": 852,
      "Ð´Ð¸": 853,
      "ĠÐ½Ð°ÑħÐ¾Ð´": 854,
      "ĠÐ³Ð´Ðµ": 855,
      "ĠÑĢÐ¾Ð´": 856,
      "ÐµÐ½Ð½Ð¾": 857,
      "Ġ17": 858,
      "ĠÐ¾Ð±ÑĬ": 859,
      "Ð¸ÐµÐ¼": 860,
      "ÑĥÐ±Ð»": 861,
      "ĠÐ¸ÑģÐ¿Ð¾Ð»ÑĮÐ·": 862,
      "ĠÑĥÑģÑĤ": 863,
      "ĠÐĲÑĢ": 864,
      "ĠÐ½Ð°Ð¿": 865,
      "ĠÐºÐ¾ÑĤÐ¾ÑĢÑĭÐ¹": 866,
      "ĠÐ¼ÐµÐ¶Ð´": 867,
      "Ð¼Ñĥ": 868,
      "ÐµÐ½Ð¾": 869,
      "Ð¾Ð»Ð¾Ð¶": 870,
      "Ð¸ÑĪ": 871,
      "ĠX": 872,
      "ĠÐĸ": 873,
      "Ġ193": 874,
      "ĠÐ·Ð°Ð¼": 875,
      "ĠÐ²Ð¸Ð´": 876,
      "Ð¸ÑĩÐµÑģÐºÐ¾Ð¹": 877,
      "Ġ/": 878,
      "ĠÑĨÐµÐ½ÑĤ": 879,
      "ĠÐ¿ÑĢÐµÐ´ÑģÑĤÐ°Ð²": 880,
      "ÐºÑĢÐ°": 881,
      "Ð¾Ð¶Ð´": 882,
      "ĠÑįÑĤÐ¾": 883,
      "Ð¸ÑģÑģ": 884,
      "ÑĢÑĥÐ¿Ð¿": 885,
      "ÑĢÑĥÐ´": 886,
      "ĠÑģÐ¾Ð·Ð´": 887,
      "ĠÐ³Ð¾ÑģÑĥÐ´Ð°ÑĢ": 888,
      "ÑıÑī": 889,
      "ĠÐĲÐ»ÐµÐºÑģ": 890,
      "ĠÐ¼Ð½": 891,
      "Ð´Ð¸Ð½": 892,
      "Ð¾ÑĪ": 893,
      "ÑıÐ²": 894,
      "Ðŀ": 895,
      "ÑģÐºÐ¸Ð¼": 896,
      "ĠÐŁÐ¾ÑģÐ»Ðµ": 897,
      "ĠÐ¿ÑĢÐ¾Ð¸Ð·Ð²": 898,
      "ĠÐ²ÑĭÐ¿": 899,
      "Ð¸ÑģÐº": 900,
      "Ġ196": 901,
      "ĠÑģÐµÐ»": 902,
      "Ð¸ÑĩÐµÑģÐºÐ¸Ñħ": 903,
      "ÑĨÑĭ": 904,
      "Ð¼ÐµÑģÑĤ": 905,
      "ĠÑģÐµÐ¼": 906,
      "ĠÑĢÐµÐ·": 907,
      "Ġ197": 908,
      "ĠÐ¾ÑĢÐ³Ð°Ð½": 909,
      "ĠÑĩÐµÐ¼Ð¿Ð¸Ð¾Ð½": 910,
      "Ð²ÐµÑģÑĤ": 911,
      "ĠÐ³Ð»Ð°Ð²": 912,
      "ÐºÐ¾Ð¹": 913,
      "ĠÑĢÐ°Ñģ": 914,
      "ĠÐ»Ñİ": 915,
      "ÑĥÑīÐµÑģÑĤÐ²": 916,
      "ÑĨÐµÐ²": 917,
      "Ġ9": 918,
      "ĠÐłÐ¾ÑģÑģÐ¸Ð¸": 919,
      "ÑĨÐ¸Ñİ": 920,
      "ĠÐ¼ÐµÑĤ": 921,
      "ĠÐľÐ¾ÑģÐº": 922,
      "ĠÐŀÑĤ": 923,
      "Ð»Ð¸Ð½": 924,
      "ĠÑĥÐ»Ð¸": 925,
      "ÐµÑģÐ¿": 926,
      "Ð³Ð¸": 927,
      "Ġ192": 928,
      "er": 929,
      "ĠÐ¿Ð¾Ð¿": 930,
      "Ð¾Ð±Ñĭ": 931,
      "ĠÑĢÐ°Ð·Ð²": 932,
      "ĠÐ½Ð°Ð·Ð²": 933,
      "ÑıÐ±ÑĢÑı": 934,
      "Ð¡Ð¡Ðł": 935,
      "ÑģÐ¾Ð²": 936,
      "ÐµÑĢÐ±": 937,
      "ÐµÑĢÐ¸": 938,
      "ÐºÐ¾Ð»": 939,
      "ÐµÑĢÑĤ": 940,
      "ĠÐ¼Ð¾Ð¶": 941,
      "ĠÐľÐ°ÑĢ": 942,
      "Ð½Ð°ÐºÐ¾": 943,
      "ĠÐ±Ð¾Ð»ÐµÐµ": 944,
      "Ð²Ð¾Ð»": 945,
      "Ġ15": 946,
      "ĠÑģÐµÐ»ÑĮ": 947,
      "Ð¼ÐµÐ½": 948,
      "ĠÐ¿Ð¾Ð·": 949,
      "ĠN": 950,
      "Ð¸Ð²ÑĪ": 951,
      "ÐºÐ¾Ð¼": 952,
      "Ġ195": 953,
      "ĠÑĤÑĢ": 954,
      "ĠÑģÐ²ÑıÐ·": 955,
      "Ġ10": 956,
      "ĠÐ´ÐµÐ»": 957,
      "Ð¾ÑģÑĤÐ¸": 958,
      "ÑĢÐµÐ±": 959,
      "ÑĤÑĮ": 960,
      "ĠÐ´Ð¾Ð¼": 961,
      "Ð¸ÑĩÐµÑģÐºÐ¾Ð³Ð¾": 962,
      "ĠÑĦÐ¸Ð»ÑĮ": 963,
      "ĠÐ¼Ð°ÑĢ": 964,
      "ĠÐ³ÑĢÐ°": 965,
      "ÑĢÐ¾Ð´": 966,
      "ĠÐ´Ð¾ÑģÑĤ": 967,
      "ĠÐ³ÑĢÑĥÐ¿Ð¿": 968,
      "ĠÐ´Ð¾Ð»Ð¶": 969,
      "ĠÐ¿Ð¾ÑĤ": 970,
      "Ð·Ñĭ": 971,
      "Ð²Ð°": 972,
      "ĠÑĩÐ¸Ñģ": 973,
      "ĠÐ¾ÑĤÐ½Ð¾": 974,
      "ÐµÑĢÑĪ": 975,
      "Ð³Ð¾Ð²": 976,
      "ĠÑģÐ¾Ð²ÐµÑĤ": 977,
      "ĠÑĤÐ¾Ð¼": 978,
      "ÐµÑĢÑħ": 979,
      "ĠÑģÐ¼": 980,
      "ĠÑĤÐµÑĢÑĢÐ¸ÑĤ": 981,
      "ĠÐ¿ÐµÑĢÐµÐ´": 982,
      "Ð¾Ð½Ð¾Ð¼": 983,
      "Ð¾Ñħ": 984,
      "ĠÐ¼ÐµÐ´": 985,
      "Ð½Ð¸Ð¼": 986,
      "Ð»ÐµÐ½Ð¸Ðµ": 987,
      "ÐµÑĢÐ³": 988,
      "ĠÐ²Ð·": 989,
      "Ð¾Ñī": 990,
      "ÑıÐ´": 991,
      "ĠÐ²Ð¾Ñģ": 992,
      "ĠÑĥÐ´": 993,
      "ĠÑıÐ²Ð»ÑıÐµÑĤÑģÑı": 994,
      "ĠÐ¡Ð": 995,
      "ĠÐ²ÑĤÐ¾ÑĢ": 996,
      "ĠÐ¡Ð¾Ð²": 997,
      "Ġ191": 998,
      "Ð¸ÑĢÑĥ": 999,
      "ĠÐºÐ¼": 1000,
      "ĠÐ°Ð¿": 1001,
      "ĠÑĤÐ¾Ð³Ð¾": 1002,
      "ĠÐ²Ð¾Ð´": 1003,
      "ĠÐŀÐ±": 1004,
      "ĠÑĥÐ½": 1005,
      "Ð¾ÑĢÐ¾Ð²": 1006,
      "ĠÑģÑĭ": 1007,
      "ĠÐºÐ¾ÑĤÐ¾ÑĢÑĭÐµ": 1008,
      "ĠS": 1009,
      "Ð¼Ð°Ð½": 1010,
      "Ġ16": 1011,
      "ÑĢÐµÑģÑĤ": 1012,
      "ĠÐŀÐ´": 1013,
      "ĠÑĢÐµÑĪ": 1014,
      "Ð°ÑĤÐµ": 1015,
      "ĠÐ¿Ð¾Ð±": 1016,
      "ÐµÐ»Ð¸Ðº": 1017,
      "ĠÐ°ÐºÑĤ": 1018,
      "ĠÑģÑĩ": 1019,
      "Ð°Ð»Ð¸ÑģÑĮ": 1020,
      "ÑĨÐ¸Ð¾Ð½Ð°Ð»ÑĮ": 1021,
      "Ð¸Ñī": 1022,
      "Ġ12": 1023,
      "ÐµÑĤÑĭ": 1024,
      "ĠÐ¼ÑĥÐ·": 1025,
      "ĠÐ±ÐµÐ·": 1026,
      "ĠÐ½Ð°ÑģÐµÐ»": 1027,
      "ĠÐķÐ²": 1028,
      "ĠÑĤÐ¾Ð»ÑĮÐºÐ¾": 1029,
      "ĠÐ½Ð°Ð´": 1030,
      "ĠÑģÐ¾ÑģÑĤÐ¾Ñı": 1031,
      "ĠÐ¢Ð°Ðº": 1032,
      "ĠÐ¾Ñĩ": 1033,
      "ĠÐºÐ¾Ð½ÑĨ": 1034,
      "II": 1035,
      "ĠÐ´ÐµÐ¹ÑģÑĤÐ²": 1036,
      "ÑıÑĤÑĮ": 1037,
      "ĠÐ¾ÑĤÐº": 1038,
      "ÑıÑĤÐµÐ»ÑĮ": 1039,
      "ĠÐ¸Ð¼Ðµ": 1040,
      "Ð¿ÑĢ": 1041,
      "ĠÐ¡Ð¡Ð¡Ðł": 1042,
      "ÐŁ": 1043,
      "ĠÐ¿Ð¾ÑģÐ»ÐµÐ´": 1044,
      "Ð¾ÑĢÐ¾Ð½": 1045,
      "ĠÐ´Ð°Ð½": 1046,
      "ĠÐ¸ÑģÐº": 1047,
      "Ð´ÐµÐ½": 1048,
      "ÑİÐ·": 1049,
      "ĠÑĪÐºÐ¾Ð»": 1050,
      "ĠÑģÐ»ÐµÐ´": 1051,
      "ĠÑĤÐµÑħ": 1052,
      "ÑĭÑģ": 1053,
      "ĠÐ²Ð¾Ð¹Ð½Ñĭ": 1054,
      "ĠÐ³Ð¾Ð»": 1055,
      "ÐµÐ»Ð¸": 1056,
      "Ð»Ð°Ð³": 1057,
      "ĠÑĤÐµ": 1058,
      "ĠÐ³Ð¾ÑĢÐ¾Ð´Ð°": 1059,
      "Ð¸ÑģÑĤÐµÐ¼": 1060,
      "ĠÐ´ÐµÐº": 1061,
      "ĠÐ·Ð´": 1062,
      "ĠÐºÐ¾Ð½ÑĤ": 1063,
      "ĠÐŁÐµÑĤ": 1064,
      "Ð¸ÐºÐ°Ð½": 1065,
      "Ð°ÑĢÑĮ": 1066,
      "Ð¾Ð²Ð¾Ð¹": 1067,
      "Ð½Ð¾Ð¼Ñĥ": 1068,
      "Ð¾ÑĦ": 1069,
      "Ð°ÑĤÑĮÑģÑı": 1070,
      "ĠÐ½ÐµÑģÐº": 1071,
      "ĠÐ·Ð²": 1072,
      "ĠÐĿÐ¸Ðº": 1073,
      "ÑİÑĤÑģÑı": 1074,
      "ĠÑĩÐµÐ»Ð¾Ð²ÐµÐº": 1075,
      "Ð¸Ð½Ðµ": 1076,
      "ĠÐĺÐ½": 1077,
      "ĠÐ¿ÑĢÐ¸Ð·": 1078,
      "ÑĤÐµ": 1079,
      "Ð¸ÑĩÐµÑģÐºÐ¸Ð¹": 1080,
      "Ð¾Ð½Ñĭ": 1081,
      "ÐµÑĢÐµÐ·": 1082,
      "ÐµÐ½ÐµÑĢÐ°": 1083,
      "ÑĤÐ¾ÑĢÐ°": 1084,
      "Ð°ÑĢÐ¾Ð´": 1085,
      "ĠÐ¿ÑĢÐ¸Ð²": 1086,
      "ĠC": 1087,
      "ĠÐĺÐ·": 1088,
      "Ð¾ÑĤÐ¾Ð²": 1089,
      "ĠÐ²Ðº": 1090,
      "ÑĢÐ°Ð»ÑĮ": 1091,
      "Ð¾Ð³ÑĢÐ°ÑĦ": 1092,
      "Ð´Ð¶": 1093,
      "ĠÐ¾Ð½Ð°": 1094,
      "ĠÐºÐ»ÑĥÐ±": 1095,
      "ÑĮÐµ": 1096,
      "ÑģÐºÑĥÑİ": 1097,
      "Ð½ÐµÐµ": 1098,
      "ĠÑĤÐµÐ»": 1099,
      "ĠÐ½ÐµÐ¼": 1100,
      "Ð°Ð¶": 1101,
      "ÑĥÐµÑĤ": 1102,
      "ÐµÐ½ÑĤÐ°": 1103,
      "ĠÐ¸Ð·Ð²ÐµÑģÑĤ": 1104,
      "ĠÑĥÑģ": 1105,
      "ĠÐ²Ð¿": 1106,
      "Ð»ÐµÐºÑĤ": 1107,
      "ÐµÐ½Ð½ÑĭÐ¹": 1108,
      "ÑĢÑĥÐ¶": 1109,
      "an": 1110,
      "ĠÐ±ÑĥÐ´": 1111,
      "ÐµÑģÑĤÐ²Ð¾": 1112,
      "ĠÐ°Ð´": 1113,
      "ĠÐ¿ÑĢÐ¸Ð¼": 1114,
      "ĠÐ¼Ð¾Ð³": 1115,
      "ÐµÐ²Ð¸Ñĩ": 1116,
      "ÑıÐ»": 1117,
      "Ð¸Ð²ÐµÑĢÑģ": 1118,
      "ĠÐ´Ð¸": 1119,
      "Ð¾Ð²Ð°Ð½Ð¸Ðµ": 1120,
      "ÐµÑģÑĤÐ²Ð°": 1121,
      "ÑĥÑĢÑĭ": 1122,
      "ĠÐĵÐµÑĢ": 1123,
      "Ð¸ÑĤÑĥ": 1124,
      "Ð°Ð»Ð¾ÑģÑĮ": 1125,
      "ĠÐ¿Ð°ÑĢ": 1126,
      "ÑĢÐ°Ð¼": 1127,
      "ÐĿ": 1128,
      "ĠÐĲÐ»ÐµÐºÑģÐ°Ð½Ð´": 1129,
      "ĠÐ²ÑĭÑģÑĤÑĥÐ¿": 1130,
      "Ð±Ñĭ": 1131,
      "ĠA": 1132,
      "ĠÐ¿Ð°ÑĢÑĤ": 1133,
      "ĠÐ¿Ð¾Ð»Ð¸ÑĤ": 1134,
      "ÑĪÐ¸Ð¹": 1135,
      "ÑĤÐ¾Ð±Ñĭ": 1136,
      "ĠÐ¾Ð½Ð¸": 1137,
      "ĠÑįÑĤÐ¾Ð¼": 1138,
      "Ð¸Ð»Ð°ÑģÑĮ": 1139,
      "ĠÑģÐ»ÑĥÐ¶": 1140,
      "ĠÐļÐ¾Ð½": 1141,
      "Ð¸Ð½Ð³": 1142,
      "ÑĢÐ¾Ðº": 1143,
      "ĠÑįÑĤÐ¾Ð³Ð¾": 1144,
      "ĠÑģÐ¸ÑģÑĤÐµÐ¼": 1145,
      "ĠÐ¼ÐµÐ¶Ð´Ñĥ": 1146,
      "ĠÐ¼Ð¾Ð½": 1147,
      "Ð³ÑĥÑģÑĤ": 1148,
      "Ð¾ÐµÐ²": 1149,
      "ĠÑĨÐµÑĢ": 1150,
      "ÑĥÑĢÐ³": 1151,
      "ĠÐŁÐµÑĢÐ²": 1152,
      "ÑĢÑĭÑĤ": 1153,
      "ĠÐ´ÐµÑĤ": 1154,
      "Ð¸Ð»Ð¸ÑģÑĮ": 1155,
      "ĠÐ°ÑĢÐ¼": 1156,
      "Ð¾Ð´Ð°": 1157,
      "ÐµÐ½Ð½ÑĭÑħ": 1158,
      "in": 1159,
      "ĠÐ¸Ð½ÑĤ": 1160,
      "ĠÑıÐ·Ñĭ": 1161,
      "ĠÑģÐ±Ð¾ÑĢ": 1162,
      "ÐµÑĢÐ°ÑĤ": 1163,
      "ĠÐ°Ð²ÑĤ": 1164,
      "on": 1165,
      "Ð½Ñĥ": 1166,
      "Ð²Ð¾ÑĢ": 1167,
      "ÑĢÐ°Ñī": 1168,
      "ĠÐĿÐ¾Ð²": 1169,
      "ĠÑĥÐ¿": 1170,
      "ĠM": 1171,
      "ĠÐ¼Ð°ÑĤÑĩ": 1172,
      "ĠÐ·Ð°ÑĤ": 1173,
      "Ð½Ð¸ÐºÐ¸": 1174,
      "ÐµÐ·Ð´": 1175,
      "ĠÐ¾ÑĦ": 1176,
      "Ð»ÐµÐ¼": 1177,
      "Ð¸Ð¹ÑģÐºÐ¾Ð¹": 1178,
      "ĠÑĩÐ»ÐµÐ½": 1179,
      "ĠÐŁÑĢÐ¸Ð¼": 1180,
      "ÑıÐ¼": 1181,
      "Ð¾ÑĢÐµ": 1182,
      "ĠÑĢÑĥÑģ": 1183,
      "ÑħÐ¾Ð´Ð¸ÑĤ": 1184,
      "ĠÑģÐµÐ·": 1185,
      "ĠÐ¡Ð¾": 1186,
      "Ð·Ð¸Ð´": 1187,
      "Ð¸ÑĤÐµÐ»ÐµÐ¹": 1188,
      "ÑĥÑĢÐ°": 1189,
      "ĠÐŀÐ½": 1190,
      "ĠÐ¾Ð´Ð¸Ð½": 1191,
      "Ġ11": 1192,
      "Ðĺ": 1193,
      "ĠÐ¶ÐµÐ½": 1194,
      "Ġ0": 1195,
      "ÑĢÐµÑĩ": 1196,
      "ĠÐ³Ð¾Ð´Ð°Ñħ": 1197,
      "Ð°Ð»Ð¾": 1198,
      "ÑĢÐµÐ²": 1199,
      "ĠÐ¶ÐµÐ»": 1200,
      "ÑģÑģÐ»ÐµÐ´": 1201,
      "ĠÑĩÑĤÐ¾Ð±Ñĭ": 1202,
      "ĠÐ·Ð½Ð°Ñĩ": 1203,
      "ĠÑĢÐµÐ·ÑĥÐ»ÑĮÑĤ": 1204,
      "ÑĥÐ³": 1205,
      "ĠÐĹÐ°": 1206,
      "ĠÐ¿ÑĢÐ¸Ñģ": 1207,
      "Ð°Ð»Ð¸ÑģÑĤ": 1208,
      "ÐºÐ¾Ð²Ð¾Ð´": 1209,
      "ĠÐ³Ð¾ÑģÑĥÐ´Ð°ÑĢÑģÑĤÐ²ÐµÐ½": 1210,
      "ÑĢÐµÐ¹": 1211,
      "ĠÑıÐ½": 1212,
      "ĠÑĢÐ°ÑģÐ¿Ð¾Ð»Ð¾Ð¶": 1213,
      "ĠÑĥÐ±": 1214,
      "ĠÐ²Ð½": 1215,
      "ĠÐ¶Ð¸Ð·": 1216,
      "ĠÐºÐ¾Ð³Ð´Ð°": 1217,
      "ĠÑĢÐ°Ð¹Ð¾Ð½Ð°": 1218,
      "ĠÐ¿Ð¾Ñĩ": 1219,
      "Ð°Ð»Ð°ÑģÑĮ": 1220,
      "ĠÐ¡Ð²": 1221,
      "Ð°ÑģÑģ": 1222,
      "ĠÐ°ÑĢÑħ": 1223,
      "Ð¸ÑĦ": 1224,
      "Ġ14": 1225,
      "Ð¸Ð²ÐµÑĢÑģÐ¸ÑĤ": 1226,
      "ĠÐ½ÐµÐº": 1227,
      "ĠÐŀÑģ": 1228,
      "ĠÑģÑĤÐ°ÑĢ": 1229,
      "ĠÑģÐµÐ½ÑĤ": 1230,
      "ĠÐ°Ð²Ð³ÑĥÑģÑĤ": 1231,
      "Ð°ÑİÑĤÑģÑı": 1232,
      "ĠT": 1233,
      "ĠÑĦÐ¾ÑĢÐ¼": 1234,
      "ĠÐ¼Ð¾Ð»": 1235,
      "Ð½Ð¾ÑģÑĤÑĮÑİ": 1236,
      "Ð¼Ðµ": 1237,
      "ĠÐ²Ð¾ÑģÑĤ": 1238,
      "ĠÑģÐµÐ²ÐµÑĢ": 1239,
      "ÐºÐ°Ñħ": 1240,
      "ĠÐ¸ÑģÑĤÐ¾ÑĢ": 1241,
      "ĠÐ²ÑģÐµ": 1242,
      "ÑĪÐ¸Ñħ": 1243,
      "Ð½Ð¸Ðµ": 1244,
      "ĠÐ¾ÐºÑĤ": 1245,
      "ÐµÑģÑĤÐ²Ðµ": 1246,
      "ÑĢÐ¾Ð¹": 1247,
      "Ð°Ð»Ðµ": 1248,
      "ÑīÑĳ": 1249,
      "ÑĢÐ°Ð±Ð¾ÑĤ": 1250,
      "ĠÑģÐ¾ÑģÑĤÐ°Ð²Ð»Ñı": 1251,
      "ĠÐ´Ð¾Ðº": 1252,
      "ĠÐ¾ÐºÐ¾Ð½Ñĩ": 1253,
      "ÑĥÑģÐº": 1254,
      "Ð¾ÑĤÐ°": 1255,
      "ĠÐ·ÐµÐ¼": 1256,
      "ÐĴ": 1257,
      "ÑĦÐ¾ÑĢ": 1258,
      "ĠÐĴÐ¾": 1259,
      "Ð¸ÐºÐ¾Ð²": 1260,
      "ĠÐ´ÐµÐºÐ°Ð±": 1261,
      "ĠÐļÑĢÐ°Ñģ": 1262,
      "ĠÐ¿ÐµÑĢÐµ": 1263,
      "Ġ13": 1264,
      "ĠÐĺÐ²": 1265,
      "Ġ202": 1266,
      "Ð»Ð¸Ð²": 1267,
      "ĠÐŀÑĢ": 1268,
      "Ð¾ÑģÑĤÑĮ": 1269,
      "ĠÑĢÐ°Ð¹Ð¾Ð½Ðµ": 1270,
      "ĠÑģÑĤÑĢÐ¾": 1271,
      "ĠÑĢÐµÐ³": 1272,
      "ÑĭÐ¼Ð¸": 1273,
      "ÑĢÐ°ÐºÑĤ": 1274,
      "Ð´ÐµÑĢÐ¶": 1275,
      "Ð¸Ð»Ð¾": 1276,
      "Ð¸ÑĩÐµÑģÐºÐ¸Ðµ": 1277,
      "ĠÑģÑĤÑĢÐ°": 1278,
      "Ð¼Ð¾Ð¶": 1279,
      "Ð±Ð¾Ð»": 1280,
      "Ð»Ð¸Ð·": 1281,
      "ĠÐĲÐ²": 1282,
      "ÑĥÐ´Ð¾Ð¶": 1283,
      "ĠÐ£ÐºÑĢÐ°": 1284,
      "ÑĥÐ»Ñı": 1285,
      "ĠÐ¿ÑĢÐ¾ÑĦ": 1286,
      "ĠÑģÐ¾ÑģÑĤÐ°Ð²Ðµ": 1287,
      "ĠÐ¡Ð¿": 1288,
      "ĠÑĤÐµÐ¼": 1289,
      "ĠÑģÐµÐ±": 1290,
      "Ġ%": 1291,
      "Ð³Ð»": 1292,
      "ĠÐ¿ÑĢÐ¾Ð¸Ð·Ð²Ð¾Ð´": 1293,
      "ÑĨÐµÐ½": 1294,
      "ĠÑĦÐ¸Ð½": 1295,
      "ÐµÑĢÐµ": 1296,
      "ĠÐ¸Ð¼Ð¿": 1297,
      "ÑĢÐµÐ´ÐµÐ»": 1298,
      "ÑĨÐ¸Ð¹": 1299,
      "ĠÐ²ÐºÐ»ÑİÑĩ": 1300,
      "ĠÐļÐ°ÑĢ": 1301,
      "Ð°Ñĩ": 1302,
      "ĠÐ¼Ð½Ð¾Ð³": 1303,
      "ÐµÐ½Ð½Ð¾Ð¹": 1304,
      "ÑĥÑĢÐ½": 1305,
      "ĠÐºÐ¾ÑĤ": 1306,
      "ĠNo": 1307,
      "ÑģÑĤÐ²Ð¾Ð¼": 1308,
      "ĠÑģÑĥÐ´": 1309,
      "ĠÐ¸Ð½ÑģÑĤ": 1310,
      "ĠÐºÐ°Ñĩ": 1311,
      "Ð¸ÐºÐµ": 1312,
      "ÐµÐ½Ð´": 1313,
      "Ð°Ð½Ñĭ": 1314,
      "en": 1315,
      "ĠÐĳÐµÐ»": 1316,
      "ĠÑĩÐ°ÑģÑĤÐ¸": 1317,
      "Ð¾Ð³Ð»Ð°Ñģ": 1318,
      "ĠÐĴÐµÐ»Ð¸Ðº": 1319,
      "Ð½Ð¸Ð¹": 1320,
      "ĠÑĢÐ°Ð¹Ð¾Ð½": 1321,
      "ĠÐ¼Ð¸ÑĢÐ°": 1322,
      "ĠÐ·Ð°Ð¿Ð°Ð´": 1323,
      "ĠÐĴÑģ": 1324,
      "Ð¸Ð½Ñĥ": 1325,
      "ĠÐ·Ð°Ð½Ð¸Ð¼": 1326,
      "ĠÑĢÑĥÐºÐ¾Ð²Ð¾Ð´": 1327,
      "ÑıÐ¶": 1328,
      "ĠÐ°Ð¿ÑĢÐµ": 1329,
      "ÑĢÐ°Ð»": 1330,
      "ĠÐ¤ÑĢÐ°Ð½": 1331,
      "ÑıÐ¼Ð¸": 1332,
      "ÑįÑĤ": 1333,
      "ĠÐºÐ¾ÑĤÐ¾ÑĢÑĭÑħ": 1334,
      "Ð¾Ð±Ñī": 1335,
      "Ð¤": 1336,
      "Ð¸ÐµÐ¹": 1337,
      "ĠÐ²Ð¼ÐµÑģÑĤ": 1338,
      "ĠÐ´Ð²Ð°": 1339,
      "ar": 1340,
      "Ð¾Ð»Ð¾": 1341,
      "ĠÐ¿ÐµÑĢÐ¸": 1342,
      "Ð¸Ð²Ð¸Ð·": 1343,
      "ĠÐºÑĥÐ»ÑĮÑĤ": 1344,
      "Ð¾ÑıÐ±": 1345,
      "Ð»Ð°ÑģÑģ": 1346,
      "Ð¼Ñĭ": 1347,
      "ĠÐ´ÐµÑıÑĤÐµÐ»ÑĮ": 1348,
      "ĠÑĥÐ»Ð¸ÑĨÐ°": 1349,
      "Ð°ÐµÐ¼": 1350,
      "ÐµÐ´ÐµÑĢÐ°": 1351,
      "Ð¼Ð¸Ð½Ð¸ÑģÑĤ": 1352,
      "ÐºÐ°Ð´": 1353,
      "ĠÑģÐ¸Ð»": 1354,
      "ĠÐ½Ð¾ÑıÐ±": 1355,
      "Ð¸ÑĤÐµÐ»ÑĮÐ½Ð¾": 1356,
      "ÑĢÐ¸Ð³": 1357,
      "ĠÐ¡Ð¨": 1358,
      "Ð½Ð¸ÐºÐ¾Ð¼": 1359,
      "ĠÐ¿Ð¾ÑĢ": 1360,
      "ĠÐ³Ð¾": 1361,
      "ĠÐ¡Ð¨ÐĲ": 1362,
      "ĠÐ¾ÐºÑĢÑĥÐ³": 1363,
      "ĠÐ³Ð¾ÑĢ": 1364,
      "ÐµÑĢÐ¾Ð¼": 1365,
      "ĠÐ²ÐµÐºÐ°": 1366,
      "ĠÐ¼Ð¾Ð¶ÐµÑĤ": 1367,
      "ĠÑģÐ¿Ðµ": 1368,
      "ĠÑĩÐµÑĢÐµÐ·": 1369,
      "ĠÐ²Ð¾Ð¹ÑģÐº": 1370,
      "Ð²ÐµÐ´": 1371,
      "ÑįÐ½": 1372,
      "Ð¸Ð½Ð¾": 1373,
      "ĠÐļÐ¾Ð¼": 1374,
      "ÐµÐ¼Ñĥ": 1375,
      "ĠÐ¿Ð¾Ð±ÐµÐ´": 1376,
      "ĠÑĥÐ½Ð¸Ð²ÐµÑĢÑģÐ¸ÑĤ": 1377,
      "ĠÑĥÐ¿ÑĢÐ°Ð²": 1378,
      "Ð²Ð¸": 1379,
      "ÐµÑĢÐ¾Ð²": 1380,
      "or": 1381,
      "Ð½Ð¸Ñħ": 1382,
      "ĠÑįÐºÑģÐ¿": 1383,
      "ĠÐŁÑĢÐ¸Ð¼ÐµÑĩ": 1384,
      "ĠÐ¼ÐµÑģÑĤÐ¾": 1385,
      "ĠP": 1386,
      "ĠÑĦÐµÐ²": 1387,
      "Ð»Ð¸Ð¼": 1388,
      "Ð»Ð¾Ñī": 1389,
      "ĠÑħÑĥÐ´Ð¾Ð¶": 1390,
      "ĠÐ¿Ð¾ÑģÐµÐ»": 1391,
      "Ð°ÐºÑĤ": 1392,
      "Ð¸Ð·Ð°ÑĨÐ¸Ð¸": 1393,
      "ÐµÐ²Ð°": 1394,
      "Ð»Ð¾Ð¶": 1395,
      "Ð¼Ð¾ÑĤ": 1396,
      "ĠÐºÐ½Ð¸": 1397,
      "ĠÐĿÐ¸ÐºÐ¾Ð»": 1398,
      "ĠÐ¸ÑģÑģÐ»ÐµÐ´": 1399,
      "ĠÐ´Ð²ÑĥÑħ": 1400,
      "ĠÐŁÑĢÐ¸": 1401,
      "ĠÑĥÑĤ": 1402,
      "ÑģÑĤÐ²Ðµ": 1403,
      "ĠÑĥÐ¶Ðµ": 1404,
      "ÑĢÐ¸ÑģÑĤ": 1405,
      "ÑĥÐ½Ð°ÑĢÐ¾Ð´": 1406,
      "Ð¾Ð·Ñı": 1407,
      "ĠÐ¼Ð¾ÑĢ": 1408,
      "ÑĢÐµÐ¿": 1409,
      "Ð»ÑĥÐ¶": 1410,
      "ĠÐµÑīÑĳ": 1411,
      "ÑĨÐ¸Ð¿": 1412,
      "ĠB": 1413,
      "ÑģÑĤÐ¾Ñı": 1414,
      "ĠÐŁÐ¾Ð»": 1415,
      "ĠÐ¾Ð³": 1416,
      "Ð°Ð´Ð°": 1417,
      "ĠÐŁÑĢÐ¸Ð¼ÐµÑĩÐ°Ð½Ð¸Ñı": 1418,
      "ĠÐ½ÐµÑģÐºÐ¾Ð»ÑĮÐºÐ¾": 1419,
      "ĠÑģÐ°Ð¹": 1420,
      "ĠÐ½ÐµÐ´": 1421,
      "ĠÑģÑĤÐ°Ð½": 1422,
      "ÑĢÐµÐ»": 1423,
      "ĠÐ²ÑĭÑĪ": 1424,
      "ĠÑĥÑģÑĤÐ°Ð½Ð¾Ð²": 1425,
      "ĠÐ½Ð°Ð·Ð½Ð°Ñĩ": 1426,
      "Ð¾ÑĢÐ°Ñı": 1427,
      "ĠÐ¿ÑĥÑĤ": 1428,
      "ĠÐ½Ð°ÑĢÐ¾Ð´": 1429,
      "ĠÑĦÐµÐ²ÑĢÐ°": 1430,
      "ÐµÐ½Ð½Ð¾Ð³Ð¾": 1431,
      "ĠÑĤÐµÑĢÑĢÐ¸ÑĤÐ¾ÑĢÐ¸Ð¸": 1432,
      "ĠÐ²ÑģÑĤ": 1433,
      "Ð¿Ð¸ÑĤ": 1434,
      "Ð±Ð°": 1435,
      "ĠÐºÐ¾ÑĤÐ¾ÑĢÐ¾Ð¹": 1436,
      "ĠÐ³ÐµÑĢ": 1437,
      "Ð²Ðµ": 1438,
      "ĠÐºÐ¾ÑĤÐ¾ÑĢÐ°Ñı": 1439,
      "ĠÐºÐ°ÑĤ": 1440,
      "Ð°ÑĢÐ¸": 1441,
      "ĠÐ¸Ð³ÑĢÐ°": 1442,
      "ÑĢÑĭÐ²": 1443,
      "ĠÐĴÐ»Ð°Ð´": 1444,
      "ĠÐ´Ð¸Ð²Ð¸Ð·": 1445,
      "Ð¾ÑĢÐ¾Ð³": 1446,
      "ĠÑģÐ»ÑĥÑĩ": 1447,
      "ĠÐ¿Ð¾Ð¼Ð¾Ñī": 1448,
      "Ð¾Ð»Ð¾ÑĤ": 1449,
      "ÐµÑĤÐµ": 1450,
      "Ð°Ð½Ð¾": 1451,
      "ÑıÑģ": 1452,
      "Ð¾Ð²Ð¾ÑĢ": 1453,
      "ÑīÐ¸ÑĤ": 1454,
      "ĠÐ³ÐµÐ½ÐµÑĢÐ°": 1455,
      "es": 1456,
      "Ð´ÐµÐ¹": 1457,
      "Ð°ÑĢÐ´": 1458,
      "ÑĭÑĩ": 1459,
      "ĠÐ¿ÑĢÐ¾Ð´Ð¾Ð»Ð¶": 1460,
      "ĠÐ½Ð°Ð¿ÑĢÐ°Ð²": 1461,
      "ĠÐ¿ÐµÑĢÐµÐ²": 1462,
      "ĠÐ²Ð¾Ð»": 1463,
      "ÐºÐ°Ð´ÐµÐ¼": 1464,
      "Ð¾Ð½Ð¾Ð²": 1465,
      "ĠÐļÐ¾ÑĢ": 1466,
      "ĠÑģÐ²Ð¾ÐµÐ¹": 1467,
      "ĠÑĩÐ°ÑģÑĤÑĮ": 1468,
      "ĠÐºÑĢÐ°": 1469,
      "ĠÐ³Ð¾Ð´Ñĭ": 1470,
      "ÑĥÑĢÐµ": 1471,
      "ÐµÑĢÑĭ": 1472,
      "Ð°ÑĤÑĭ": 1473,
      "ĠÐ½ÐµÐºÐ¾ÑĤÐ¾ÑĢ": 1474,
      "ÐµÑģÑĮ": 1475,
      "ĠÑıÐ½Ð²Ð°ÑĢ": 1476,
      "Ð¾ÑģÐ¾Ð±": 1477,
      "Ð¾Ð´Ðµ": 1478,
      "ĠÑĢÐµÐºÐ¸": 1479,
      "ĠÐ¿Ð¾Ð»ÑĥÑĩÐ¸Ð»": 1480,
      "ĠÐ¶Ð¸Ð²": 1481,
      "ĠÐ¼Ð¸Ð½": 1482,
      "ĠÐ»ÑİÐ±": 1483,
      "ĠÑĪÑĤ": 1484,
      "ĠÑģÑĤÑĢÐ°Ð½": 1485,
      "ĠÐ¸Ð·Ð±": 1486,
      "Ð»Ñĥ": 1487,
      "ĠÐ¿ÑĢÐ¾ÑĦÐµÑģÑģ": 1488,
      "ĠÐ¿Ð¾Ð³": 1489,
      "Ð¢": 1490,
      "ĠÐ±ÐµÑĢ": 1491,
      "ĠÐºÐ»Ð°ÑģÑģ": 1492,
      "Ġ#": 1493,
      "ÑıÑħ": 1494,
      "ĠÑģÑĤÐµÐ¿": 1495,
      "ÑĢÐµÐ½": 1496,
      "ĠÐµÐ¼Ñĥ": 1497,
      "ĠÐ´Ð¾Ð±": 1498,
      "ĠÐ¾ÐºÐ¾Ð»Ð¾": 1499,
      "ĠÐ´Ð¾Ð»": 1500,
      "ÑģÐ»Ð¸": 1501,
      "ĠÐ¾ÑģÐ¾Ð±": 1502,
      "ÑĥÑİÑĤ": 1503,
      "ĠÑģÑĥÑīÐµÑģÑĤÐ²": 1504,
      "ĠÐ¼Ð°Ñı": 1505,
      "ĠÐ¾Ð·": 1506,
      "ĠÑģÑĩÐ¸ÑĤ": 1507,
      "Ð¸ÑĨÐ¸Ð°Ð»ÑĮ": 1508,
      "ÑģÑĤÑĮ": 1509,
      "ĠÐ¾ÑĤÐ´ÐµÐ»": 1510,
      "ĠÐ¼ÑĥÐ·Ñĭ": 1511,
      "ĠÑģÐµÐº": 1512,
      "ĠÑĢÐ°Ð·Ð²Ð¸ÑĤ": 1513,
      "al": 1514,
      "ĠÐ¾ÑĤÐ´": 1515,
      "ĠÐ½Ð¸Ñħ": 1516,
      "ĠÑĤÑĢÐ¸": 1517,
      "Ð²Ð°ÑĤ": 1518,
      "Ð½Ð¾Ð²Ð°Ð½": 1519,
      "ĠÐµÐ´Ð¸Ð½": 1520,
      "Ð»Ð¾ÑīÐ°Ð´": 1521,
      "Ð¸Ð½ÑģÐºÐ¾Ð³Ð¾": 1522,
      "ĠÐĽÐµÐ½": 1523,
      "ÐµÐ½Ð½ÑĭÐµ": 1524,
      "ĠÑıÐ½Ð²Ð°ÑĢÑı": 1525,
      "ĠÑĦÑĥÑĤ": 1526,
      "ÑħÑĢÐ°Ð½": 1527,
      "ĠÐ·Ð°ÑĤÐµÐ¼": 1528,
      "ÑĤÐ¾Ð²": 1529,
      "Ð¾Ð·ÑıÐ¹": 1530,
      "Ð¸Ð½Ð¾Ð²": 1531,
      "ĠÐ²Ð¾Ð·Ð¼Ð¾Ð¶": 1532,
      "Ð°Ð»ÑĮÐ½Ð¾Ð¹": 1533,
      "ĠÐ´ÑĢÑĥÐ³Ð¸Ñħ": 1534,
      "ĠÑĤÑĥÑĢ": 1535,
      "ĠÐ°Ð²Ð³ÑĥÑģÑĤÐ°": 1536,
      "ĠÐ³ÑĥÐ±": 1537,
      "Ð¾ÑģÑģÐ¸Ð¹": 1538,
      "ĠÐ½Ð°ÑĥÑĩ": 1539,
      "Ġ25": 1540,
      "ĠÐ»ÑĥÑĩ": 1541,
      "ĠÐ¸ÑİÐ»Ñı": 1542,
      "Ð¾Ð¼Ð¸Ð½": 1543,
      "ÑĢÑĮ": 1544,
      "ÑĦÑĦ": 1545,
      "ÐºÐ¸Ñħ": 1546,
      "ĠÐ°ÑĤ": 1547,
      "ĠÑĢÐ°Ð·Ð»Ð¸Ñĩ": 1548,
      "ÑĢÐ°ÑĤÐ¸Ð²": 1549,
      "ĠÑģÐµÐ½ÑĤÑıÐ±ÑĢÑı": 1550,
      "ÑĳÑħ": 1551,
      "ĠÐķÐ²ÑĢÐ¾Ð¿": 1552,
      "Ð½ÐµÐ³Ð¾": 1553,
      "Ġ30": 1554,
      "ÑģÐºÐ¾Ð¼Ñĥ": 1555,
      "ÑĢÑĥÐ·": 1556,
      "ĠÐŀÐ´Ð½Ð°ÐºÐ¾": 1557,
      "ĠÐ½Ð°Ð·ÑĭÐ²": 1558,
      "Ð°Ð»ÑĮÐ½Ð¾Ð³Ð¾": 1559,
      "at": 1560,
      "Ð¼ÐµÑĢÐ¸ÐºÐ°Ð½": 1561,
      "Ð¸ÑıÑĤ": 1562,
      "ÐºÐ¸Ð¹": 1563,
      "ÑĢÐ¾ÑģÑĤ": 1564,
      "ĠÐ¿ÐµÑĢÐ¸Ð¾Ð´": 1565,
      "ĠÐºÐ°Ð¼": 1566,
      "ÑĦÐ¾ÑĢÐ¼": 1567,
      "ĠÐ¼ÐµÐ½": 1568,
      "ÑĪÐµÐ¹": 1569,
      "ĠÐ¾ÐºÑĤÑıÐ±ÑĢÑı": 1570,
      "ĠÐľÐ°Ðº": 1571,
      "ĠÐºÑĢÑĥÐ¿": 1572,
      "Ð½ÐµÐ²": 1573,
      "ĠÐ¸Ð·Ð´": 1574,
      "ĠÐĲÐ»": 1575,
      "ÑĥÐ´Ð°": 1576,
      "Ð¾ÑĢÑĮ": 1577,
      "ĠÐ¾Ð´Ð½Ð°ÐºÐ¾": 1578,
      "Ð°ÑģÑĤÐ²": 1579,
      "Ð»Ð°Ð½Ð´": 1580,
      "ĠÑģÐ²Ð¾Ðµ": 1581,
      "ĠÐ¿Ð¾ÐºÐ°Ð·": 1582,
      "ĠÐºÐ°ÑĩÐµÑģÑĤÐ²Ðµ": 1583,
      "Ð¾Ð³ÑĢÐ°Ð¼": 1584,
      "ÑĩÐµÑģÐº": 1585,
      "Ð¸ÑĩÐµÑģÐºÐ¸": 1586,
      "ĠÐ¼Ð°ÑĢÑĤÐ°": 1587,
      "Ð½ÐµÐ¼": 1588,
      "ĠÐ¡Ð°Ð½": 1589,
      "ĠÐ²Ð»Ð°ÑģÑĤ": 1590,
      "ÑĢÐ°ÑģÑĤ": 1591,
      "Ð¾Ð±ÑĢÐ°Ð·": 1592,
      "ĠÐ²ÑĭÑģÐ¾Ðº": 1593,
      "ĠÐ´ÐµÐºÐ°Ð±ÑĢÑı": 1594,
      "ĠÐ¸ÑİÐ½Ñı": 1595,
      "Ð¸Ð»Ð»": 1596,
      "Ð»ÑģÑı": 1597,
      "Ð¾Ð²Ð°ÑĤÑĮ": 1598,
      "ÑģÐµÐ´": 1599,
      "ĠÐ¶ÐµÐ»ÐµÐ·": 1600,
      "ĠÐ¾Ð¿ÑĢÐµÐ´ÐµÐ»": 1601,
      "ĠÑĦÐ¸Ð»ÑĮÐ¼": 1602,
      "ĠÐ¿ÑĢÐµÐ¼": 1603,
      "ĠÑģÐ»ÐµÐ´ÑĥÑİÑī": 1604,
      "ÐµÑĢÐµÐ´": 1605,
      "ĠÐ´ÐµÑĢÐµÐ²Ð½Ñı": 1606,
      "Ð¾ÑĢÐ¾Ð½Ñĭ": 1607,
      "ĠÐ¼ÑĥÐ¶": 1608,
      "Ð¸ÑĨÑĭ": 1609,
      "Ġ190": 1610,
      "ĠÐ¸ÑĤ": 1611,
      "ĠÐ¿Ð¸Ñģ": 1612,
      "ĠÑĥÐ²": 1613,
      "Ð¸ÑĤÐ°": 1614,
      "Ð£": 1615,
      "ĠÐ±ÑĭÑĤÑĮ": 1616,
      "ĠÐ²ÑģÐµÑħ": 1617,
      "Ð±Ñĥ": 1618,
      "Ð³Ð¾ÑĤÐ¾Ð²": 1619,
      "Ð°ÑĢÑı": 1620,
      "ĠD": 1621,
      "Ð¸ÑĤÑĮÑģÑı": 1622,
      "ĠÐµÐ²": 1623,
      "ĠÑģÐ¾Ð¾ÑĤ": 1624,
      "ĠÐ°Ð´Ð¼Ð¸Ð½Ð¸ÑģÑĤ": 1625,
      "ĠÐ¿ÑĢÐ¾Ð¸Ñģ": 1626,
      "ĠÐłÐ¾Ð´": 1627,
      "Ð°Ð»ÑĮÐ½ÑĭÑħ": 1628,
      "ĠÐ¿Ð¾ÑģÑĤÑĢÐ¾": 1629,
      "Ð°ÑĢÐ¾Ð²": 1630,
      "Ð¾Ð½Ð´": 1631,
      "ĠÐºÐ¾ÑĤÐ¾ÑĢÐ¾Ð³Ð¾": 1632,
      "ÐĶ": 1633,
      "ĠÐ»Ð¸ÑĤ": 1634,
      "ĠÐ¾ÐºÐ°Ð·": 1635,
      "Ðĵ": 1636,
      "ĠÐ¾ÑĤÐ½Ð¾ÑĪ": 1637,
      "ĠÐľÐ¸Ñħ": 1638,
      "ĠÐ²Ð¼ÐµÑģÑĤÐµ": 1639,
      "ÐµÑĦ": 1640,
      "ÑĳÐ½Ð½ÑĭÑħ": 1641,
      "Ð»Ð¾Ð¼": 1642,
      "ĠÐ»Ð¸ÑĪ": 1643,
      "Ð°ÑĤÐ¾Ð²": 1644,
      "ÑĥÐ²": 1645,
      "ĠÐ½Ð°ÑĨÐ¸Ð¾Ð½Ð°Ð»ÑĮ": 1646,
      "ĠÐłÐµÑģÐ¿": 1647,
      "ĠÐ¿Ð¾Ð´Ð´ÐµÑĢÐ¶": 1648,
      "ĠR": 1649,
      "ĠÑĢÐ°Ð½": 1650,
      "ĠÐ¾ÑĤÐ»Ð¸Ñĩ": 1651,
      "ĠÐ³ÑĢÐ°Ð½": 1652,
      "Ð¸Ð»Ð¾ÑģÑĮ": 1653,
      "ĠÐłÐµÑģÐ¿ÑĥÐ±Ð»": 1654,
      "ĠÐ°Ð¿ÑĢÐµÐ»Ñı": 1655,
      "ĠÐºÐ¾ÑĢÐ¾Ð»": 1656,
      "ĠÐ¡Ð¾Ð²ÐµÑĤ": 1657,
      "Ð°Ð¼ÑıÑĤ": 1658,
      "ĠÐ»Ð¸Ð½": 1659,
      "ÑĪÐµÐ³Ð¾": 1660,
      "ĠÑįÐ»ÐµÐºÑĤ": 1661,
      "ĠÐ³Ð¾Ð´Ð¾Ð²": 1662,
      "Ð¾ÑĢÑĥÐ¶": 1663,
      "ĠÑģÐ¼ÐµÑĢ": 1664,
      "ĠÐ³ÑĥÐ±ÐµÑĢÐ½": 1665,
      "Ð¼ÐµÐ½ÑĤ": 1666,
      "ĠÑĥÑĩÐ°ÑģÑĤÐ¸Ðµ": 1667,
      "ĠÐļÐ°Ð·": 1668,
      "ĠÐ¾ÑģÑĤÑĢÐ¾Ð²": 1669,
      "Ð¼ÐµÑĤ": 1670,
      "Ð°ÑĤÐ¾ÑĢ": 1671,
      "ÑĨÐ¸ÐµÐ¹": 1672,
      "Ð°Ð»ÑĮÐ½Ð¾": 1673,
      "ĠÐ¿ÑĢÐ¾ÑģÑĤ": 1674,
      "Ð°ÑĤÑĢ": 1675,
      "Ð¿Ð¾Ð»": 1676,
      "ĠÐ¿ÑĢÐ¾ÑĨ": 1677,
      "ÑĢÑĥÑĪ": 1678,
      "Ð¾Ð½ÑĤ": 1679,
      "ĠÐŁÑĢÐµ": 1680,
      "ĠÐ½Ð¾ÑıÐ±ÑĢÑı": 1681,
      "ĠÐ¿Ð»Ð°Ð½": 1682,
      "ĠÑĢÐµÐ¶": 1683,
      "ÐµÑģÑĤÐ²ÐµÐ½Ð½Ð¾Ð¹": 1684,
      "ĠÐ¸ÑģÐºÑĥÑģ": 1685,
      "Ð»Ð°Ð½": 1686,
      "Ð¿Ð¸Ñģ": 1687,
      "Ð¸ÑĩÐµÑģÐºÐ°Ñı": 1688,
      "ÐµÐ·Ð´Ð°": 1689,
      "ĠÑģÑĢÐµÐ´Ð¸": 1690,
      "ĠÑĥÑģÐ¿": 1691,
      "Ð¶Ð´Ð°Ð½": 1692,
      "ĠÑĥÑĢÐ¾Ð²": 1693,
      "ĠÑģÐ²Ð¾Ñİ": 1694,
      "ĠÑģÐµÐ±Ñı": 1695,
      "Ð»Ð¸Ð¼Ð¿": 1696,
      "ĠÑģÐ¾Ð¾Ð±Ñī": 1697,
      "ĠÑĤÐµÑħÐ½": 1698,
      "ÐºÐ°Ð¼Ð¸": 1699,
      "ĠÐ¸Ð¼ÐµÐ½Ð¸": 1700,
      "ĠÐ°ÑĢÐ¼Ð¸Ð¸": 1701,
      "ĠÐ²ÑħÐ¾Ð´": 1702,
      "ĠÑĤÑĢÐ°": 1703,
      "Ð²Ð¸Ð½": 1704,
      "ĠÐľÐ¾ÑģÐºÐ¾Ð²": 1705,
      "ĠÑįÑĤÐ¾Ð¹": 1706,
      "ĠÐ´Ð°": 1707,
      "ĠÐ´Ð¾ÑĢÐ¾Ð³": 1708,
      "ĠF": 1709,
      "ĠÑģÑĤÐ°ÑĤ": 1710,
      "ÐµÐ´ÐµÐ½Ð¸Ñı": 1711,
      "ĠÐłÐ°": 1712,
      "ÐµÑĢÑĥ": 1713,
      "Ðľ": 1714,
      "ĠÑĤÐµÑĩ": 1715,
      "ĠÑģÑĤÑĢÐ¾Ð¸ÑĤÐµÐ»ÑĮ": 1716,
      "ĠÐ¶Ð¸Ð·Ð½Ð¸": 1717,
      "ĠÐ¿ÑĢÐµÐ·Ð¸Ð´": 1718,
      "Ð¸ÑĨÐ°": 1719,
      "Ð°Ð»Ð¸Ð·": 1720,
      "ĠÐ¾ÑģÑĤÐ°Ð²": 1721,
      "ÑĭÐ²Ð°ÐµÑĤ": 1722,
      "ÐµÑģÑĤÑĮ": 1723,
      "Ð¾ÐºÐ°": 1724,
      "ĠÐ¾ÑģÐ²": 1725,
      "Ð°Ð»ÑĮÐ½ÑĭÐ¹": 1726,
      "Ð°Ð½Ð¸Ð¹": 1727,
      "Ð»ÐµÑĤ": 1728,
      "ĠÑĦÐµÐ²ÑĢÐ°Ð»Ñı": 1729,
      "Ð¸ÑıÑħ": 1730,
      "ĠÑĦÑĢÐ°Ð½": 1731,
      "ĠÐ¿ÑĢÐ°Ð²Ð¸ÑĤÐµÐ»ÑĮ": 1732,
      "Ð»Ð°ÑģÑĮ": 1733,
      "ĠÐ³Ð¾ÑĢÐ¾Ð´Ðµ": 1734,
      "Ð»Ð¾ÑĤ": 1735,
      "ĠÑĤÑĢÐ°Ð½": 1736,
      "ĠÐ³Ð°Ð·": 1737,
      "ĠÐºÐ°ÑĢÑĤ": 1738,
      "Ð°Ñī": 1739,
      "ĠV": 1740,
      "ĠÑĩÐµÐ¼": 1741,
      "ĠÐŁÑĢÐ¾": 1742,
      "ĠÐĲÐ½Ð´": 1743,
      "ĠÐ°Ð¼ÐµÑĢÐ¸ÐºÐ°Ð½": 1744,
      "ĠÐ¶ÑĥÑĢÐ½": 1745,
      "ĠÑĤÐ¸Ð¿": 1746,
      "ĠÑĢÑıÐ´": 1747,
      "ÑģÐºÐ°Ð·": 1748,
      "ÑĳÐ²": 1749,
      "ĠÐ´ÐµÐ¿": 1750,
      "ÑģÑĥ": 1751,
      "Ð½Ð°Ð¼": 1752,
      "ĠÐºÐ²": 1753,
      "ĠÐ¡Ð°Ð¼": 1754,
      "ĠÑģÑĤÐ¾Ð»": 1755,
      "Ð°ÑĢÐ°ÐºÑĤ": 1756,
      "ĠÐļÑĥÐ±": 1757,
      "ĠÑįÐºÐ¾Ð½Ð¾Ð¼": 1758,
      "ĠÑģÐ²Ð¾ÐµÐ³Ð¾": 1759,
      "Ð¸Ð°Ð½": 1760,
      "ĠÐ¿Ð»Ð¾ÑīÐ°Ð´": 1761,
      "ĠÐ¡ÐµÐ²ÐµÑĢ": 1762,
      "ĠÐ½Ð°ÑħÐ¾Ð´Ð¸ÑĤÑģÑı": 1763,
      "ĠÑĩÐµÑĤÑĭ": 1764,
      "ĠÐ½Ð°Ð±": 1765,
      "ĠÑĢÐ¾ÑģÑģÐ¸Ð¹": 1766,
      "ÑĥÐ»ÑıÑĢ": 1767,
      "Ð»ÐµÐ¹": 1768,
      "ic": 1769,
      "ÐºÐ¾Ð³Ð¾": 1770,
      "ĠÐ¼Ð¾Ð»Ð¾Ð´": 1771,
      "ĠÑģÐ¾Ð¾ÑĤÐ²ÐµÑĤ": 1772,
      "ÑĩÐ¸Ð½": 1773,
      "ĠÐŁÐ¾Ð´": 1774,
      "ÑĦÐ¾ÑĢÐ¼Ð°": 1775,
      "ĠÐ°ÐºÑĤÐ¸Ð²": 1776,
      "ÑĭÐ»": 1777,
      "ÑĨÐµ": 1778,
      "Ġ2010": 1779,
      "ĠÐļÐ¾Ð»": 1780,
      "ÑĭÐ½": 1781,
      "ĠÐ½Ð°ÑĩÐ°Ð»Ðµ": 1782,
      "ĠÐ²ÑĢÐµÐ¼ÐµÐ½Ð¸": 1783,
      "ĠÑģÐ¾ÑĤ": 1784,
      "Ð¿Ð¾Ð´": 1785,
      "Ð¾ÑĢÐ¾Ð¶": 1786,
      "ĠÐ·Ð°Ð±": 1787,
      "Ð³ÑĢÐ°Ð´": 1788,
      "ĠÐ°ÑĢÑĤ": 1789,
      "ĠÑĥÑĩÐ°ÑģÑĤÐ²": 1790,
      "ĠG": 1791,
      "ĠÑĥÐ³": 1792,
      "ĠÐ¿ÑĥÐ½": 1793,
      "Ð°Ð½Ð¸ÐµÐ¼": 1794,
      "ĠÐºÐ°Ð½": 1795,
      "ÐµÑĢÐ¾": 1796,
      "ĠÐ°Ð»ÑĮ": 1797,
      "ĠÑĤÐ¾ÑĢ": 1798,
      "Ð¸ÑĢÐ¾Ð²Ð°Ð»": 1799,
      "ÑĥÑĤÑģÑĤÐ²": 1800,
      "ĠÐµÑģÑĤÑĮ": 1801,
      "ÑĢÑıÐ´": 1802,
      "ÐµÐ¶Ð´": 1803,
      "Ð¸Ð½ÑģÐºÐ¾Ð¹": 1804,
      "Ð¾Ð²Ð¸Ñĩ": 1805,
      "ĠÐŃÑĤÐ¾": 1806,
      "Ð¾Ð³Ð»Ð°ÑģÐ½Ð¾": 1807,
      "ĠÐ²Ð¾Ð¿": 1808,
      "ÐµÐ»Ð°": 1809,
      "Ð²Ñĭ": 1810,
      "ĠÑģÐ¾Ð´": 1811,
      "ĠÐ±ÐµÐ»": 1812,
      "ÐµÑģÑĤÐ¸": 1813,
      "ĠÑįÑĤÐ°": 1814,
      "Ð¾Ð±Ð¾Ð´": 1815,
      "ÑĨÑĥÐ·": 1816,
      "ÑĢÐ¾Ð¼Ðµ": 1817,
      "ĠÑģÐ¿Ð¾ÑģÐ¾Ð±": 1818,
      "ĠÑĩÐ¸ÑģÐ»Ðµ": 1819,
      "ĠÑĪÐ¸ÑĢ": 1820,
      "ĠÐºÐ°Ð¶Ð´": 1821,
      "ĠÐ²ÐµÑĢÐ½": 1822,
      "ĠÑģÐ´ÐµÐ»": 1823,
      "Ð¿Ð¾Ð½": 1824,
      "ĠL": 1825,
      "ĠÐ²ÐµÐ´": 1826,
      "ĠÐ¿ÑĢÐ¾Ð³ÑĢÐ°Ð¼": 1827,
      "ĠÐºÐ¾Ð½ÑĨÐµ": 1828,
      "Ð¸ÑģÐ°": 1829,
      "he": 1830,
      "ÐµÐ½ÐºÐ¾": 1831,
      "ĠÐ¼Ð¾Ð´": 1832,
      "ĠÐ¤ÐµÐ´ÐµÑĢÐ°": 1833,
      "Ð¸ÑĨÐ¸Ð¸": 1834,
      "ÑģÐºÐ¾": 1835,
      "ĠÐ¸ÑģÑĤÐ¾ÑĢÐ¸Ð¸": 1836,
      "ĠÐ½ÐµÐ·": 1837,
      "ĠÑģÐ»Ð¾Ð²": 1838,
      "ĠÐ¿ÑĢÐ¾ÐµÐºÑĤ": 1839,
      "Ð¸ÑĤÐµÐ»Ð¸": 1840,
      "Ġ21": 1841,
      "ĠÐºÐ¾Ð»Ð¸Ñĩ": 1842,
      "ĠÐ¿ÐµÑģ": 1843,
      "ĠÐ²ÑģÐµÐ³Ð¾": 1844,
      "Ġ22": 1845,
      "ĠÑģÐ¾ÑħÑĢÐ°Ð½": 1846,
      "ĠÑĢÐ°Ð±Ð¾ÑĤÑĭ": 1847,
      "ĠÐ±ÐµÑĢÐµÐ³": 1848,
      "Ð¸Ð½ÑģÐºÐ¸Ð¹": 1849,
      "ĠÐłÐ¾ÑģÑģÐ¸Ð¹ÑģÐºÐ¾Ð¹": 1850,
      "ĠÐ¿ÑĢÐ¸Ñĩ": 1851,
      "ĠÐ·Ð°Ñı": 1852,
      "ĠÐ²ÑģÑĤÑĢÐµÑĩ": 1853,
      "ĠÐ¼Ð¸Ð½Ð¸ÑģÑĤ": 1854,
      "ĠÐ¼Ð½Ð¾Ð³Ð¾": 1855,
      "ĠÑģÐ²ÑıÐ·Ð¸": 1856,
      "ĠÐ¿ÑĢÐ¾ÑĪ": 1857,
      "ĠÑģÐ¾Ð²ÑĢÐµÐ¼": 1858,
      "ĠÐ¿ÑĢÐ¾Ð¼": 1859,
      "ÑĢÑĥÐºÑĤ": 1860,
      "ĠÐĽÑİ": 1861,
      "ĠÐ¿ÑĢÐ¾Ð±": 1862,
      "Ð¸ÑģÐ¸": 1863,
      "ĠÐ´Ð²Ð¸Ð¶": 1864,
      "Ð¾Ð»Ð¾Ð³Ð¸Ð¸": 1865,
      "ĠÐĹÐ°Ð¿": 1866,
      "ÐµÑĢÐ¸Ð¸": 1867,
      "ĠÐ¡ÑĢÐµÐ´": 1868,
      "ĠÑģÑĤÐ°Ð»Ð°": 1869,
      "ĠÐ½Ð°ÑĩÐ°Ð»ÑĮ": 1870,
      "ĠÐ¼Ð¾Ð¶Ð½Ð¾": 1871,
      "ĠÑģÐµÐ»Ð¾": 1872,
      "ĠÐ±ÑĭÐ²": 1873,
      "ĠÐ°Ð²Ð¸": 1874,
      "ĠÐĴÐµÑĢÑħ": 1875,
      "ĠÐ½ÐµÐ±": 1876,
      "ĠÐ¾ÑĤÐ¿ÑĢÐ°Ð²": 1877,
      "Ð¸ÑģÐ¸Ð¼": 1878,
      "Ð°ÑĨÐ¸Ð¸": 1879,
      "Ð¾ÐºÑĢÐ°ÑĤ": 1880,
      "ĠÐ¿ÑĢÐ¾Ñģ": 1881,
      "ĠÐĳÐ¾Ð»ÑĮÑĪ": 1882,
      "ĠÐ´ÐµÐ½ÑĮ": 1883,
      "ĠÐ¿ÑĢÐ¸Ðº": 1884,
      "Ð²Ð¾Ð´": 1885,
      "000": 1886,
      "ĠÐĲÐ·": 1887,
      "Ð¾Ð±ÑĢÐ°Ð¶": 1888,
      "Ð°Ðµ": 1889,
      "ÑĪÐµ": 1890,
      "ĠÐ²ÑĭÐ±": 1891,
      "ĠÑģÐ²Ð¾Ð¹": 1892,
      "Ð°ÑĢÑħ": 1893,
      "ĠÑįÑĤÐ¾ÑĤ": 1894,
      "ÐµÐ»Ð¸Ñĩ": 1895,
      "ĠÐ²Ð¾ÑģÑģÑĤ": 1896,
      "ĠÐ½ÐµÐ¼ÐµÑĨ": 1897,
      "ĠÑģÐ¾Ð²ÐµÑĢÑĪ": 1898,
      "ĠÑĤÑĭ": 1899,
      "ĠÑĨÐµÐ»": 1900,
      "ĠÐºÑĥÑĢ": 1901,
      "ĠÑįÐ¿": 1902,
      "Ð°Ð½Ð¸Ñİ": 1903,
      "ĠÐ°ÐºÐ°Ð´ÐµÐ¼": 1904,
      "ĠÑħÐ°ÑĢÐ°ÐºÑĤ": 1905,
      "ĠÑįÐ½": 1906,
      "Ð¸ÑĤÐµÐ»Ñı": 1907,
      "ĠÐ¿Ð¾ÑıÐ²": 1908,
      "ĠÐºÐ°Ð·": 1909,
      "ĠÐĴÑĭ": 1910,
      "ĠÐ¸Ð¼ÐµÐµÑĤ": 1911,
      "ĠÑģÐ¾Ð±ÑģÑĤÐ²ÐµÐ½": 1912,
      "ĠÐºÑĢÐµÑģÑĤ": 1913,
      "ĠÐ¼Ð°ÑĤÐµÑĢÐ¸": 1914,
      "ĠÐ·Ð°ÑīÐ¸ÑĤ": 1915,
      "Ð³Ðµ": 1916,
      "ĠÐ¿ÑĢÐµÐ´ÑģÑĤÐ°Ð²Ð»Ñı": 1917,
      "ĠÐ¿ÑĢÐ¾Ð²Ð¾Ð´": 1918,
      "Ð»ÐµÐ¶": 1919,
      "ĠÐ¾ÑĤÐºÑĢÑĭÑĤ": 1920,
      "ÑģÐ¾Ð½": 1921,
      "ĠÐ¾Ð¿ÐµÑĢÐ°": 1922,
      "ĠÐ¿ÐµÑĢÐ²ÑĭÐ¹": 1923,
      "ĠÑĥÐºÐ°Ð·": 1924,
      "ĠÐ¾ÑģÐ½Ð¾Ð²Ð°Ð½": 1925,
      "Ð½Ð¸Ñĩ": 1926,
      "ĠH": 1927,
      "ÑĪÐ¸Ð¼": 1928,
      "Ġ24": 1929,
      "Ð¾Ð²ÑĭÑħ": 1930,
      "ĠÐĲÐ´": 1931,
      "ÐµÐ½ÑĤÐ¾Ð²": 1932,
      "Ð¾Ð¶Ð´ÐµÐ½Ð¸Ñı": 1933,
      "ĠÐ½Ð°ÑģÐµÐ»ÐµÐ½Ð¸Ñı": 1934,
      "ĠÐ¿Ð¾Ð½": 1935,
      "ĠÐ¼Ñĥ": 1936,
      "ĠÑĢÐ°ÑģÑģ": 1937,
      "ĠÐĴÐ°Ñģ": 1938,
      "ÑĢÐ°ÑĤÑĮ": 1939,
      "ĠÐ¿ÑĢÐµÐ´Ð¿ÑĢ": 1940,
      "ĠÐ°Ð²ÑĤÐ¾Ð¼": 1941,
      "Ð¸Ð²Ð°ÐµÑĤ": 1942,
      "ĠÐ¡Ð¾ÑİÐ·": 1943,
      "ĠÐ£ÐºÑĢÐ°Ð¸Ð½Ñĭ": 1944,
      "ĠÑģÑĤÐ°ÑĤÑĮ": 1945,
      "ĠÐ±Ð»Ð°Ð³": 1946,
      "Ð¾ÑĢÑĤÐ°": 1947,
      "ÑĥÑģÐ°": 1948,
      "ĠÐ¢Ð°ÐºÐ¶Ðµ": 1949,
      "ĠÑĢÐ°Ð±Ð¾ÑĤÐ°Ð»": 1950,
      "ĠÑħÐ¾ÑĤ": 1951,
      "ÑģÑıÑĩ": 1952,
      "ĠÐ¿ÑıÑĤ": 1953,
      "ĠÐ¼ÐµÐ¶Ð´ÑĥÐ½Ð°ÑĢÐ¾Ð´": 1954,
      "Ġ189": 1955,
      "Ð½Ð°ÑĢ": 1956,
      "ĠÑĤÑĢÑĥÐ´": 1957,
      "ĠÐ³ÑĢÐ°Ð¶Ð´Ð°Ð½": 1958,
      "Ð¸ÑĤÑĥÑĤ": 1959,
      "ĠII": 1960,
      "Ð»Ð¾Ð½": 1961,
      "is": 1962,
      "ĠÐ½Ð°Ð·Ð²Ð°Ð½Ð¸Ðµ": 1963,
      "Ð¾ÑĢÐ¸": 1964,
      "ĠÐ½Ð¸": 1965,
      "Ð¸Ð·Ð¼": 1966,
      "ĠÑĢÐµÐ´": 1967,
      "Ð°Ð½ÑĮ": 1968,
      "Ð¾ÑĢÐ¸Ñı": 1969,
      "ĠÐºÐ½Ñı": 1970,
      "ĠÐ³ÑĢÐ°ÑĦ": 1971,
      "Ð¾ÑĢÐ´": 1972,
      "ĠÐ¿Ð°Ð¼ÑıÑĤ": 1973,
      "ĠÑĤÐ°Ð½": 1974,
      "Ð¾Ð²Ð°Ð»Ð¸": 1975,
      "ÑĢÐ¸Ð¼": 1976,
      "ĠÑģÐ¾Ð¿": 1977,
      "ĠÐ°Ð²ÑĤÐ¾ÑĢ": 1978,
      "Ð¸ÑĤÐµÐ»ÐµÐ¼": 1979,
      "ĠÑĤÐ¾Ñĩ": 1980,
      "ĠÐ½ÐµÐ³Ð¾": 1981,
      "ĠÐ²ÐµÐº": 1982,
      "Ð½Ñİ": 1983,
      "ĠÐ¿ÐµÑĢÐµÐ¿": 1984,
      "ĠÑĢÐ°Ð·ÑĢÐ°Ð±Ð¾ÑĤ": 1985,
      "ĠÑģÐ°Ð¹ÑĤÐµ": 1986,
      "ĠÑģÑĤÐµÐ¿ÐµÐ½Ð¸": 1987,
      "ĠÐĲÐ»ÑĮ": 1988,
      "ĠÑĤÐµÐ°ÑĤ": 1989,
      "Ġ23": 1990,
      "ĠÐ´Ð¾Ð¿": 1991,
      "Ġ2014": 1992,
      "ÑĳÐ·": 1993,
      "ĠW": 1994,
      "ĠÑģÐ¸Ð¼": 1995,
      "ĠÐ¸ÑģÐ¿Ð¾Ð»Ð½": 1996,
      "Ġ2012": 1997,
      "Ð¾Ð²Ð°ÑĤÐµÐ»ÑĮ": 1998,
      "ĠÐ¡Ðº": 1999,
      "Ð¾ÑģÐ»Ð°Ð²": 2000,
      "ĠÑĢÐµÐ·ÑĥÐ»ÑĮÑĤÐ°ÑĤÐµ": 2001,
      "ĠÐ²Ð¾Ð·Ð´": 2002,
      "ĠÐ½Ð°Ð¿Ð¸Ñģ": 2003,
      "Ġ2011": 2004,
      "Ð½ÑıÑı": 2005,
      "ĠÐ¿Ð¾ÑģÑĳÐ»": 2006,
      "ĠXV": 2007,
      "ÐµÑı": 2008,
      "ĠÑĢÐµÐº": 2009,
      "ĠÐ²Ð¾Ð¿ÑĢÐ¾Ñģ": 2010,
      "Ðĳ": 2011,
      "ĠÐ²Ð½ÑĥÑĤ": 2012,
      "Ð°Ð»ÑĮÐ½ÑĭÐµ": 2013,
      "ĠÐ¿Ð¾Ð·Ð²Ð¾Ð»": 2014,
      "ÑĢÐ¸Ð´": 2015,
      "Ð°ÑĤÐ¸Ð²": 2016,
      "ÑģÑıÑĤ": 2017,
      "ĠÐ±Ð¾ÐµÐ²": 2018,
      "Ð¸Ð½Ð¾Ð¹": 2019,
      "ĠE": 2020,
      "ÑģÐºÐ¸Ð¼Ð¸": 2021,
      "ĠÑĦÑĢÐ°Ð½ÑĨÑĥÐ·": 2022,
      "ÑĤÐ¾Ð½": 2023,
      "Ð¸ÐºÑĥ": 2024,
      "ĠÐ»Ð¸Ñĩ": 2025,
      "ĠÐ²ÑĤÐ¾ÑĢÐ¾Ð¹": 2026,
      "Ð¾ÑĢÐ°Ð±": 2027,
      "ĠÐ¸Ð³ÑĢÐ¾Ðº": 2028,
      "ĠÐºÐ¾ÑĢÐ¿": 2029,
      "ĠÑģÐ¿Ð¾ÑĢÑĤ": 2030,
      "ÑĪÐ¸Ðµ": 2031,
      "ĠÑĦÑĥÑĤÐ±Ð¾Ð»": 2032,
      "ĠÑĦÑĥÐ½": 2033,
      "ÐµÐ»Ð¾": 2034,
      "ÐºÐ²Ð¸": 2035,
      "ÑĥÑĤÑĮ": 2036,
      "Ð»ÐµÐ½Ð°": 2037,
      "ĠÐºÐ¸Ð½": 2038,
      "ĠÑģÐ²Ð¾Ð¸Ñħ": 2039,
      "Ð²ÑĢÐ°Ñī": 2040,
      "ĠÑģÐ¾Ð´ÐµÑĢÐ¶": 2041,
      "ĠÐºÑĢÐ°Ñģ": 2042,
      "ĠÐĽÑĥ": 2043,
      "ĠÐ¿Ð¾Ð»Ð¾Ð¶": 2044,
      "ĠÐ¼Ð¾Ð¼": 2045,
      "Ð¿Ð°": 2046,
      "ĠÐĻ": 2047,
      "ÑģÑĤÐ²Ð¸Ð¸": 2048,
      "ĠÐ³ÑĢÑĥÐ¿Ð¿Ñĭ": 2049,
      "ĠÐ¶ÐµÐ½Ñī": 2050,
      "ĠÐ·Ð°ÑıÐ²": 2051,
      "ĠÐ»ÐµÑģ": 2052,
      "ĠÐ¾ÑĤÐ½Ð¾Ñģ": 2053,
      "ĠÐ»Ð¸Ð±": 2054,
      "ÑĢÐ°Ð·Ð´": 2055,
      "it": 2056,
      "ĠÐ·Ð°ÐºÐ»ÑİÑĩ": 2057,
      "Ð°Ð½Ð³": 2058,
      "ĠÑĥÐ·": 2059,
      "ÑĢÐ¾ÑģÑĤÑĢÐ°Ð½": 2060,
      "Ð»ÐµÐ½Ñĭ": 2061,
      "ÑĢÐ°Ð±": 2062,
      "ĠÐ±Ð°Ð·": 2063,
      "ÐµÑĤÑĮ": 2064,
      "Ð°Ð»Ð¾Ð²": 2065,
      "ÑĢÐµÑģÑģ": 2066,
      "Ð°ÑĤÐµÐ»Ñı": 2067,
      "Ġ2009": 2068,
      "ĠÑĩÐµÐ»Ð¾Ð²ÐµÐºÐ°": 2069,
      "ĠÐ¼Ð¸ÑĢÐ¾Ð²": 2070,
      "Ð±Ðµ": 2071,
      "ĠÐ²ÑĭÐ·": 2072,
      "ÐµÐ½Ñģ": 2073,
      "ĠÐŀÑĤÐµÑĩ": 2074,
      "ĠÐ¿ÑĥÐ½ÐºÑĤ": 2075,
      "Ġ2015": 2076,
      "ĠÐ£Ñĩ": 2077,
      "ÑĭÑĪÐ»ÐµÐ½": 2078,
      "ĠÐłÑĥÑģ": 2079,
      "ĠÐ¾Ð±ÑĢÐ°Ð·Ð¾Ð¼": 2080,
      "ÑĢÐ°Ð½Ð¸Ñĩ": 2081,
      "ĠÑģÐ¿ÐµÑĨÐ¸Ð°Ð»ÑĮ": 2082,
      "ĠÐ¸Ð½ÑĤÐµÑĢ": 2083,
      "Ð¸Ð»Ð¸Ñī": 2084,
      "Ð°Ð»Ð¾Ð³": 2085,
      "Ð¾ÑıÐ½": 2086,
      "ĠÑĦÑĢÐ¾Ð½": 2087,
      "ÐµÑĢÐ²ÑĭÐµ": 2088,
      "ĠÐĴÐ»Ð°Ð´Ð¸Ð¼": 2089,
      "Ð½ÐµÑģ": 2090,
      "ĠÐºÐ¾ÑĤÐ¾ÑĢÐ¾Ð¼": 2091,
      "ĠÐķÐ³Ð¾": 2092,
      "Ð»Ð¸Ñı": 2093,
      "ĠÐ·Ð°Ñģ": 2094,
      "ÑĨÐ¾Ð²": 2095,
      "Ð°Ð½Ñģ": 2096,
      "ĠÐ»Ð¸ÑĪÑĮ": 2097,
      "ĠÐºÐ¾Ð½ÑĦ": 2098,
      "Ð»Ð°ÑĪ": 2099,
      "ĠÐ·Ð°Ñħ": 2100,
      "ĠÑģÐ¾Ð±Ð¾Ð¹": 2101,
      "ÑģÐºÐ°": 2102,
      "ĠÐ²ÑĭÑħÐ¾Ð´": 2103,
      "Ð°Ð½Ðµ": 2104,
      "ĠÐļÐ°": 2105,
      "ÑĨÐ¸Ð°Ð»Ð¸ÑģÑĤ": 2106,
      "ĠÐłÐµÑģÐ¿ÑĥÐ±Ð»Ð¸ÐºÐ¸": 2107,
      "Ð¼Ð¸ÑĤ": 2108,
      "ĠÑĨÐµÑĢÐºÐ¾Ð²": 2109,
      "ĠÐ´Ð²Ð¾ÑĢ": 2110,
      "Ġ2008": 2111,
      "ĠÐĴÐ¾Ð»": 2112,
      "ĠÐ»Ð¸ÑĤÐµÑĢÐ°ÑĤ": 2113,
      "ĠÑĩÐµÐ³Ð¾": 2114,
      "ÑģÑĤÐ¾ÑıÑī": 2115,
      "ĠÐ¾Ð´Ð½Ð¾Ð¹": 2116,
      "ÐµÐ¹ÑĤ": 2117,
      "ĠÑĦÐ°Ðº": 2118,
      "ĠÑĢÐ¾Ð»ÑĮ": 2119,
      "ĠÐ¿ÑĢÐ¸Ð½Ð¸Ð¼": 2120,
      "ÑıÑĤÑģÑı": 2121,
      "Ð¾ÑĩÐ½Ð¾Ð¹": 2122,
      "Ð¸ÑĩÐµÑģÐºÐ¾Ðµ": 2123,
      "Ġ26": 2124,
      "Ð½Ð¸ÑĨ": 2125,
      "Ġ2013": 2126,
      "ÐµÑģÐ¿ÐµÑĩ": 2127,
      "ĠÐ²Ð¾ÑģÑĤÐ¾Ðº": 2128,
      "Ð³Ñĥ": 2129,
      "Ð¸Ð´Ð°": 2130,
      "ĠÐ¸Ð·Ð¼ÐµÐ½": 2131,
      "Ð»ÐµÐ½Ð¸Ð¸": 2132,
      "ÑĢÐ°Ñħ": 2133,
      "ĠÐºÐ¾ÑĢÐ°Ð±": 2134,
      "ĠÑĥÐºÑĢÐ°": 2135,
      "ĠÐ¾ÑĩÐµÐ½ÑĮ": 2136,
      "ĠÐ¾ÑĢÐ³Ð°Ð½Ð¸Ð·": 2137,
      "ĠÐĶÐ»Ñı": 2138,
      "ĠÑħÐ¾Ð·ÑıÐ¹": 2139,
      "ÑįÐ¹": 2140,
      "ĠÐĲÐ»ÐµÐºÑģÐ°Ð½Ð´ÑĢ": 2141,
      "ĠÐ´Ð¾Ñĩ": 2142,
      "ÑģÑĤÑĢ": 2143,
      "Ð¾ÑĤÐ¸Ð²": 2144,
      "Ð¸ÐµÐ²": 2145,
      "ĠÑģÑĤÑĢÐ°Ð½Ñĭ": 2146,
      "ĠÑĤÑĢÐµÑĤ": 2147,
      "Ð»Ð¸Ð¼Ð¿Ð¸Ð¹": 2148,
      "ĠÐ¼Ð°Ð³": 2149,
      "ÐµÐºÑĤÐ°": 2150,
      "Ð½ÑĮ": 2151,
      "ĠÐ¾ÑĤÑģ": 2152,
      "ĠÐ´ÑĢÑĥÐ³Ð¸Ðµ": 2153,
      "ĠÐ¾ÑĦÐ¸ÑĨÐ¸Ð°Ð»ÑĮ": 2154,
      "Ð°ÑĤÐµÐ»ÐµÐ¹": 2155,
      "ĠÐ¼Ð°Ñģ": 2156,
      "ĠÐ¿ÑĢÐ¸Ð·Ð½": 2157,
      "Ð°Ð´Ñĭ": 2158,
      "ÐµÐ½Ð½Ð°Ñı": 2159,
      "ĠÐ´Ð¸ÑĢÐµ": 2160,
      "ĠÐĲÐ±": 2161,
      "ĠÑģÐ¾ÑĤÑĢÑĥÐ´": 2162,
      "ĠÐ¾ÑĤÐ´ÐµÐ»ÑĮ": 2163,
      "Ġ2016": 2164,
      "ĠÐ¿ÑĢÐ°ÐºÑĤ": 2165,
      "ĠÐ´ÐµÐ¼": 2166,
      "ĠÐ¿Ð¾ÑįÑĤ": 2167,
      "ĠÑĢÐ°ÑģÑĤ": 2168,
      "Ġ28": 2169,
      "ĠÑģÑĤÐ°Ð»Ð¸": 2170,
      "ĠÑĥÑģÐ»Ð¾Ð²": 2171,
      "ĠÑĢÐ°ÑģÐ¿ÑĢÐ¾ÑģÑĤÑĢÐ°Ð½": 2172,
      "Ð½Ð¸ÑĨÐ¸Ð¿": 2173,
      "ĠÐ¼Ð°Ð»": 2174,
      "Ð¿Ð¸ÑģÐº": 2175,
      "ÐµÐ¹Ð½": 2176,
      "ĠÐºÐ¾Ð½ÑĤÑĢ": 2177,
      "ĠÐ¿ÑĢÐ¸Ñħ": 2178,
      "ĠÐ¾Ð´Ð½Ð¸Ð¼": 2179,
      "ĠÐ¡ÐµÑĢÐ³": 2180,
      "ĠÐ¿ÑĢÐ¾ÑħÐ¾Ð´": 2181,
      "ĠÐĳÐµÑĢ": 2182,
      "Ð¾Ð»Ð¾Ð²": 2183,
      "ĠÐ´ÐµÐ²": 2184,
      "ĠÐ°Ðº": 2185,
      "ĠÐ½ÐµÐ¾Ð±": 2186,
      "Ð¸ÑħÑģÑı": 2187,
      "ĠÐ²Ð¾Ð·ÑĢÐ°ÑģÑĤ": 2188,
      "Ð¼Ð¸Ð½": 2189,
      "Ð¸ÑĨÐµ": 2190,
      "Ð¸Ð¼Ð¾": 2191,
      "ĠÑģÐ¸Ð»ÑĮ": 2192,
      "ĠÑĢÐ°Ð´Ð¸": 2193,
      "ĠÐ³Ð¾Ð²Ð¾ÑĢ": 2194,
      "ĠÐŁÐµÑĤÐµÑĢÐ±": 2195,
      "Ð´Ð°Ñĩ": 2196,
      "ĠÐ°Ð´Ð¼Ð¸Ð½Ð¸ÑģÑĤÑĢÐ°ÑĤÐ¸Ð²": 2197,
      "Ġ27": 2198,
      "ĠÐ°ÑĢÑħÐ¸ÑĤ": 2199,
      "ĠÐ¾Ð±ÐµÑģÐ¿ÐµÑĩ": 2200,
      "ĠÑĦÐ¸Ð·": 2201,
      "ĠÐ¾ÑĢÐ´ÐµÐ½": 2202,
      "ĠÐ³Ð»": 2203,
      "ĠXI": 2204,
      "ĠÐ¿ÑĢÐ¸Ð¼ÐµÐ½": 2205,
      "ĠÐ¦ÐµÐ½ÑĤ": 2206,
      "ĠÐĺÐ¼": 2207,
      "ĠÑħÐ°ÑĢÐ°ÐºÑĤÐµÑĢ": 2208,
      "Ġ2007": 2209,
      "ÑĢÐ°Ðº": 2210,
      "ĠÑĤÑĭÑģÑıÑĩ": 2211,
      "Ð³Ð¾ÑĢÐ¾Ð´": 2212,
      "ĠÐ¼Ð¾Ð³ÑĥÑĤ": 2213,
      "Ð¾Ð»Ð´": 2214,
      "ĠÐ²Ð¸Ð´Ðµ": 2215,
      "ĠÑģÑĤÑĥÐ´": 2216,
      "Ð¸ÑĩÐµÑģÐºÐ¸Ð¼": 2217,
      "ĠÑĢÐ°Ð±": 2218,
      "ĠÑģÐ¾ÑģÑĤÐ°Ð²Ð»ÑıÐµÑĤ": 2219,
      "om": 2220,
      "ĠÐ»ÐµÐ³": 2221,
      "Ð¾ÑĢÐ¾Ð¼": 2222,
      "ĠÐĺÐ²Ð°Ð½Ð¾Ð²": 2223,
      "ÑģÑĤÐ²Ñĥ": 2224,
      "ÑĮÑıÐ½": 2225,
      "ĠÐºÐ°ÑĢÑĮ": 2226,
      "ĠÐ´Ð°Ð»ÑĮ": 2227,
      "ĠÐ¤ÐµÐ´ÐµÑĢÐ°ÑĨÐ¸Ð¸": 2228,
      "ĠÐ¾Ð¿Ð¸Ñģ": 2229,
      "Ð¿Ð¸ÑģÐºÐ¾Ð¿": 2230,
      "ĠÐĴÐ¾ÑģÑĤ": 2231,
      "ĠÐ½Ð°ÑģÑĤÐ¾ÑıÑī": 2232,
      "ĠÐļÐ°Ð¼": 2233,
      "ĠÐ±ÑĥÐ´ÐµÑĤ": 2234,
      "ĠÐ¿ÑĢÐµÐ´ÑģÐµÐ´": 2235,
      "ÑĢÐµÐ¶Ð´": 2236,
      "Ð¸ÑĢÐµ": 2237,
      "ĠÑĤÐµÑĩÐµÐ½Ð¸Ðµ": 2238,
      "ĠÑģÑĤÐ¾ÑĢÐ¾Ð½Ñĭ": 2239,
      "Ð°Ð½Ð¸": 2240,
      "ĠÐ²Ð»Ð°Ð´": 2241,
      "ĠÐ½Ð°ÑĩÐ°Ð»Ð°": 2242,
      "ĠÐĵÐ¾ÑģÑĥÐ´Ð°ÑĢ": 2243,
      "ĠÐ±ÑĢÐ¾Ð½": 2244,
      "Ð°ÑĤÐ¾Ð¼": 2245,
      "Ð¾ÑĤÑĭ": 2246,
      "ĠÐ½Ð°ÑĥÐº": 2247,
      "ĠÐ¼ÑĥÐ·ÑĭÐº": 2248,
      "ĠÐ´Ð°Ð¶Ðµ": 2249,
      "ĠÐ¡Ð¾Ð²ÐµÑĤÐ°": 2250,
      "el": 2251,
      "Ð²ÐµÑĢÐ¶Ð´": 2252,
      "ĠÑģÐ±Ð¾ÑĢÐ½Ð¾Ð¹": 2253,
      "ÐĽ": 2254,
      "Ð²Ð¾Ð»Ñİ": 2255,
      "ĠÐ³Ð³": 2256,
      "ĠÐ¿Ð¾ÑĢÑĤ": 2257,
      "ÑĥÐµÑĤÑģÑı": 2258,
      "ĠÐ¿ÐµÑĢÐµÑĪ": 2259,
      "ĠÑģÐ¼ÐµÑĢÑĤÐ¸": 2260,
      "Ð½Ð¾Ð´": 2261,
      "ĠÑĤÑĢÑĳÑħ": 2262,
      "ĠÐĿÐ¾": 2263,
      "ĠÑĤÑĢÐµÐ±": 2264,
      "Ġ1941": 2265,
      "Ġ2017": 2266,
      "ĠÐ¾Ð±ÑĬÐµÐ´Ð¸Ð½": 2267,
      "ĠÐļÐ¾Ð½ÑģÑĤ": 2268,
      "Ð°ÑĦ": 2269,
      "ĠÑĨÐµÑĢÐºÐ²Ð¸": 2270,
      "ot": 2271,
      "Ð°Ð»ÑĮÐ½Ð°Ñı": 2272,
      "Ð°Ð½ÑģÐºÐ¾Ð¹": 2273,
      "ĠÐ¿Ð°ÑĢÐ°": 2274,
      "ĠÑĢÐ¾Ð¼": 2275,
      "ĠÐ½Ð°Ð·Ð½Ð°ÑĩÐµÐ½": 2276,
      "Ð¸Ð±Ð¾Ð»ÐµÐµ": 2277,
      "ĠÐ°Ð»": 2278,
      "ĠÐ¸Ð½Ð´": 2279,
      "ĠÐľÐ°Ð»": 2280,
      "Ð°ÑĨÐ¸Ð¾Ð½": 2281,
      "ĠÐŀÑĤÐµÑĩÐµÑģÑĤÐ²ÐµÐ½Ð½Ð¾Ð¹": 2282,
      "ÐµÐ½ÐµÑĢ": 2283,
      "ĠÐ´ÑĢÐµÐ²": 2284,
      "Ġ188": 2285,
      "Ð¾ÑģÑĤÐ¾": 2286,
      "ĠÐ½Ð¸Ðº": 2287,
      "ĠÐ¸Ð½ÑĦÐ¾ÑĢÐ¼Ð°": 2288,
      "Ġ2006": 2289,
      "ĠÐ¼ÑĥÐ½Ð¸ÑĨÐ¸Ð¿": 2290,
      "Ð¸Ð¹ÑģÐºÐ¾Ð³Ð¾": 2291,
      "Ð°ÑģÑĤÑĭ": 2292,
      "ĠÑħÐ¾ÑĢ": 2293,
      "ÑĥÐ¼Ð°": 2294,
      "ĠÐ¿ÑĢÐ¾Ð¶": 2295,
      "ĠÐŁÐ°Ð²": 2296,
      "ĠÐ¸ÑĤÐ¾Ð³": 2297,
      "ĠÐ²ÑĭÐ¸Ð³": 2298,
      "ĠÐ·Ð°Ð²ÐµÑĢÑĪ": 2299,
      "ĠÑģÑĤÐ¾ÑĢÐ¾Ð½": 2300,
      "Ð¾Ð²Ð¾Ð³Ð¾": 2301,
      "ÐµÐ½Ðµ": 2302,
      "ÑıÐµÑĤ": 2303,
      "ĠÐµÑģÐ»Ð¸": 2304,
      "ĠÑģÐºÐ¾ÑĢ": 2305,
      "ĠÑģÐ¾Ð·": 2306,
      "ĠÑĢÐ°Ð²": 2307,
      "ĠÐ²ÑĭÐ¿Ð¾Ð»Ð½": 2308,
      "Ð¸Ð²Ð°Ð»": 2309,
      "ĠÐ´Ð°Ð½Ð½ÑĭÐ¼": 2310,
      "ÐµÐºÑĤÐ¸Ð²": 2311,
      "ĠÐ»Ð¸Ð³": 2312,
      "Ð¾Ð»Ð¸": 2313,
      "ÑĥÐ½Ð´": 2314,
      "Ġ2018": 2315,
      "ÑģÐ¾Ð½Ð°": 2316,
      "ĠÑĢÐµÐ¶Ð¸ÑģÑģ": 2317,
      "ĠÐ¿ÐµÑĢÐ²Ð¾Ð¹": 2318,
      "ĠÐĳÐ¾ÑĢ": 2319,
      "ĠÐºÑĢÐ¸ÑĤ": 2320,
      "ĠÐ¾Ð±ÑĭÑĩ": 2321,
      "ĠÑĤÐ¾ÑĤ": 2322,
      "ĠÐ¿ÑĢÐµÐ´Ð»Ð¾Ð¶": 2323,
      "Ð½Ð¸ÑĨÐ°": 2324,
      "Ð¸Ð±Ð»Ð¸": 2325,
      "ÑıÐ±ÑĢÐµ": 2326,
      "ĠÐºÐ¾Ð½Ðº": 2327,
      "ÑĢÐ°Ñĩ": 2328,
      "Ð¸ÑģÑĤÐ¾Ð²": 2329,
      "ĠÐŁÑĢÐµÐ´": 2330,
      "Ġ186": 2331,
      "ĠÐ³ÐµÐ½ÐµÑĢÐ°Ð»": 2332,
      "ĠÐ²Ð¾ÑĪ": 2333,
      "ĠÐŁÐµÑĢ": 2334,
      "ĠÐŁÐ°ÑĢ": 2335,
      "ĠÐ·Ð°Ð´": 2336,
      "ĠÑĩÐµÐ¼Ð¿Ð¸Ð¾Ð½Ð°ÑĤÐµ": 2337,
      "ĠÐºÐ¾Ð¼Ð°Ð½Ð´Ñĭ": 2338,
      "ĠÑģÐµÐ»ÑĮÑģÐ¾Ð²": 2339,
      "Ð¾ÑĩÐ½Ð¾": 2340,
      "ÐµÐ±ÑİÑĤ": 2341,
      "ÑĤÑĭ": 2342,
      "ÑĳÐ½Ð½ÑĭÐ¹": 2343,
      "Ð°Ð»Ð»": 2344,
      "ĠÐ¿Ñģ": 2345,
      "ĠÐ¾ÑĤÐ¼": 2346,
      "ĠÑĢÐµÐ³Ð¸Ð¾Ð½": 2347,
      "ÑĢÐµÐ·": 2348,
      "ÑĤÐµÑĢ": 2349,
      "ĠÐ°Ð³": 2350,
      "ĠÐ¿ÑĢÐ¾ÑĨÐµÑģÑģ": 2351,
      "ÑĩÐ¸Ðº": 2352,
      "Ð°Ð²Ð°Ð»": 2353,
      "ĠÐľÐµÐ´": 2354,
      "ĠÐ²ÐµÑĢÑģ": 2355,
      "ĠÐ¾ÑĤÐºÐ°Ð·": 2356,
      "ĠÐĵÐ»Ð°Ð²": 2357,
      "ĠÑįÑĤÐ¸Ñħ": 2358,
      "ÑĥÐ»Ð¸": 2359,
      "Ð½Ð°ÑĢÑĥÐ¶": 2360,
      "Ġ100": 2361,
      "ĠÑģÐ²Ð¾Ð¸": 2362,
      "ĠÐ½ÐµÐ¾Ð±ÑħÐ¾Ð´": 2363,
      "ÐµÐºÑģÑĤ": 2364,
      "ĠÑĥÐ¼ÐµÑĢ": 2365,
      "ĠÐ³Ðµ": 2366,
      "ĠÐ¾Ñħ": 2367,
      "ĠÐŀÐº": 2368,
      "ĠÐĲÑĦ": 2369,
      "ĠÐ½ÐµÑģ": 2370,
      "ĠÐ»Ð¸Ð±Ð¾": 2371,
      "Ð»Ð°Ð¼": 2372,
      "Ð»ÐµÐ½Ð¸ÐµÐ¼": 2373,
      "ĠÐ½Ð¾Ñģ": 2374,
      "ĠÐ¡Ð²ÑıÑĤ": 2375,
      "ĠÑģÐµÐ·Ð¾Ð½Ð°": 2376,
      "Ð¸Ð»Ð»Ð¸": 2377,
      "ĠÐ¼Ð°ÑģÑĤ": 2378,
      "Ð¾Ð¼ÐµÑĤ": 2379,
      "ĠÐ¸Ñģ": 2380,
      "ĠÐ½ÐµÐ±Ð¾Ð»ÑĮÑĪ": 2381,
      "ÑģÐ¸Ð¼": 2382,
      "ĠÐ¸Ð·Ð¾Ð±ÑĢÐ°Ð¶": 2383,
      "ĠÑĢÐ°Ð·Ð´ÐµÐ»": 2384,
      "ĠÐ¿Ð°ÑĢÑĤÐ¸Ð¸": 2385,
      "ĠÐ½ÐµÐ¿": 2386,
      "ĠÐ¿Ð¾ÑģÑĤÑĥÐ¿": 2387,
      "ĠÐ·Ð°Ð»": 2388,
      "ĠÐŃÐ½": 2389,
      "ĠÐĵÐ¾ÑģÑĥÐ´Ð°ÑĢÑģÑĤÐ²ÐµÐ½": 2390,
      "Ġ2000": 2391,
      "ÐµÐ½Ð½ÑĭÐ¼": 2392,
      "Ð¸ÑĢÐ¾Ð²Ð°Ð½Ð¸Ñı": 2393,
      "Ġ29": 2394,
      "Ð°ÑĤÐµÐ»ÐµÐ¼": 2395,
      "ĠÐ¾ÐºÑĢÑĥÐ³Ð°": 2396,
      "ÑĩÐ¸ÑĤ": 2397,
      "ĠÐ¿ÑĢÐ¾Ð¸Ð·": 2398,
      "ÑĳÐ½Ð½ÑĭÐµ": 2399,
      "ÑĢÑĥÐº": 2400,
      "ÐµÑĢÐ°ÑĤÐ¾ÑĢ": 2401,
      "us": 2402,
      "ĠÑģÑĤÑĢÐµÐ»": 2403,
      "ĠÑģÐµÐ²ÐµÑĢÐ¾": 2404,
      "Ð½ÐµÑĪ": 2405,
      "ĠÐ®Ð¶": 2406,
      "ĠÐĳÐ°ÑĢ": 2407,
      "ĠÐºÐ°Ð¿Ð¸ÑĤ": 2408,
      "ÐµÑħÐ°Ð½": 2409,
      "ĠÐ²ÑĭÐ¿ÑĥÑģÐº": 2410,
      "ÑģÑĤÑĢÐ¾": 2411,
      "ĠÑĩÐµÑĤ": 2412,
      "ĠÐ¼ÐµÐ½ÐµÐµ": 2413,
      "ĠÑĪÐ¸ÑĢÐ¾Ðº": 2414,
      "ĠÐºÐ¾Ð½ÑģÑĤ": 2415,
      "ĠÐ¼Ð°ÑĪ": 2416,
      "Ġ2019": 2417,
      "ĠÐķÐ²ÑĢÐ¾Ð¿Ñĭ": 2418,
      "ĠÐºÐ°ÑĢ": 2419,
      "ĠÐļÐ°Ðº": 2420,
      "ĠÐ¼ÐµÑģÑı": 2421,
      "ĠÑģÐ»Ð¾Ð¶": 2422,
      "ĠÐ±Ð°Ð»": 2423,
      "ĠÐ¿ÑĢÐµÐ·Ð¸Ð´ÐµÐ½ÑĤ": 2424,
      "ĠÐ»Ð¸ÑĨ": 2425,
      "ĠÐ¿ÑĢÐ¸Ð±": 2426,
      "ĠÐ½ÐµÐ¹": 2427,
      "ĠÐ¿Ð¾Ð´Ð³Ð¾ÑĤÐ¾Ð²": 2428,
      "ĠÐ¿ÑĢÐ¾Ð¿": 2429,
      "ĠÐ¼Ð¾Ð¼ÐµÐ½ÑĤ": 2430,
      "ĠÐ¿ÑĢÐ¾Ð±Ð»ÐµÐ¼": 2431,
      "Ð°Ð´Ð»ÐµÐ¶": 2432,
      "Ġ187": 2433,
      "ÐµÐºÑģ": 2434,
      "ĠÑĢÐ°ÑģÑģÐºÐ°Ð·": 2435,
      "Ð°Ð½Ð´Ð°": 2436,
      "Ð³Ð»Ð°Ð²": 2437,
      "ĠÑĩÐ°Ñģ": 2438,
      "ĠÐ¿Ð¾Ñħ": 2439,
      "Ð²Ð¾": 2440,
      "ĠÑĦÐ¸Ð»": 2441,
      "ĠÑģÐ¾Ñģ": 2442,
      "ĠÐ´Ð²Ðµ": 2443,
      "ĠÐ±Ð¾ÑĢÑĮ": 2444,
      "ĠÐŁÑĢÐµÐ·Ð¸Ð´": 2445,
      "Ð´Ð¸Ð¸": 2446,
      "ĠÐĴÐµÐ»Ð¸ÐºÐ¾Ð¹": 2447,
      "ĠÑģÑĤÐ°Ð½Ð¾Ð²": 2448,
      "ĠÐ°Ð½ÑĤ": 2449,
      "ĠÐ²Ð°Ð¶": 2450,
      "ĠÐ¾ÑĢÐ³Ð°Ð½Ð¸Ð·Ð°": 2451,
      "ÑĪÐ°Ñı": 2452,
      "ĠÐ½Ð°ÑĩÐ¸Ð½": 2453,
      "ĠÐ¿ÑĢÐ¾Ð¼ÑĭÑĪÐ»ÐµÐ½": 2454,
      "Ð°Ð¼Ð±": 2455,
      "ĠÐ¸ÑģÑĤÐ¾Ñĩ": 2456,
      "ĠÐ§ÐµÑĢ": 2457,
      "Ð¸ÑĢÐ¾Ð²Ð°ÑĤÑĮ": 2458,
      "ĠÐļÐ°Ð»": 2459,
      "ĠÑıÐ²Ð»ÑıÑİÑĤÑģÑı": 2460,
      "Ġ50": 2461,
      "ĠÐ±ÑĢÐ°ÑĤ": 2462,
      "ĠÐĳÐ¾Ð³": 2463,
      "ĠÐ²ÑģÑĳ": 2464,
      "ĠÑģÐ¾ÑİÐ·": 2465,
      "ÑĥÐ±Ð»Ð¸Ðº": 2466,
      "Ġ1945": 2467,
      "ĠÑĤÐ¾ÑĢÐ³Ð¾Ð²": 2468,
      "ĠÐ¿Ð¾Ð´Ð¿Ð¸Ñģ": 2469,
      "ĠÑĨÐµÐ½ÑĤÑĢ": 2470,
      "Ð°Ð½ÑĤÐ°": 2471,
      "ÑĤÑĥ": 2472,
      "ĠÐĴÐ»Ð°Ð´Ð¸Ð¼Ð¸ÑĢ": 2473,
      "ĠÐ¾Ð´Ð½Ð¾": 2474,
      "ĠÐĹÐ°Ð¿Ð°Ð´": 2475,
      "ÐºÐ¸Ð½": 2476,
      "ÑĩÐ¸Ñģ": 2477,
      "ĠÐ¸Ð½ÑģÑĤÐ¸ÑĤÑĥÑĤ": 2478,
      "ÑĥÐ¼ÐµÐ½ÑĤ": 2479,
      "ĠÐĺÑģÑĤ": 2480,
      "ol": 2481,
      "Ð¾Ð´Ñĭ": 2482,
      "Ð¸Ð¹ÑģÐºÐ¸Ð¹": 2483,
      "ÑĩÐ¸Ð²": 2484,
      "ĠÐ¾ÑģÑĥÑīÐµÑģÑĤÐ²": 2485,
      "ĠÐ¡Ð¾ÑİÐ·Ð°": 2486,
      "Ð¸ÑĩÐµÑģÐºÐ¾Ð¼": 2487,
      "et": 2488,
      "ĠÐłÐ°Ð·": 2489,
      "Ġ2005": 2490,
      "ĠÐĺÑģÐ¿": 2491,
      "ÐµÐ²Ð¾Ð¹": 2492,
      "ĠÐ³Ð²Ð°ÑĢ": 2493,
      "ĠÑĥÑĩÑĳ": 2494,
      "Ð¾Ð·Ð°": 2495,
      "ĠÑĥÐ½Ð¸Ð²ÐµÑĢÑģÐ¸ÑĤÐµÑĤÐ°": 2496,
      "ĠÐ¾ÑĤÐ²ÐµÑĤ": 2497,
      "Ð¾Ð²ÑģÐºÐ¾Ð³Ð¾": 2498,
      "ĠÐ·Ð¾Ð»Ð¾ÑĤ": 2499,
      "ĠÐ½Ð¾Ð¼": 2500,
      "ĠÐ¾Ð±ÑĢÐ°Ð·Ð¾Ð²Ð°Ð½": 2501,
      "ĠÐºÑĥÐ»ÑĮÑĤÑĥÑĢÑĭ": 2502,
      "ĠÐĴÐµÑĢÑħÐ¾Ð²": 2503,
      "ÑİÑīÐ¸Ð¹": 2504,
      "ĠÑİÐ³Ð¾": 2505,
      "ĠÑģÑĨÐµÐ½": 2506,
      "ĠÑĤÑĥÑĢÐ½Ð¸": 2507,
      "ÑģÐºÐ¾Ð»ÑĮ": 2508,
      "ĠÐ·Ð°Ð¼ÐµÑģÑĤ": 2509,
      "ur": 2510,
      "ĠÐ¿ÑĢÐ¸Ð½Ð°Ð´Ð»ÐµÐ¶": 2511,
      "ĠÐĵÐµÑĢÐ¼": 2512,
      "ĠÐ´Ð»Ð¸Ð½": 2513,
      "ĠÑĪÐºÐ¾Ð»Ñĭ": 2514,
      "Ð¸ÑĤÐµÑĤ": 2515,
      "ÐµÐ½Ð½Ð¾Ðµ": 2516,
      "Ð°ÐµÐ²": 2517,
      "ĠÐľÐµÐ¶Ð´": 2518,
      "ĠÐ¿ÐµÑĢÐµÑģ": 2519,
      "ĠÐ·Ð½Ð°Ðº": 2520,
      "ion": 2521,
      "ĠÐ¢Ð¾Ð¼": 2522,
      "ÐµÐ»Ñı": 2523,
      "ĠÐ¾Ð±Ð½Ð°ÑĢÑĥÐ¶": 2524,
      "ĠÑĢÐ°Ð±Ð¾Ñĩ": 2525,
      "Ð´ÐµÐ½Ð°": 2526,
      "Ð¾ÑĢÐµÐ²": 2527,
      "ĠÑĨÐµÐ½ÑĤÑĢÐ°": 2528,
      "ĠÑĩÐµÐ¼Ð¿Ð¸Ð¾Ð½Ð°ÑĤÐ°": 2529,
      "ÑĥÑį": 2530,
      "as": 2531,
      "ĠÐľÐ¸ÑħÐ°": 2532,
      "ĠÐļÑĢÐ¾Ð¼Ðµ": 2533,
      "ĠÐºÐ¾Ð½Ñģ": 2534,
      "ĠÐ·Ð°ÐºÐ¾Ð½": 2535,
      "ĠÑĦÑĥÐ½Ðº": 2536,
      "Ð¼Ð¾ÑĤÑĢÑı": 2537,
      "ÑĮÐ¸": 2538,
      "ĠÐĺÑĤ": 2539,
      "Ð»Ð¸Ðº": 2540,
      "Ð°Ð²Ð¸ÑģÐ¸Ð¼": 2541,
      "Ġ1944": 2542,
      "ĠÑģÐµÐ»Ðµ": 2543,
      "Ð¾Ð²ÑĭÐµ": 2544,
      "Ð¾ÑĢÑĥÑģ": 2545,
      "ĠÐĶÐ¾": 2546,
      "ĠÐ²Ð»Ð°ÑģÑĤÐ¸": 2547,
      "ÑģÐºÐµ": 2548,
      "ĠÐ¾ÑĤÐºÑĢÑĭ": 2549,
      "Ð¾ÑģÑĤÐ°Ð²": 2550,
      "ĠÐ¼ÐµÑĤÑĢÐ¾Ð²": 2551,
      "ĠÐ²ÐµÑģ": 2552,
      "ĠÐ±Ð¸": 2553,
      "ÐµÑĢÑĤÐ°": 2554,
      "ĠÐ¼Ð¾Ð½Ð°ÑģÑĤÑĭ": 2555,
      "ÑģÐºÐ¾ÑĢÐµ": 2556,
      "Ð»Ð¾Ðº": 2557,
      "ĠÑĥÐº": 2558,
      "ĠÐ½ÐµÐ²": 2559,
      "Ð°Ð²ÑĪÐ¸Ð¹": 2560,
      "ĠÐ¾Ð±ÑīÐµÑģÑĤÐ²ÐµÐ½": 2561,
      "Ð¾Ð»Ð½Ñı": 2562,
      "ĠÐ¿ÑĢÐ¸Ð½Ñı": 2563,
      "ĠÐ¢ÑĥÑĢ": 2564,
      "ĠÐ¼Ð»": 2565,
      "Ġ2020": 2566,
      "ĠÐ¸Ð·ÑĥÑĩ": 2567,
      "Ð½Ð¾Ð²ÑĮ": 2568,
      "ÐµÑĩÐ°ÑĤ": 2569,
      "ĠÐĿÐ°ÑĨÐ¸Ð¾Ð½Ð°Ð»ÑĮ": 2570,
      "ĠÐĿÐµ": 2571,
      "Ð¸Ð½Ð°Ð¼": 2572,
      "Ð³ÑĢÐ°Ð¶Ð´": 2573,
      "ĠÐ²Ð¿ÐµÑĢÐ²ÑĭÐµ": 2574,
      "ĠÑĨÐ²ÐµÑĤ": 2575,
      "ĠÑģÐµÐ»ÑĮÑģÐºÐ¾Ð³Ð¾": 2576,
      "ĠÐĲÑĢÐ¼": 2577,
      "ĠÐ¿Ð¾ÑģÐµÐ»ÐµÐ½Ð¸Ñı": 2578,
      "Ð³Ð°ÑĢ": 2579,
      "ÑģÐºÐ¾Ð»ÑĮÐºÑĥ": 2580,
      "ĠÐ°Ð½Ð³Ð»": 2581,
      "ĠXX": 2582,
      "ĠÐŁÐµÑĤÐµÑĢÐ±ÑĥÑĢÐ³": 2583,
      "ĠÐ¾Ð±ÑĬÑıÐ²": 2584,
      "ĠÑħÐ¾Ð´Ðµ": 2585,
      "ĠÐ´ÐµÐ¿ÑĥÑĤ": 2586,
      "Ð¸ÑīÐµ": 2587,
      "ĠÐ±Ð¾Ð³": 2588,
      "ĠÐĴÐ¸Ðº": 2589,
      "ĠÐ¿ÑĢÐµÐ¿Ð¾Ð´": 2590,
      "Ġ2004": 2591,
      "Ð»ÑİÐ´": 2592,
      "ÑĥÐ»ÑģÑı": 2593,
      "ĠÑģÐµÐ»Ð°": 2594,
      "ĠÐ¾Ð´Ð½Ð¾Ð³Ð¾": 2595,
      "ĠÐĴÐ°Ð»": 2596,
      "ÑıÐ²Ð»Ñı": 2597,
      "ĠÐ½ÐµÑģÐºÐ¾Ð»ÑĮ": 2598,
      "ĠÐ¿ÑĢÐ¸ÑĪ": 2599,
      "ĠÑİÐ¶": 2600,
      "ĠÑģÐ¸ÑģÑĤÐµÐ¼Ñĭ": 2601,
      "ĠÐŁÑĢÐ°Ð²": 2602,
      "ĠÐ±Ð¾Ð»": 2603,
      "ÑĳÐ¶": 2604,
      "ĠÐļÑĥÑĢ": 2605,
      "ĠÑģÐ°Ð¼Ð¾Ð»": 2606,
      "ĠÑĢÐ°Ð·Ð¼": 2607,
      "ĠÐ¡Ð¾Ð³Ð»Ð°ÑģÐ½Ð¾": 2608,
      "ÑģÑĮ": 2609,
      "ĠÐ¿Ð¾Ð¶": 2610,
      "ĠÐºÐ¾ÑĤÐ¾ÑĢÐ¾Ðµ": 2611,
      "ĠÐ·Ð°Ð²Ð¾Ð´": 2612,
      "ĠÑģÐ¾Ð²ÐµÑĤÑģÐºÐ¸Ð¹": 2613,
      "ÐµÑĢÐ½Ð¾": 2614,
      "ĠÐĵÐµ": 2615,
      "ÑİÑĢ": 2616,
      "ÑıÐµÑĤÑģÑı": 2617,
      "Ð¸ÑĤÑĥÑĤÐ°": 2618,
      "ĠÑĢÑĭ": 2619,
      "Ð¸ÐµÑģÑı": 2620,
      "Ð°Ð»Ñĭ": 2621,
      "ĠÐ¾Ð±ÑĢÐ°Ð·Ð¾Ð²Ð°Ð½Ð¸Ñı": 2622,
      "Ġ1990": 2623,
      "il": 2624,
      "Ð°Ð½Ð´Ð¸Ð´": 2625,
      "ĠÐŀÑĢÐ´ÐµÐ½": 2626,
      "ĠÐ»ÑİÐ´ÐµÐ¹": 2627,
      "oc": 2628,
      "ĠÐ¿Ð¾Ð»Ð¾Ð²": 2629,
      "Ð±Ð¾Ð¼": 2630,
      "ĠÑĤÐ°Ð¼": 2631,
      "ĠÐ¡ÐµÑĢ": 2632,
      "Ð¸Ð¼ÐµÐ½": 2633,
      "ÐµÐ½Ð³": 2634,
      "ĠÐ¼Ð¸ÑĢ": 2635,
      "Ð¼ÑĥÐ½": 2636,
      "ĠÐ±Ð»Ð¸Ð·": 2637,
      "ĠÑĤÑıÐ¶": 2638,
      "Ġ)": 2639,
      "ĠÐºÐ»ÑĥÐ±Ð°": 2640,
      "Ð¾Ð²Ð°Ð»Ð°": 2641,
      "ĠÑģÐµÐ¼ÑĮÐµ": 2642,
      "am": 2643,
      "ĠÐ¿ÑĢÐ¾Ð²Ð¸Ð½": 2644,
      "ĠÐ´ÐµÑĤÐµÐ¹": 2645,
      "ĠÐ²Ð½Ð¾Ð²ÑĮ": 2646,
      "ĠÑģÐ²Ð¾Ð±Ð¾Ð´": 2647,
      "ĠÐ´ÑĥÑħ": 2648,
      "Ð¸ÑĤÐµÑĤÐ°": 2649,
      "ĠÐ¾Ð±ÑıÐ·": 2650,
      "Ð¾Ð²Ð¾": 2651,
      "ĠÐ¼Ð°ÑĤÑĩÐµ": 2652,
      "ĠÐ¸Ð´Ðµ": 2653,
      "ĠÐľÐ¾Ð½": 2654,
      "ÑĢÐ¸Ð½": 2655,
      "ĠÐ¿ÑĢÑıÐ¼": 2656,
      "ĠÐ²Ð»Ð¸Ñı": 2657,
      "ĠÐľÐ¾ÑģÐºÐ²Ðµ": 2658,
      "ĠÐ´Ð¾ÑģÑĤÐ¸Ð³": 2659,
      "Ð°Ð»ÑĮÐ½Ð¾Ðµ": 2660,
      "ĠÑģÐ½": 2661,
      "Ð¸ÑĩÐµÑģÐºÑĥÑİ": 2662,
      "ĠÐ¿Ð¾Ð»ÑĮÐ·": 2663,
      "ĠÑģÑĥÐ¼": 2664,
      "ĠÐºÐ½ÑıÐ·": 2665,
      "ĠÐļÐ°Ð½": 2666,
      "ĠÐĽÐµÐ½Ð¸Ð½": 2667,
      "Ð´Ñĭ": 2668,
      "ĠÐŀÑģÐ½Ð¾Ð²": 2669,
      "Ð¾Ð»Ð°Ð³": 2670,
      "ĠÐŁÐ¾Ñĩ": 2671,
      "Ð½Ð¾ÑģÑĤÐµÐ¹": 2672,
      "ÑĢÑİ": 2673,
      "ĠÑĩÐ°ÑģÑĤÐ¾": 2674,
      "ÐºÐ¸Ðµ": 2675,
      "ĠÐ¾ÑĢÐ³Ð°Ð½Ð¸Ð·Ð°ÑĨÐ¸Ð¸": 2676,
      "ĠÐĽÐµ": 2677,
      "Ð¾ÐºÑģ": 2678,
      "ĠÐļÑĢÑĭ": 2679,
      "ĠÑģÐ¾ÑĨÐ¸Ð°Ð»ÑĮ": 2680,
      "ĠÐ¾ÐºÑĢÑĥÐ¶": 2681,
      "ĠÐ¿Ð¾ÑģÑĤÐ¾ÑıÐ½": 2682,
      "ĠÐ¿ÑĢÐ¸ÑħÐ¾Ð´": 2683,
      "Ð¸Ð¼Ð°": 2684,
      "Ð¸ÑģÐ¾Ðº": 2685,
      "ĠÑģÐ¸Ð½": 2686,
      "ĠÐ¸Ð³ÑĢÑĭ": 2687,
      "ĠÐºÐ¾Ñģ": 2688,
      "ÑĳÐ´": 2689,
      "ĠÑĩÐµÑģÑĤÑĮ": 2690,
      "ĠÑĢÐµÐ²Ð¾Ð»Ñİ": 2691,
      "ĠÐ¾ÑĤÐ¼ÐµÑĩ": 2692,
      "Ð¾Ð´Ð°ÑĢÑı": 2693,
      "ĠÑģÑĬ": 2694,
      "ÑĭÐ²Ð°ÐµÑĤÑģÑı": 2695,
      "ĠÐ±Ð¾Ð»ÑĮÑĪÐµ": 2696,
      "ĠÐºÐ¾": 2697,
      "ÑĢÐµÑģ": 2698,
      "ĠÑĢÑĥÐ±": 2699,
      "ÑıÑĩ": 2700,
      "Ð¸Ð·Ð¼Ð°": 2701,
      "ĠÐ¿ÑĢÐ¾Ð²ÐµÐ´": 2702,
      "ĠÐ¿ÑĢÐ¾Ð¸Ð·Ð²ÐµÐ´": 2703,
      "ĠÐ¿Ð¾ÑģÐ²": 2704,
      "Ðķ": 2705,
      "ĠÐľÐ°Ð¹": 2706,
      "Ð°Ð½ÑģÐºÐ¾Ð³Ð¾": 2707,
      "Ð°ÑĤÐ°Ð»ÑĮ": 2708,
      "ĠÐ´ÐµÐ±ÑİÑĤ": 2709,
      "ÑĢÐ¾Ð±": 2710,
      "ĠÑģÐºÐ°Ð·": 2711,
      "ĠÐ¿Ð¾ÑĩÑĤÐ¸": 2712,
      "ĠÐĴÑĤÐ¾ÑĢ": 2713,
      "ĠÑģÐµÐ·Ð¾Ð½Ðµ": 2714,
      "ĠÑģÐ¾Ð·Ð´Ð°Ð½": 2715,
      "ĠÑĥÐ¿ÑĢÐ°Ð²Ð»ÐµÐ½Ð¸Ñı": 2716,
      "Ġ31": 2717,
      "ĠÐ²ÐµÑĢÑħ": 2718,
      "Ġ>": 2719,
      "ĠÐĶÐ¼Ð¸ÑĤ": 2720,
      "ÑĨÐ°Ð¼Ð¸": 2721,
      "ĠÐ¾Ð±ÑĥÑĩ": 2722,
      "Ð»Ð¾ÑģÑĮ": 2723,
      "ĠÐ³ÑĥÐ±ÐµÑĢÐ½Ð¸Ð¸": 2724,
      "Ð½Ð¾Ð²Ð°Ð½Ð¸Ñı": 2725,
      "Ġ2002": 2726,
      "ĠÑģÑĭÐ³ÑĢÐ°": 2727,
      "ĠÐ²ÑģÑĤÑĥÐ¿": 2728,
      "ĠÐŀÐ»Ð¸Ð¼Ð¿Ð¸Ð¹": 2729,
      "ĠÐ¼ÐµÑħÐ°Ð½": 2730,
      "ĠÐ¿Ð¾ÑģÑĤÐ°Ð²": 2731,
      "ÑĪÐ¸ÑĢ": 2732,
      "ĠÐ¾ÐºÐ¾Ð½ÑĩÐ¸Ð»": 2733,
      "ĠÐ²Ð¾Ðº": 2734,
      "ĠÑĦÐ¸Ð»ÑĮÐ¼Ð°": 2735,
      "ĠÐ²Ð¾Ð·Ð½Ð¸Ðº": 2736,
      "ĠÐ¶Ð¸ÑĤÐµÐ»ÐµÐ¹": 2737,
      "ĠÑĥÑĤÐ²ÐµÑĢÐ¶Ð´": 2738,
      "ĠÐ±Ð¾Ñı": 2739,
      "ĠÑĥÐ»": 2740,
      "Ð¸ÑĩÐ°": 2741,
      "ÑĢÐ°Ð²Ð½": 2742,
      "ĠÐ¡Ð°Ð½ÐºÑĤ": 2743,
      "ĠÐ¼Ð¼": 2744,
      "Ð¾Ð½Ð°Ñĩ": 2745,
      "Ġ<": 2746,
      "ĠÑħÐ¾ÑĤÑı": 2747,
      "ĠÑįÑĤÐ¸": 2748,
      "Ð»Ð°Ð·": 2749,
      "ĠÐ²Ð¾Ð·Ð³Ð»Ð°Ð²": 2750,
      "ĠÐºÐ°ÑĦ": 2751,
      "Ð¸ÑĤÐµÐ»ÑĮÐ½Ð¾Ð¹": 2752,
      "ĠÐľÐ¸Ð½Ð¸ÑģÑĤ": 2753,
      "ĠÐºÐ¾Ð¼Ð¸ÑģÑģ": 2754,
      "ĠÐŀÐ½Ð°": 2755,
      "ĠÐĶÐ¶Ð¾Ð½": 2756,
      "ĠÐ¿Ð°ÑĤ": 2757,
      "ÑĮÐµÑĢ": 2758,
      "ĠÐĵÐµÐ½": 2759,
      "Ð¾Ñĥ": 2760,
      "ĠÐ²Ð¾Ð¾ÑĢÑĥÐ¶": 2761,
      "ĠÑħÐ¾ÑĢÐ¾ÑĪ": 2762,
      "ÑĤÐ¾Ð¶": 2763,
      "ĠÑĤÑĢÐ°Ð½ÑģÐ¿": 2764,
      "ĠÐºÐ¾Ð»Ð¸ÑĩÐµÑģÑĤÐ²Ð¾": 2765,
      "ĠÑģÑĤÑĢÐµÐ»ÐºÐ¾Ð²": 2766,
      "Ð¾ÑĢÐ²": 2767,
      "Ġ2001": 2768,
      "Ð¾ÑģÐ»ÐµÐ´": 2769,
      "Ð»ÐµÐ³": 2770,
      "ĠÐ¼ÐµÐ´Ð°Ð»ÑĮ": 2771,
      "Ġc": 2772,
      "ÐµÐ¼Ð°ÑĤ": 2773,
      "ÑĢÐ¾ÑĦ": 2774,
      "Ð¸ÐºÐ¾": 2775,
      "ĠÐ¤ÑĢÐ°Ð½ÑĨÐ¸Ð¸": 2776,
      "ĠÑģÐ¾ÐµÐ´Ð¸Ð½": 2777,
      "Ð¾ÐµÐ´Ð¸Ð½": 2778,
      "ĠÐ¸Ð½Ð¶": 2779,
      "ĠÑĢÐ°Ð±Ð¾ÑĤÑĥ": 2780,
      "ĠÐ²Ð¾Ð·Ð²ÑĢÐ°Ñī": 2781,
      "Ð½Ð¾Ð²Ð°": 2782,
      "ĠÐ¿ÑĢÐµÐ´Ð¿ÑĢÐ¸ÑıÑĤ": 2783,
      "ĠÐ¿ÑĢÐ¸ÑĢ": 2784,
      "ĠÐ´Ð¸Ð²Ð¸Ð·Ð¸Ð¸": 2785,
      "Ð½Ð¸ÐºÐ°Ð¼Ð¸": 2786,
      "Ð¾Ð²ÐµÐ´": 2787,
      "Ð¸ÑıÐ¼Ð¸": 2788,
      "ĠÐ¿Ð¾Ð¿ÑĭÑĤ": 2789,
      "ĠÐľÐ°ÑĤ": 2790,
      "Ð¸Ð»Ñı": 2791,
      "ĠÐ´Ð¸ÑĢÐµÐºÑĤ": 2792,
      "ĠÑĢÐµÑģÐ¿": 2793,
      "ĠÑĪÑĤÐ°": 2794,
      "Ð±ÑĥÑĢÐ³": 2795,
      "Ð½Ð¸Ð¸": 2796,
      "Ð¸Ð¾": 2797,
      "ÐµÐ±ÑĢÑı": 2798,
      "ĠÐ²Ð½ÑĥÑĤÑĢÐµÐ½": 2799,
      "Ð»Ð°ÑĤ": 2800,
      "ĠÑĥÐ¼": 2801,
      "ĠÐłÐ¾Ð´Ð¸Ð»ÑģÑı": 2802,
      "Ġb": 2803,
      "ĠÑĥÐ²ÐµÐ»Ð¸Ñĩ": 2804,
      "Ġ1943": 2805,
      "ĠÐºÑĢÑĭ": 2806,
      "ĠÐ³Ð¾Ð»Ð¾Ð²": 2807,
      "Ð»ÐµÐ½Ð¾": 2808,
      "III": 2809,
      "Ġ40": 2810,
      "ĠÐ¸Ð½ÑĤÐµÑĢÐµÑģ": 2811,
      "ĠÑģÐ¾Ð±ÑĭÑĤ": 2812,
      "Ð¾Ð»Ñı": 2813,
      "Ð¸ÑĩÑĤÐ¾Ð¶": 2814,
      "ÐµÐ½Ð·": 2815,
      "Ð»Ð¸Ð¶": 2816,
      "ĠÐ½ÐµÐ·Ð°Ð²Ð¸ÑģÐ¸Ð¼": 2817,
      "ÑĳÑĤÐ°": 2818,
      "ÐµÑĢÑĮ": 2819,
      "ĠÑģÐµÐºÑĢÐµÑĤ": 2820,
      "ĠÐ±ÐµÑĢÐµÐ³Ñĥ": 2821,
      "ĠÐĹÐ°Ðº": 2822,
      "ĠÐĲÐ¼": 2823,
      "ĠÐĺÑĢ": 2824,
      "ĠXIX": 2825,
      "ĠÐ¿Ð¾Ð»ÐºÐ°": 2826,
      "Ð¸Ð±Ð¸ÑĢ": 2827,
      "ĠÐŃÑĢ": 2828,
      "ĠÐ²ÑĭÐ´ÐµÐ»": 2829,
      "Ð°Ð½ÑģÐºÐ¸Ð¹": 2830,
      "Ġ185": 2831,
      "ĠÐºÐ°Ð½Ð´Ð¸Ð´": 2832,
      "ĠÐ²ÑĭÑģÑĤÐ°Ð²": 2833,
      "ĠÐŃÐ´": 2834,
      "ÑĢÐ°Ð³": 2835,
      "ĠÐ¸ÑģÐºÐ»ÑİÑĩ": 2836,
      "ĠÑĢÐ¾Ð´Ð¸Ð»ÑģÑı": 2837,
      "ĠÐ½Ð¸Ð¼": 2838,
      "ÐĹ": 2839,
      "ĠÐ·Ð´ÐµÑģÑĮ": 2840,
      "Ġ2021": 2841,
      "ÑĢÐ°ÑĨÐ¸Ð¸": 2842,
      "ĠÐ½Ð°Ð³ÑĢÐ°Ð¶Ð´": 2843,
      "Ð¸ÑĤÐµÐ»ÑĮÐ½ÑĭÐ¹": 2844,
      "ĠÐ¸Ð¼Ñı": 2845,
      "ĠÑĦÐ°ÐºÑĥÐ»ÑĮÑĤ": 2846,
      "ĠÐ²Ð¾ÑģÑģÑĤÐ°Ð½Ð¾Ð²": 2847,
      "ĠÑģÐ²ÐµÑĤ": 2848,
      "ĠÐ±Ð¾Ð»ÑĮÑĪÐ¸Ð½": 2849,
      "ĠÐ´Ð¾Ð»Ð¶Ð½Ð¾ÑģÑĤÑĮ": 2850,
      "ĠÑģÑĤÐ°Ð½ÑĨÐ¸Ð¸": 2851,
      "ĠÐ´Ð°Ð²": 2852,
      "Ð°Ð½Ðº": 2853,
      "ĠÐ¸Ð´": 2854,
      "Ð¾ÑĢÐ¾ÑĤ": 2855,
      "ĠÑģÑĤÐ°Ð»Ð¾": 2856,
      "ĠÐĺÐ³": 2857,
      "Ð¾Ð¸ÑĤ": 2858,
      "Ð½Ð¾Ð´Ð¾ÑĢÐ¾Ð¶": 2859,
      "ĠÐ¿ÑĢÐ¾ÑĦÐµÑģÑģÐ¸Ð¾Ð½": 2860,
      "ĠÐ¿ÑģÐ¸Ñħ": 2861,
      "ĠÑĥÑĩÐµÐ±": 2862,
      "ÑĤÐ¾Ð¼": 2863,
      "ĠÑĥÐ½Ð¸ÑĩÑĤÐ¾Ð¶": 2864,
      "ĠÐ°Ð²ÑĤÐ¾Ð¼Ð¾Ð±": 2865,
      "Ð¾Ð¿Ð°Ñģ": 2866,
      "Ð¾Ð¼Ð±": 2867,
      "ÑĪÐµÐ¼": 2868,
      "ĠâĢĵ": 2869,
      "ĠÐ²Ð´": 2870,
      "ÑĢÐ¸Ð¹": 2871,
      "ĠÐ¿ÐµÑĢÐ²Ð¾Ð³Ð¾": 2872,
      "Ð¾Ð²Ð°Ð½Ð¸ÐµÐ¼": 2873,
      "ĠÐ¿ÑĢÐµÐ²": 2874,
      "ÐŃ": 2875,
      "Ð¾Ð²ÑģÐºÐ¾Ð¹": 2876,
      "Ð»Ñĭ": 2877,
      "ĠÐ¼ÐµÑģÑĤÐµ": 2878,
      "ĠÑĨÐµÐ»ÑĮ": 2879,
      "Ð¾ÑģÐ»ÐµÐ´ÑģÑĤÐ²Ð¸Ð¸": 2880,
      "ĠÐĵÐ¾ÑĢ": 2881,
      "ĠÐºÐ¾Ð¼Ð¿Ð¾Ð·": 2882,
      "Ð»Ð¸ÑģÑĮ": 2883,
      "ĠÐľÐ¸Ð½": 2884,
      "ĠÐ¿Ð¾Ð¿ÑĥÐ»ÑıÑĢ": 2885,
      "ĠÐ°ÑĢÑĤÐ¸Ð»Ð»": 2886,
      "ĠÐºÐ¾Ð½ÐºÑĥÑĢ": 2887,
      "ĠÐ½ÐµÑĤ": 2888,
      "ac": 2889,
      "ĠÐ²ÑĭÐ±Ð¾ÑĢ": 2890,
      "ÑĢÐ¸Ñģ": 2891,
      "ĠÐ¿ÑĢÐ¸ÐºÐ°Ð·": 2892,
      "ĠÑģÐ²Ð¾Ð¸Ð¼": 2893,
      "Ð¸ÑĤÐ°Ð¹": 2894,
      "Ð¾Ð²ÑģÐºÐ¸Ð¹": 2895,
      "ĠÐ¡Ð¼": 2896,
      "ĠÐ·ÑĢ": 2897,
      "ĠÐ»ÐµÐ²": 2898,
      "ĠÐ§ÐµÐ¼Ð¿Ð¸Ð¾Ð½": 2899,
      "ÐµÑĢÐº": 2900,
      "ÑĳÑĢÐ°": 2901,
      "ĠÐľÐ¾ÑĢ": 2902,
      "ĠÐ¡ÐµÐ¼": 2903,
      "Ð¾Ð½Ð¸Ð¸": 2904,
      "ÑĢÐµÑĪ": 2905,
      "ĠO": 2906,
      "ĠÐ¾ÑĤÑģÑĥÑĤÑģÑĤÐ²": 2907,
      "ĠÐºÑĢÐµÐ¿": 2908,
      "ĠÑĨÐµÐ½ÑĤÑĢÐ°Ð»ÑĮ": 2909,
      "ĠÑģÐ»ÑĥÑĩÐ°Ðµ": 2910,
      "ĠÐļÐ°Ð·Ð°Ñħ": 2911,
      "ĠÐ±ÑĢÐ°": 2912,
      "ĠÑĢÐ°ÑģÐ¿Ð¾Ð»Ð°Ð³": 2913,
      "ĠÐŃÑĤ": 2914,
      "ÐµÐ½Ð½": 2915,
      "ĠÐ¡Ð°": 2916,
      "ÐµÐ½Ð¸ÑıÑħ": 2917,
      "ĠÑģÐ¾Ð¾ÑĤÐ²ÐµÑĤÑģÑĤÐ²": 2918,
      "Ð»ÐµÑĩ": 2919,
      "ĠÐ½Ð°Ð¸Ð±Ð¾Ð»ÐµÐµ": 2920,
      "ĠÐ±ÑĢÐ¸ÑĤ": 2921,
      "Ð±Ð¸ÑĤ": 2922,
      "Ð»ÑıÐ½": 2923,
      "ĠÐ²ÐµÑĢ": 2924,
      "Ð¸ÑĤÐµÐ»ÑĮÐ½Ð¾Ð³Ð¾": 2925,
      "ÑģÐ»ÑĥÐ¶": 2926,
      "ĠÐ´Ð¾Ð¼Ð°": 2927,
      "ĠÑģÐ¼Ð¾Ð³": 2928,
      "ĠÑįÐ»ÐµÐ¼": 2929,
      "ÑĢÐ°Ð¹": 2930,
      "ĠÐĴÑĭÑģ": 2931,
      "ĠÑģÑĩÑĳÑĤ": 2932,
      "Ð²Ð¸Ð¶": 2933,
      "ĠÑģÑĭÐ½": 2934,
      "ĠÐ¼ÐµÐ´Ð¸ÑĨ": 2935,
      "ĠÐĺÐ²Ð°Ð½": 2936,
      "ĠÐºÐ¸Ð»": 2937,
      "ĠÑģÐ²Ð¾Ñĳ": 2938,
      "ÑĢÐ¾Ð·": 2939,
      "Ð¾Ð²Ð¾Ð»ÑĮ": 2940,
      "ÑĥÑīÐµÑģÑĤÐ²ÐµÐ½": 2941,
      "ĠÑĢÐ°Ð·Ð»Ð¸ÑĩÐ½ÑĭÑħ": 2942,
      "Ð±Ð¾Ð»ÑĮ": 2943,
      "ĠÑĤÑĢÑĥ": 2944,
      "Ð²ÐµÐ¹": 2945,
      "ĠÐ°ÑĤÐ°Ðº": 2946,
      "ĠÑĤÐµÐ¿": 2947,
      "ĠÑĤÑĢÐ°Ð´Ð¸": 2948,
      "Ġt": 2949,
      "ĠÐ¼Ð¸ÑĢÐ¾Ð²Ð¾Ð¹": 2950,
      "ĠÐ²ÐµÑĤ": 2951,
      "ĠÐ¿Ð¾Ð·Ð´": 2952,
      "ĠÐ¾ÑģÐ½Ð¾Ð²Ð½Ð¾Ð¼": 2953,
      "Ð¼Ð°ÑĤÑĢ": 2954,
      "ĠÑĤÐµÐºÑģÑĤ": 2955,
      "Ð¶Ð´Ñĭ": 2956,
      "Ð²Ð¸Ð³": 2957,
      "Ð¾Ð»Ð¾Ð´": 2958,
      "ĠÐºÑĥÐ»ÑĮÑĤÑĥÑĢ": 2959,
      "ĠÐ¼Ð¾Ñī": 2960,
      "of": 2961,
      "ÐºÐ¸Ð¼": 2962,
      "ÑĳÑĤÑģÑı": 2963,
      "Ð°Ð»Ð¸Ð¸": 2964,
      "ĠÐ¼Ð°Ð¹": 2965,
      "ĠÑģÐµÐ¼ÐµÐ¹": 2966,
      "ĠÐºÐ¾Ð¼Ð¿Ð°Ð½Ð¸Ð¸": 2967,
      "Ð½Ð°Ð·": 2968,
      "ĠÑĦÐ¾ÑĤ": 2969,
      "ÑģÑĤÐ²ÐµÐ½Ð½Ð¾": 2970,
      "ĠÐ¾Ð±ÑĢÐ°ÑĤ": 2971,
      "Ð»Ð¸Ð½Ð°": 2972,
      "ĠÐĿÐ°Ñģ": 2973,
      "ĠÐ³Ð¾Ð»Ð¾Ñģ": 2974,
      "ĠÐ¿Ð»Ð°ÑĤ": 2975,
      "ĠÐ¿ÑĢÐ¾Ð¶Ð¸Ð²": 2976,
      "ĠÑħÑĢÐ°Ð¼": 2977,
      "ĠÐĳÐ°Ð»": 2978,
      "ĠThe": 2979,
      "ĠÑĤÐ²Ð¾ÑĢ": 2980,
      "ÑĥÑĢÑĥ": 2981,
      "ĠÐ¾ÑĩÐµÑĢÐµÐ´": 2982,
      "ĠÑģÐ¸Ð¼Ð²Ð¾Ð»": 2983,
      "ĠÑĢÐ°Ð¼": 2984,
      "ĠÐĵÐµÑĢÐ¼Ð°Ð½Ð¸Ð¸": 2985,
      "ĠÐ°ÑģÑģ": 2986,
      "ĠÑĥÑĩÐ¸Ð»Ð¸Ñī": 2987,
      "ÐºÐ°Ñı": 2988,
      "ĠÐ½Ð°Ð»": 2989,
      "Ð¾Ð»ÐµÑĤ": 2990,
      "ĠÐļÐ¸ÐµÐ²": 2991,
      "Ð°ÑĢÑĭ": 2992,
      "ĠÐ½Ð°ÑģÐ»ÐµÐ´": 2993,
      "Ð°ÑİÑīÐ¸Ñħ": 2994,
      "ĠÐ¿ÑĢÐ¾Ð¸Ð·Ð¾ÑĪ": 2995,
      "ĠÑĩÐ°ÑģÑĤÐ½Ð¾ÑģÑĤÐ¸": 2996,
      "ĠÐ¸Ð·Ð±ÑĢÐ°Ð½": 2997,
      "ĠÐºÑĢÐµÑģÑĤÑĮÑıÐ½": 2998,
      "Ð¸ÐºÐ»": 2999,
      "ĠÐ°Ñį": 3000,
      "ĠÐ´Ð¾Ð³": 3001,
      "Ġ2003": 3002,
      "ĠÑĩÐ»ÐµÐ½Ð¾Ð¼": 3003,
      "ĠÐ´Ð¾Ð¿Ð¾Ð»Ð½": 3004,
      "ĠÑĥÑĩÐ°ÑģÑĤÐ²Ð¾Ð²Ð°Ð»": 3005,
      "ÐºÐ°Ð¼": 3006,
      "ĠÐ½Ð¸Ð·": 3007,
      "ĠÑĤÐ¾Ð½": 3008,
      "Ð¶Ð°": 3009,
      "Ð¾Ð²Ð°Ñı": 3010,
      "Ð½ÑĥÑĤ": 3011,
      "ĠÐ¼ÐµÑĤÐ¾Ð´": 3012,
      "Ð°Ð¹Ð´Ð¶": 3013,
      "ĠÐ¾ÑĦÐ¸ÑĨ": 3014,
      "ĠÐ¾Ð³ÑĢÐ°Ð½Ð¸Ñĩ": 3015,
      "ĠÐ¡ÑĤÐ°ÑĢ": 3016,
      "ĠÐºÐ°ÑĦÐµÐ´": 3017,
      "ĠÐłÐ¾Ð±": 3018,
      "ĠÐ¼Ð¾ÑĢÑı": 3019,
      "ĠÐ²ÐµÑī": 3020,
      "ÑĦÐ°": 3021,
      "Ð¾ÑĤÐµ": 3022,
      "ĠÐ¾ÑĢÐ´ÐµÐ½Ð°": 3023,
      "ĠÐĹÐ²": 3024,
      "ĠÐ¿ÑĢÐ¸ÑģÐ¾ÐµÐ´Ð¸Ð½": 3025,
      "ĠÐľÐµÐ¶Ð´ÑĥÐ½Ð°ÑĢÐ¾Ð´": 3026,
      "ĠÐµÐ´Ð¸Ð½ÑģÑĤÐ²ÐµÐ½": 3027,
      "Ð¸Ð±Ð»Ð¸Ð¾ÑĤ": 3028,
      "ĠâĢĻ": 3029,
      "ĠÑĤÐ¸Ð¿Ð°": 3030,
      "ĠÑģÐ¾Ñĩ": 3031,
      "ĠÑģÐµÑĢÐ¸Ð¸": 3032,
      "Ð°ÑİÑīÐ¸Ð¹": 3033,
      "ĠÑįÑĦÑĦ": 3034,
      "ĠÐºÐ»Ð°Ð´": 3035,
      "ĠÑĤÐ¸ÑĤ": 3036,
      "Ġ1942": 3037,
      "ĠÑģÐ¾ÑĢÐµÐ²": 3038,
      "ÐºÑģ": 3039,
      "ÐµÑĢÐµÐ¶": 3040,
      "ĠÐ¿Ð¾ÑģÑĤÐ°Ð½Ð¾Ð²": 3041,
      "ĠÐ¿Ð¾ÑģÐ²ÑıÑī": 3042,
      "ĠÐ¿Ð¾Ð»Ð½Ð¾ÑģÑĤÑĮÑİ": 3043,
      "ĠÐ¿Ð¾Ð»ÐºÐ¾Ð²": 3044,
      "ĠÐ¿ÑĢÐ¸Ð½ÑıÐ»": 3045,
      "ĠÐ¼Ð½Ð¾Ð³Ð¸Ñħ": 3046,
      "ĠÑĩÐµÑĤÑĭÑĢÐµ": 3047,
      "ĠÐļÐ¾Ð³Ð´Ð°": 3048,
      "ĠÑĢÐµÐ¹": 3049,
      "ĠÑĤÐ°ÐºÐ¸Ñħ": 3050,
      "ĠÐ½ÐµÐ¾Ð±ÑħÐ¾Ð´Ð¸Ð¼": 3051,
      "Ñĸ": 3052,
      "Ð°ÑĢÐ¼": 3053,
      "ĠÐµÐ¿Ð¸ÑģÐºÐ¾Ð¿": 3054,
      "ĠÐ¿Ð¾Ð¼ÐµÑī": 3055,
      "ĠÐ½ÐµÑģÐºÐ¾Ð»ÑĮÐºÐ¸Ñħ": 3056,
      "ĠÐ¦ÐµÐ½ÑĤÑĢÐ°Ð»ÑĮ": 3057,
      "Ð°Ð½Ð½ÑĭÑħ": 3058,
      "ĠÐ½Ð°ÑģÑĤÑĥÐ¿": 3059,
      "ĠÐ¸Ð¼ÐµÐ»": 3060,
      "Ð°Ð½Ð½ÑĭÐµ": 3061,
      "Ġs": 3062,
      "ÐµÐ²ÑģÐºÐ¾Ð³Ð¾": 3063,
      "ÑĳÐ½Ð½Ð¾Ð³Ð¾": 3064,
      "ĠÐ¸Ð¼Ð¿ÐµÑĢÐ¸Ð¸": 3065,
      "ĠÐ½Ð°ÑģÑĤÐ¾ÑıÑīÐµÐµ": 3066,
      "Ð²Ð¸Ð´": 3067,
      "re": 3068,
      "ĠÐ³Ð»ÑĥÐ±": 3069,
      "ĠÐĶÐ¾Ð½": 3070,
      "ĠÐ¾ÑĢÑĥÐ¶": 3071,
      "Ð¾ÑĢÐ¾Ð½Ðµ": 3072,
      "ĠÐ»Ð¸Ð½Ð¸Ð¸": 3073,
      "ÐºÐ¾Ð²Ð°": 3074,
      "ĠÐ¾Ð±ÑĬÐµÐºÑĤ": 3075,
      "ĠK": 3076,
      "ĠU": 3077,
      "Ð³Ð¾Ð´": 3078,
      "ĠÐĿÑĮÑİ": 3079,
      "ĠÐ¿Ð¾Ð³Ð¸Ð±": 3080,
      "ĠÐ¿ÐµÑĢÑģÐ¾Ð½Ð°": 3081,
      "ĠÐ±Ð¾Ð»ÑĮ": 3082,
      "ĠÑĥÐµÐ·Ð´Ð°": 3083,
      "ĠÐ±ÑĢÐ¸Ð³": 3084,
      "ÑĢÐ¸ÑģÑĤÐ¸Ð°Ð½": 3085,
      "ĠÐ´Ð°Ð»ÑĮÐ½ÐµÐ¹": 3086,
      "ĠÐ¶Ð¸Ð»": 3087,
      "ĠÐ¾ÑģÐ²Ð¾Ð±": 3088,
      "ĠÑĢÐµÑĪÐµÐ½Ð¸Ðµ": 3089,
      "ÑģÑĭ": 3090,
      "ĠÐŀÑĦ": 3091,
      "ĠÐ¾Ð´Ð½Ð°": 3092,
      "ÐµÑĢÐ±Ð°Ð¹Ð´Ð¶": 3093,
      "ĠÐ¿Ð¾Ð»Ñĥ": 3094,
      "ĠÑįÐ½ÐµÑĢÐ³": 3095,
      "ĠÐĵÐµÐ¾ÑĢ": 3096,
      "ĠÐ¿ÐµÑĢÐ²ÑĭÐ¼": 3097,
      "ĠÐ´ÐµÑıÑĤÐµÐ»ÑĮÐ½Ð¾ÑģÑĤÐ¸": 3098,
      "ÑĩÐ°ÑĤ": 3099,
      "ĠÐŀÐ½Ð¸": 3100,
      "Ð¸ÑĤÐµÐ»ÑĮÐ½ÑĭÐµ": 3101,
      "Ð°ÑģÑģÐ°": 3102,
      "ĠÐºÐ¾ÑĤÐ¾ÑĢÑĥÑİ": 3103,
      "ĠÐ·Ð°Ð²Ð¾ÐµÐ²": 3104,
      "Ð²ÑĳÑĢ": 3105,
      "ĠÑĢÐ°Ð·Ð²Ð¸ÑĤÐ¸Ñı": 3106,
      "ĠÑĨÐµÑĢÐºÐ¾Ð²ÑĮ": 3107,
      "ĠÐĴÐ¿": 3108,
      "ÐµÑĢÐµÐ½": 3109,
      "Ð»ÐµÐ½Ð¸Ð¹": 3110,
      "Ð´Ð°ÐµÑĤ": 3111,
      "Ð¸Ð²Ð°ÐµÑĤÑģÑı": 3112,
      "ĠÐĽÐ¸ÑĤ": 3113,
      "Ð¾Ð½ÑģÑĤ": 3114,
      "ĠÑĤÐµÐ¼Ð¿": 3115,
      "ĠÐŀÐ±Ñī": 3116,
      "ĠÐ¶ÐµÐ»ÐµÐ·Ð½Ð¾Ð´Ð¾ÑĢÐ¾Ð¶": 3117,
      "le": 3118,
      "ĠÐ¿ÑĢÐ¾Ð²ÑĳÐ»": 3119,
      "ĠÑĤÐ¾Ð²": 3120,
      "ĠÑģÐµÐ±Ðµ": 3121,
      "ĠÐºÑĥÐ¿": 3122,
      "Ð¸ÑĤÐµÐ»ÑĮÐ½ÑĭÑħ": 3123,
      "ÑģÐµ": 3124,
      "ĠÐ¿Ð¾Ð¼Ð¾ÑīÑĮÑİ": 3125,
      "ĠÑģÐµÑĢÐ¸": 3126,
      "ÑĢÐ¸Ð¼ÐµÑĢ": 3127,
      "Ð¾ÑĢÐ°Ñħ": 3128,
      "ĠÐ¿Ð¾Ð»Ðº": 3129,
      "ĠÐ¿Ð¾ÑĤÐµÑĢ": 3130,
      "ter": 3131,
      "ÑĳÐ½Ð½Ð¾Ð¹": 3132,
      "Ð¾ÑĢÑĭ": 3133,
      "ĠÐŀÑģÑĤ": 3134,
      "ĠÑĥÑģÐ¿ÐµÑħ": 3135,
      "ĠÐļÐ¾Ð½ÑģÑĤÐ°Ð½ÑĤ": 3136,
      "ÐµÐºÑĤÐ¾ÑĢ": 3137,
      "ÑĢÑĳÑħ": 3138,
      "ĠÐ¿ÑĢÐ¸Ð½ÑıÑĤ": 3139,
      "ÐµÐ½ÑĤÑĭ": 3140,
      "ĠÐ°Ð»ÑĮÐ±Ð¾Ð¼": 3141,
      "Ð°Ð»ÑĮÑıÐ½": 3142,
      "ĠÑĤÐ¾Ð³Ð´Ð°": 3143,
      "ĠÑģÐ²ÑıÑĤ": 3144,
      "ĠÐ·Ð½": 3145,
      "ĠÐĲÐ½Ð´ÑĢÐµ": 3146,
      "ĠÑĢÐµÐ´Ð°Ðº": 3147,
      "ĠÐ¿ÑĢÐ°Ð²Ð°": 3148,
      "ĠÐ½Ð°Ð¿ÑĢÐ¸Ð¼ÐµÑĢ": 3149,
      "ÑĢÐµÐ³": 3150,
      "Ð°Ð»Ð¾Ð¼": 3151,
      "ĠÑĢÐµÐ»Ð¸": 3152,
      "ĠÐ¿ÐµÑĢÐ²ÑĭÑħ": 3153,
      "ĠIII": 3154,
      "Ð¾Ð»Ð°": 3155,
      "Ð¸Ð»Ðµ": 3156,
      "ĠÐĹÐ°ÑĤ": 3157,
      "ĠÐ¿Ð¾ÑģÐºÐ¾Ð»ÑĮÐºÑĥ": 3158,
      "ĠÐ¾Ð±ÑīÐµÑģÑĤÐ²Ð°": 3159,
      "ĠÑĢÐµÑĩ": 3160,
      "ĠÐĴÐ¾Ð·": 3161,
      "ĠÑĥÐ½Ð¸Ð²ÐµÑĢÑģÐ¸ÑĤÐµÑĤ": 3162,
      "ÐµÐ½ÐµÐ¼": 3163,
      "ĠÐ¿ÑĢÐµÐ´Ð¿": 3164,
      "ĠÐ¿Ð¸ÑģÑĮ": 3165,
      "ĠÐ´ÐµÑĢÐµÐ²Ð½Ð¸": 3166,
      "Ð°ÐºÐ¾Ð²": 3167,
      "ĠÑĦÐ¾ÑĢ": 3168,
      "Ð¾Ð·Ð½Ð°Ñĩ": 3169,
      "ÑĢÐ¾Ð¿ÐµÐ¹": 3170,
      "Ð½Ð¾Ð³": 3171,
      "ÑĥÐ¹": 3172,
      "ĠÐ´Ð°Ð»": 3173,
      "Ð»ÐµÐ½Ð½ÑĭÐµ": 3174,
      "ĠÑģÑĤÑĢÑĥÐºÑĤ": 3175,
      "Ð°Ð¹Ð»Ð¾Ð²": 3176,
      "Ð¼Ð°ÑĤ": 3177,
      "ĠÑģÐ¾Ð²Ð¼ÐµÑģÑĤ": 3178,
      "ĠÐ²ÐµÑĢÐ½ÑĥÐ»ÑģÑı": 3179,
      "ĠÐ¾Ð¿ÑĥÐ±Ð»Ð¸Ðº": 3180,
      "ĠÑģÐ¾Ð±ÑĢÐ°Ð½": 3181,
      "Ġd": 3182,
      "ĠÐ¿ÑĢÐ¸Ð´": 3183,
      "ĠÑģÑĢÐ°Ð¶": 3184,
      "ĠÑĥÐ±Ð¸Ð¹": 3185,
      "Ð¾Ð»Ð¸ÑĤ": 3186,
      "Ð¾ÑĤÐ²Ð¾ÑĢ": 3187,
      "ĠÐ·Ð°ÑħÐ²Ð°ÑĤ": 3188,
      "ĠÐĿÐ¸ÐºÐ¾Ð»Ð°Ð¹": 3189,
      "ĠÐ»Ð¸Ð´": 3190,
      "ĠÐ¼Ð»Ð°Ð´": 3191,
      "ing": 3192,
      "ÐºÐ°ÑĤ": 3193,
      "ÑĨÑĥ": 3194,
      "ĠÑĦÐ¾Ð½": 3195,
      "Ð¸ÑĢÐ¾Ð²Ð°Ð½Ð¸Ðµ": 3196,
      "ÑģÐ¸": 3197,
      "ĠÐ°Ð±": 3198,
      "Ð¾ÑģÐ¾ÑĦ": 3199,
      "ĠÐľÐ°Ð½": 3200,
      "ĠÐĵÐ¾Ð»": 3201,
      "ÐµÑĢÐ¸Ð¹": 3202,
      "ĠÑĢÐ¾Ð»Ð¸": 3203,
      "ĠÑĢÐµÑģÐ¿ÑĥÐ±Ð»": 3204,
      "ro": 3205,
      "ĠÑģÐ¾Ð»Ð´": 3206,
      "ĠÐ´ÐµÑģÑıÑĤ": 3207,
      "ĠÐļÑĥÐ±ÐºÐ°": 3208,
      "ĠÐ¿Ð¾Ð»ÑĥÑĩÐ¸Ð»Ð°": 3209,
      "ĠÐĹÐµÐ¼": 3210,
      "ĠÐ¸Ð³ÑĢ": 3211,
      "Ð¸Ð²ÑĪÐ¸Ð¹": 3212,
      "ĠÐºÑĢÑĥÐ³": 3213,
      "Ð¿ÑĤ": 3214,
      "ĠÐ½Ð°Ð¹": 3215,
      "ĠÐ·Ð°Ð²ÐµÐ´": 3216,
      "Ð½Ð°Ð´": 3217,
      "ĠÐ±Ð°ÑģÑģ": 3218,
      "ĠÑħÑĥÐ´Ð¾Ð¶ÐµÑģÑĤÐ²ÐµÐ½": 3219,
      "ĠÐ¡Ð¸Ð½": 3220,
      "Ð¾Ñİ": 3221,
      "Ð²ÐµÑĢÐ´": 3222,
      "ĠÐ¾ÑĨÐµÐ½": 3223,
      "ĠÐļÐ¸ÑĢ": 3224,
      "ĠÑģÐ±": 3225,
      "ÑĢÐ¸Ñħ": 3226,
      "ĠÑĦÐ°ÐºÑĤ": 3227,
      "ĠÐ¾Ð±Ð²Ð¸Ð½": 3228,
      "ĠÐ¾ÑģÐ½Ð¾Ð²Ðµ": 3229,
      "Ð±Ð¸": 3230,
      "ĠÐ²Ð½ÐµÑĪ": 3231,
      "Ð¸ÐºÐ¾Ð¼": 3232,
      "Ð¾Ð³ÑĢÐ°ÑĦÐ¸Ð¸": 3233,
      "Ġ1980": 3234,
      "ĠÑĥÑĩÑĢÐµÐ¶Ð´": 3235,
      "ÑĢÐµÐ¼ÐµÐ½Ð½Ð¾": 3236,
      "ÐµÐ½Ð½ÑĥÑİ": 3237,
      "Ð°ÑĢÑĤÐµ": 3238,
      "ĠÐ°ÑĢÐµÑģÑĤ": 3239,
      "ĠÑĦÑĥÑĤÐ±Ð¾Ð»Ð¸ÑģÑĤ": 3240,
      "ĠÐ¶Ð¸Ð²Ð¾ÑĤ": 3241,
      "ĠÐŀÐ»Ð¸Ð¼Ð¿Ð¸Ð¹ÑģÐºÐ¸Ñħ": 3242,
      "ĠÐ¿ÐµÐ´": 3243,
      "Ġ000": 3244,
      "ĠÐ¼Ð°ÑĢÑĪ": 3245,
      "ĠÐºÐ°ÑĤÐµÐ³": 3246,
      "ĠÑģÐ¾Ð²ÐµÑĤÐ°": 3247,
      "ĠÐ¼Ð»Ð½": 3248,
      "Ð¾Ð²Ð°Ð²ÑĪ": 3249,
      "ĠÑĥÐ´Ð°Ð»Ð¾ÑģÑĮ": 3250,
      "ĠÑĤÑĢÐµÑĤÑĮ": 3251,
      "qu": 3252,
      "Ġ1992": 3253,
      "ĠÑĢÑĥÐºÐ¾Ð²Ð¾Ð´ÑģÑĤÐ²Ð¾Ð¼": 3254,
      "ĠÐ¢ÐµÐ¼": 3255,
      "Ð°ÑĤÐµÐ»Ð¸": 3256,
      "ĠÐºÐ¾Ð¼Ð°Ð½Ð´Ð¸ÑĢ": 3257,
      "ĠÐĴÐ¸ÐºÑĤÐ¾ÑĢ": 3258,
      "ĠÑĩÐ¸ÑģÐ»Ð¾": 3259,
      "ĠÐ³Ð¾Ð½": 3260,
      "ĠÐłÐ¡": 3261,
      "ĠÐĴÐµÑĢÑħÐ¾Ð²Ð½Ð¾Ð³Ð¾": 3262,
      "Ð½Ð¾ÑģÑĤÑĢÐ°Ð½": 3263,
      "un": 3264,
      "ĠÐłÐ°ÑģÐ¿": 3265,
      "ĠÑĥÐ¿Ð¾Ð¼Ð¸Ð½": 3266,
      "Ð½Ð¸Ñı": 3267,
      "Ð¸Ð¾Ð½Ð°": 3268,
      "ĠÐ¡Ð¸Ð¼": 3269,
      "Ð»ÐµÐ½Ð¸Ñİ": 3270,
      "Ġ1991": 3271,
      "Ð°Ð½Ð¾Ð¼": 3272,
      "ÐµÐ¹Ð¼": 3273,
      "ĠÐ½ÐµÐºÐ¾ÑĤÐ¾ÑĢÑĭÐµ": 3274,
      "ĠÐ·Ð°Ð´Ð°Ñĩ": 3275,
      "ĠÐ²Ð½Ð¸Ð¼": 3276,
      "Ð¸Ð»ÐµÑĤ": 3277,
      "Ġ!": 3278,
      "Ð°Ð´Ðµ": 3279,
      "ĠÐĳÑĭÐ»": 3280,
      "ĠÐ²ÐµÐ»Ð¸Ðº": 3281,
      "ĠÐ±Ð¾Ð»ÑĮÑĪÐ¾Ð¹": 3282,
      "Ġ1960": 3283,
      "Ġ1999": 3284,
      "Ð´Ð°ÑİÑī": 3285,
      "ĠÐºÐ¸Ð»Ð¾Ð¼ÐµÑĤ": 3286,
      "Ð¸Ð»Ð¸Ñı": 3287,
      "Ġ1930": 3288,
      "ĠÑħÐ¸Ð¼": 3289,
      "Ð½Ð¾ÑĪ": 3290,
      "ĠÐ¾ÑĤÐ²": 3291,
      "ĠÐ½ÐµÐºÐ¾ÑĤÐ¾ÑĢÑĭÑħ": 3292,
      "ĠÐ±Ð¸ÑĤ": 3293,
      "ĠÐºÐ²Ð°ÑĢÑĤ": 3294,
      "ĠÐĲÐ»ÐµÐºÑģÐ°Ð½Ð´ÑĢÐ¾Ð²": 3295,
      "ÑĥÑİÑīÐ¸Ð¹": 3296,
      "ĠÐ¼Ð½Ð¾Ð³Ð¸Ðµ": 3297,
      "Ð¾ÐºÐ¾Ð¼": 3298,
      "ÑĥÐ¶Ð´": 3299,
      "ĠÐ¼Ð¸Ð½ÑĥÑĤ": 3300,
      "ĠÐĶÐ¾Ð¼": 3301,
      "ĠÐºÐ¾Ð¼Ð¿Ð»ÐµÐºÑģ": 3302,
      "ĠÑģÐµÑĤ": 3303,
      "Ð°Ð½Ð½ÑĭÐ¹": 3304,
      "ÑĪÐµÐµ": 3305,
      "Ð¾Ð²ÑĭÐ¼": 3306,
      "ĠÐ±ÑĥÐ´ÑĥÑī": 3307,
      "Ð¾ÑģÐ¿": 3308,
      "ĠÐ²ÑĭÐ·Ð²": 3309,
      "ÑĭÐ²Ð°ÑİÑĤ": 3310,
      "Ð»ÑıÐµÑĤ": 3311,
      "Ð°ÑģÐº": 3312,
      "ĠÐ¶Ð¸Ð·Ð½ÑĮ": 3313,
      "Ġ?": 3314,
      "ÐµÐ¹ÑĤÐµÐ½": 3315,
      "Ġ184": 3316,
      "ĠÑĢÐ°Ð¼ÐºÐ°Ñħ": 3317,
      "ÐµÐ½Ð¸ÑĤ": 3318,
      "Ð¾ÑħÑĢÐ°Ð½": 3319,
      "ĠÑĢÐ°ÑģÐº": 3320,
      "ĠÐ¼Ð¸Ð»Ð»Ð¸": 3321,
      "ĠÐ´Ð¾ÐºÑĥÐ¼ÐµÐ½ÑĤ": 3322,
      "ĠÐ¼Ð½Ð¾Ð¶": 3323,
      "ĠÐ´ÑĢÑĥÐ³Ð¾Ð¹": 3324,
      "ĠÐ±Ð°ÑĤÐ°Ð»ÑĮ": 3325,
      "ĠÐ²Ð¾ÑģÑĤÐ¾Ñĩ": 3326,
      "ĠÑĤÑĢÐµ": 3327,
      "ĠÐĲÑĤ": 3328,
      "ĠÐ¿Ð¾ÑĢÐ°Ð¶": 3329,
      "ÐµÐ²Ð¸Ð´": 3330,
      "ÑĥÐºÐ¸": 3331,
      "ĠÐ¿ÐµÑĢÐµÐ¿Ð¸ÑģÐ¸": 3332,
      "ĠÐ±ÐµÐ·Ð¾Ð¿Ð°Ñģ": 3333,
      "ĠÐ¼Ð¾ÑģÑĤ": 3334,
      "ĠÐ½Ð¾Ñĩ": 3335,
      "ÐµÐ½Ð¸ÑıÐ¼Ð¸": 3336,
      "ĠÐ¿ÐµÑħ": 3337,
      "ĠÐ±Ð¸Ð±Ð»Ð¸Ð¾ÑĤ": 3338,
      "Ð°Ð»ÑĮÐ½Ð¾Ð¼": 3339,
      "ĠÑıÐ¿Ð¾Ð½": 3340,
      "ĠÐĲÑĢÑħ": 3341,
      "ĠÐ¸Ð½ÑģÑĤÐ¸ÑĤÑĥÑĤÐ°": 3342,
      "ĠÑģÑĥÐ¿": 3343,
      "ÑĭÐ²Ð°Ð»": 3344,
      "ĠÐ´Ð½ÐµÐ¹": 3345,
      "ĠÑģÑĤÐ°Ð²": 3346,
      "and": 3347,
      "ĠÑģÐ¿Ð¾ÑĢÑĤÐ¸Ð²": 3348,
      "ĠÐ´Ð¾Ð»Ð¶ÐµÐ½": 3349,
      "ĠÐĴÑĤÐ¾ÑĢÐ¾Ð¹": 3350,
      "ĠÐ³Ð¾ÑģÑĥÐ´Ð°ÑĢÑģÑĤÐ²ÐµÐ½Ð½Ð¾Ð³Ð¾": 3351,
      "ĠÐĳÐ¾Ð»": 3352,
      "ĠÐ¿Ð¾Ð·Ð¶Ðµ": 3353,
      "ĠÑĥÑģÐ¿ÐµÑĪ": 3354,
      "ĠÐ´ÐµÐ¹ÑģÑĤÐ²Ð¸Ñı": 3355,
      "ĠÐ¿Ð¾ÑįÑĤÐ¾Ð¼Ñĥ": 3356,
      "ĠÐ°ÑĢÑħÐ¸ÑĤÐµÐºÑĤ": 3357,
      "ĠÐ²Ð¾Ð¹ÑģÐºÐ°": 3358,
      "ÑģÐ¾Ð¼": 3359,
      "ĠÐºÐ¾ÑģÐ¼": 3360,
      "Ð¸ÑĨÐµÐ¹": 3361,
      "ĠÑĨÐ°ÑĢ": 3362,
      "Ġ1920": 3363,
      "Ð¿Ð¿": 3364,
      "ÑħÐ¾Ð·": 3365,
      "Ð¸ÐºÐ°ÑĨÐ¸Ð¸": 3366,
      "Ð»Ð°Ð±": 3367,
      "ĠÐ¸Ð¼ÐµÑİÑĤ": 3368,
      "Ð°Ð³Ð¾Ð³": 3369,
      "ĠÐĽÐµÐ½Ð¸Ð½Ð°": 3370,
      "ĠÐ¡Ð¾Ð²ÐµÑĤÑģÐºÐ¾Ð³Ð¾": 3371,
      "ĠÐºÐ¾Ð»Ð¾Ð½": 3372,
      "ĠÐ¿ÑĢÐ¸ÑģÐ²Ð¾": 3373,
      "ĠÐ¿Ð¾ÑĢÑıÐ´": 3374,
      "ĠÑĢÐ¾Ð´Ð°": 3375,
      "Ð°Ð½ÑģÐ¾Ð²": 3376,
      "Ð»ÐµÐ½Ð½ÑĭÑħ": 3377,
      "ĠÐ¼Ð°ÑģÑĤÐµÑĢ": 3378,
      "ĠÐµÐ¹": 3379,
      "ÑĦÐ¸Ð»ÑĮ": 3380,
      "Ð¾Ð²ÑĭÐ¹": 3381,
      "ÑģÑĤÐ°Ð½": 3382,
      "ĠÐ²ÑĭÑĪÐµÐ»": 3383,
      "Ð¾Ð¿ÑĢ": 3384,
      "Ð¸Ð²Ð°ÑĤÑĮ": 3385,
      "ĠÐļÐ°ÑĢÐ°": 3386,
      "Ð¾ÑħÐ¾Ð·ÑıÐ¹": 3387,
      "Ġ181": 3388,
      "ĠÐŁÐµÑĤÑĢÐ¾Ð²": 3389,
      "ĠÐ½ÑĳÐ¼": 3390,
      "ĠÐ¿Ð°": 3391,
      "Ð½Ð¸ÑĨÑĭ": 3392,
      "ĠÐ¼Ð°ÑģÑģ": 3393,
      "ĠÐ°ÐºÐ°Ð´ÐµÐ¼Ð¸Ð¸": 3394,
      "ĠÐ²ÐµÐºÐµ": 3395,
      "ĠÐ¿ÐµÑĢÐµÑĪÑĳÐ»": 3396,
      "ĠÐ»ÐµÐ¹ÑĤÐµÐ½": 3397,
      "Ð¸ÑĨÐ¸Ñı": 3398,
      "Ð½Ð¾Ñģ": 3399,
      "ĠÐĲÐ»ÐµÐºÑģÐ°Ð½Ð´ÑĢÐ°": 3400,
      "ÐºÑĥÐ¿": 3401,
      "ÑĨÐ¾Ð³": 3402,
      "ĠÐ²ÑģÐµÐ¼": 3403,
      "Ð¾Ð¸": 3404,
      "ĠÑģÑĤÐ°Ð´": 3405,
      "ĠÐºÐ¾ÑĢÐ¾Ð»ÐµÐ²": 3406,
      "ĠÐ²Ð°ÑĢÐ¸": 3407,
      "ĠÐľÐ¸ÑħÐ°Ð¸Ð»": 3408,
      "Ġ60": 3409,
      "Ð°ÐºÐ°": 3410,
      "ĠÐłÐ¾Ð¼": 3411,
      "ÑıÐ»Ð¸": 3412,
      "ĠÐ¾ÐºÐ¾Ð½ÑĩÐ°Ð½Ð¸Ñı": 3413,
      "ĠÑĦÐµÐ´ÐµÑĢÐ°": 3414,
      "ĠÐ°Ð²Ð¸Ð°ÑĨÐ¸Ð¾Ð½": 3415,
      "ÑĢÐ°ÑĦ": 3416,
      "ĠÐ´Ð²ÑĥÐ¼": 3417,
      "Ġ1970": 3418,
      "ĠÐĹÐ°ÑĤÐµÐ¼": 3419,
      "ĠÐ¸Ð½Ð¾ÑģÑĤÑĢÐ°Ð½": 3420,
      "ĠÐ½Ð°Ðº": 3421,
      "ĠÐĹÐ¾Ð»Ð¾ÑĤ": 3422,
      "Ð»ÑıÐµÑĤÑģÑı": 3423,
      "ĠÐ¢ÐµÑĢ": 3424,
      "ĠÐºÐ¾Ð½ÑĨÐ°": 3425,
      "ĠÐ½Ð¾Ð²ÑĭÐ¹": 3426,
      "ch": 3427,
      "Ġ35": 3428,
      "ĠÑĤÑĢÐ°Ð²": 3429,
      "ĠÐ¿ÑĢÐ¸Ð³": 3430,
      "ĠÑĤÐ¾Ð¿": 3431,
      "ĠÐ³ÑĢÑĥÐ¿Ð¿Ð°": 3432,
      "ĠÐ´Ð²Ð¸Ð¶ÐµÐ½Ð¸Ñı": 3433,
      "ĠÐ·ÐµÐ¼Ð»Ð¸": 3434,
      "ĠÑģÐ°Ð¼Ð¾": 3435,
      "ĠÐ±ÐµÑģÐ¿": 3436,
      "ĠÐŀÑĦÐ¸ÑĨÐ¸Ð°Ð»ÑĮ": 3437,
      "ĠÐ¿ÐµÑĢÐµÑħÐ¾Ð´": 3438,
      "Ð»ÐµÑĢ": 3439,
      "Ð¾Ð¶Ð´ÐµÐ½Ð¸Ðµ": 3440,
      "Ð°ÑıÑģÑĮ": 3441,
      "Ð¶Ð¸": 3442,
      "ÑĨÐ°ÑĤ": 3443,
      "ĠÐ¸ÑģÐ¿ÑĭÑĤ": 3444,
      "Ð¸Ð²Ð°": 3445,
      "ÑĢÐ°Ð´": 3446,
      "ĠÐĵÐ°Ð»": 3447,
      "ĠÑĢÐµÐ¿": 3448,
      "ĠÑĩÐµÑĤÑĭÑĢÑĳÑħ": 3449,
      "ĠÐ¯Ð¿Ð¾Ð½": 3450,
      "ÑĢÐ¸Ðº": 3451,
      "ĠÐ¿ÑĢÐ°Ð²Ð¾ÑģÐ»Ð°Ð²": 3452,
      "ĠÐļÐŁ": 3453,
      "Ġ183": 3454,
      "ed": 3455,
      "ĠÐ´Ð½Ñı": 3456,
      "ĠÐ²Ð¾Ð·ÑĢÐ°ÑģÑĤÐµ": 3457,
      "ĠÐĽÐ°": 3458,
      "ĠÐ¿ÑĢÐ°Ð²Ð¾": 3459,
      "ÑĥÑİÑīÐ¸Ñħ": 3460,
      "ĠÐºÐ»Ð°Ð´Ð±": 3461,
      "ĠÐ´Ð²Ð¸Ð³": 3462,
      "ĠÐ´ÐµÑĢÐµÐ²Ð½Ðµ": 3463,
      "Ð¾Ð²Ð°Ð½Ð¸Ð¹": 3464,
      "ĠÐ¼ÐµÑģÑĤÐ°": 3465,
      "ĠÐ³ÑĢÑĥÐ·": 3466,
      "Ð°Ð²ÐºÐ°Ð·": 3467,
      "ĠÐ¸ÑģÐºÑĥÑģÑģÑĤÐ²Ð°": 3468,
      "ĠÑĪÐºÐ¾Ð»Ð°": 3469,
      "ĠÐ²ÑĭÐ´": 3470,
      "Ð½Ð°Ñħ": 3471,
      "ĠÐ¼Ñĭ": 3472,
      "ĠÐ¿Ð¾Ð²ÐµÑĢÑħ": 3473,
      "ĠÐ³Ð¾ÑĤÐ¾Ð²": 3474,
      "ĠÑħÐ¾Ð´": 3475,
      "Ð²Ð°ÑĢÐµ": 3476,
      "ĠÐ¿Ð¾Ð´Ð¾Ð±": 3477,
      "ĠÐĲÐ¹": 3478,
      "Ð°Ð»ÑĮÐ½ÑĭÐ¼": 3479,
      "Ð½Ð¾Ð²ÑĢÐµÐ¼ÐµÐ½Ð½Ð¾": 3480,
      "Ð°Ð¹Ð½": 3481,
      "ĠÐ±ÑĢÐ¾Ð½Ð·": 3482,
      "Ð°ÐºÑĥ": 3483,
      "ĠÐ¾Ð±ÑĢÐ°Ñī": 3484,
      "ĠÑıÐ²": 3485,
      "Ġof": 3486,
      "ĠÑĢÐ¾ÑģÑģÐ¸Ð¹ÑģÐºÐ¸Ð¹": 3487,
      "ĠÐĿÐµÑģ": 3488,
      "ĠÐ½Ð°Ð·Ð²Ð°Ð½Ð¸ÐµÐ¼": 3489,
      "ÑĢÑĥÑĩ": 3490,
      "ĠÐ¤Ð¸Ð½": 3491,
      "ĠÐ¿Ð»ÐµÐ¼": 3492,
      "ĠÑįÑĤÐ°Ð¿": 3493,
      "ĠÐ¼ÐµÐ»": 3494,
      "ĠÐ¿ÑĢÐ¸ÑģÑĥÑĤÑģÑĤÐ²": 3495,
      "Ð¸Ð´ÐµÑĤ": 3496,
      "Ð°Ð²Ð»Ð¸Ð²": 3497,
      "ĠÐĵÐ¾ÑĢÐ¾Ð´": 3498,
      "ĠÐŁÐ¾Ð¼": 3499,
      "Ð²ÐµÑĢÐ³": 3500,
      "Ġ1998": 3501,
      "ĠÐ¼Ð°Ðº": 3502,
      "ĠÐºÐ¾Ð½ÑĤÑĢÐ°ÐºÑĤ": 3503,
      "ĠÐķÑģÐ»Ð¸": 3504,
      "ock": 3505,
      "ĠÐĳÐµÐ»Ð¾ÑĢÑĥÑģ": 3506,
      "ĠÐĲÐ¼ÐµÑĢ": 3507,
      "ĠÐ¼ÐµÐ½ÑĮ": 3508,
      "ĠÐĴÐ°ÑģÐ¸Ð»ÑĮ": 3509,
      "ÐºÐµÑĤ": 3510,
      "Ð¥": 3511,
      "ĠÑĤÐ¸ÑĤÑĥÐ»": 3512,
      "ĠÐºÐ¾ÑĤÐ¾ÑĢÑĭÐ¼": 3513,
      "ĠÐ´Ð¸ÑģÐº": 3514,
      "ĠÐ²Ð¾ÐµÐ½Ð½Ð¾": 3515,
      "ĠÑĦÐ¸Ð»Ð¾ÑģÐ¾ÑĦ": 3516,
      "ÑİÐ¶": 3517,
      "ĠÑĤÑĭÑģ": 3518,
      "ĠÐºÑĢÐ°Ñı": 3519,
      "ĠÐ½Ð°ÑģÑĤ": 3520,
      "ĠÐ´ÑĥÑħÐ¾Ð²": 3521,
      "ÑįÑĢ": 3522,
      "Ð¸Ð¿Ð»Ð¾Ð¼": 3523,
      "ĠÐ¿ÑĢÐ¾Ðº": 3524,
      "ĠÑĢÐ°Ð±Ð¾ÑĤÐµ": 3525,
      "ÑıÑĢ": 3526,
      "ĠÐĺÐ½ÑģÑĤ": 3527,
      "ÑĦÐµÑĢ": 3528,
      "ĠÐ¶ÐµÐ½ÑīÐ¸Ð½": 3529,
      "ÑıÑģÑĮ": 3530,
      "ĠÐĴÑģÐµ": 3531,
      "ĠÐ¸ÑĤÐ°Ð»ÑĮÑıÐ½": 3532,
      "ĠÑĢÐ°ÑģÐ¿Ð¾Ð»Ð¾Ð¶ÐµÐ½": 3533,
      "ĠÐ±Ð»Ð°Ð³Ð¾Ð´Ð°ÑĢÑı": 3534,
      "ĠÐ¾ÑĤÑĢÑıÐ´": 3535,
      "ĠÑģÐµÑĢÐµÐ±ÑĢÑı": 3536,
      "ĠÐ¿Ð¾ÑĤÐ¾Ð¼": 3537,
      "ĠÑĤÐ°ÐºÐ¸Ðµ": 3538,
      "Ð¾ÑģÑı": 3539,
      "ĠÑģÐ¾Ð³Ð»Ð°Ñģ": 3540,
      "ĠÑĢÐ°Ð½ÐµÐµ": 3541,
      "Ġ1994": 3542,
      "Ð°ÑĤÐµÐ»ÑĮÐ½Ð¾": 3543,
      "ÐµÐ²Ð¾": 3544,
      "ĠÑģÐ°Ð¼ÑĭÑħ": 3545,
      "ĠÐĳÑĭ": 3546,
      "ĠÐĺÑģ": 3547,
      "ĠÐ¿ÑĢÐ¸Ð¼ÐµÑĢÐ½Ð¾": 3548,
      "ĠÐ¿ÑĢÐµÐ¿Ð¾Ð´Ð°Ð²": 3549,
      "ĠÐ¿ÑĢÐµÑģÑĤÑĥÐ¿": 3550,
      "ĠÐ·Ð°Ð½ÑıÐ»": 3551,
      "ĠÐ¸Ð³ÑĢÐ°Ñħ": 3552,
      "ĠÐ½Ð°ÑĢÑĥÑĪ": 3553,
      "ĠÑĪÐ°Ñħ": 3554,
      "Ġ1997": 3555,
      "ĠÑĢÐ°Ð·ÑĢÑĥÑĪ": 3556,
      "ĠÑĢÑı": 3557,
      "ĠÑıÐ·ÑĭÐºÐ°": 3558,
      "ĠÐ´ÐµÑıÑĤÐµÐ»ÑĮÐ½Ð¾ÑģÑĤÑĮ": 3559,
      "ĠÐ²Ð¾ÑģÐ¿": 3560,
      "ÑıÐ»Ð°": 3561,
      "ĠÑģÑĢÐ°Ð²Ð½": 3562,
      "ĠÐ¿Ð¾Ð»ÑĮ": 3563,
      "ĠÐ¾Ð±ÑĭÑĩÐ½Ð¾": 3564,
      "ĠÐ¿ÑĢÐ¾ÑĤÑıÐ¶": 3565,
      "ĠÐĹÐ´": 3566,
      "ÑĥÑı": 3567,
      "ĠÐ´Ð¾ÐºÑĤÐ¾ÑĢ": 3568,
      "ĠÐĲÐºÐ°Ð´ÐµÐ¼": 3569,
      "ĠÐ³Ð¾ÑģÑĥÐ´Ð°ÑĢÑģÑĤÐ²Ð°": 3570,
      "ĠÐļÐ°ÑĤ": 3571,
      "ĠÐ¿ÑĢÐ¸Ð¾Ð±": 3572,
      "ĠÐľÐ¸Ð½Ð¸ÑģÑĤÐµÑĢ": 3573,
      "ĠÐ¿Ð¾Ð¼Ð¾Ð³": 3574,
      "Ð±ÐµÑĢ": 3575,
      "ĠÐĿÐ°Ð·": 3576,
      "ĠÐ¿ÐµÑĢÐµÐ¼": 3577,
      "Ð¾Ð½ÐµÑĨ": 3578,
      "ĠÐŃÐº": 3579,
      "ÐµÐ½Ð½Ð¾ÑģÑĤÐ¸": 3580,
      "ĠÐ¿ÐµÐ´Ð°Ð³Ð¾Ð³": 3581,
      "ĠÑĤÐµÐ¼Ð¿ÐµÑĢÐ°ÑĤ": 3582,
      "Ð¾ÑĢÑĥÐ´": 3583,
      "Â°": 3584,
      "ĠÐ¿ÑĢÐ¾Ñĩ": 3585,
      "ĠÑįÐ¿Ð¸Ð·": 3586,
      "Ð´Ð¾Ð²": 3587,
      "ĠÐºÐ¸Ð½Ð¾": 3588,
      "ĠÐ±Ð°ÑĪ": 3589,
      "ĠÐłÐ¤": 3590,
      "Ð¾Ð²Ð°Ð½Ð°": 3591,
      "ĠÐ¿ÑĢÐ¾Ð¸ÑģÑħ": 3592,
      "ĠÑĨÐµÐ»ÑĮÑİ": 3593,
      "Ġ1996": 3594,
      "ĠÐ²Ð¾Ð¹Ð½Ðµ": 3595,
      "ĠÐ²Ð·Ð°": 3596,
      "ĠÐĲÐ½Ð³Ð»": 3597,
      "ĠÑģÑĭÐ³ÑĢÐ°Ð»": 3598,
      "ĠÐ¿ÑĢÐ¾Ð¸ÑģÑħÐ¾Ð´Ð¸ÑĤ": 3599,
      "ĠÐĿÐµÐº": 3600,
      "ÑĥÑģÑĤÑı": 3601,
      "ÑĩÑĳÑĤ": 3602,
      "ĠÑĦÑĢÐ¾Ð½ÑĤÐ°": 3603,
      "ĠÐºÑĢÐ¾Ð²": 3604,
      "ĠÐ¿Ð¾ÑĤÑĢÐµÐ±": 3605,
      "ĠÑģÐ°Ð¼ÑĭÐ¼": 3606,
      "Ġ1995": 3607,
      "Ð¾ÑģÐ°": 3608,
      "Ð¾Ð²Ð°Ð½Ñĭ": 3609,
      "ĠÐ¦ÐµÑĢ": 3610,
      "Ð»Ð»": 3611,
      "ĠÐ½Ð¾Ð²Ð¾Ð³Ð¾": 3612,
      "ĠÐŁÐ¾ÑģÑĤ": 3613,
      "ÑĳÐ³": 3614,
      "ĠÐ¿ÐµÑĢÐµÑĥÐ»": 3615,
      "ÐµÐ»ÐµÐ½Ð¸Ðµ": 3616,
      "Ð°Ð»Ð¸ÑĦ": 3617,
      "Ð¸ÑĤÑĭ": 3618,
      "ĠÐ²ÑĭÑģÑĤÑĥÐ¿Ð°Ð»": 3619,
      "ÑģÐºÐ¸": 3620,
      "ĠÐµÐ²ÑĢÐ¾Ð¿ÐµÐ¹": 3621,
      "ÑĦÐ¸Ð½": 3622,
      "ÐµÐ½ÑģÐºÐ¾Ð³Ð¾": 3623,
      "ĠÐľÐ¸ÑħÐ°Ð¹Ð»Ð¾Ð²": 3624,
      "ĠÑĢÐ°Ð·Ð¼ÐµÑĢ": 3625,
      "ĠÑįÑĤÐ¸Ð¼": 3626,
      "ĠÐ¡ÐµÑĢÐ³ÐµÐ¹": 3627,
      "ĠÐ¿Ð°Ð»": 3628,
      "ÑĭÐ²Ð°ÑĤÑĮ": 3629,
      "ÑıÐ³": 3630,
      "ÐµÑĢÐ¾ÑıÑĤ": 3631,
      "ĠÐ±Ñİ": 3632,
      "ĠÐłÐ¸Ð¼": 3633,
      "ĠÐ¿Ð¾ÑģÑĳÐ»Ð¾Ðº": 3634,
      "Ð¿Ð°ÑĢÐ°ÑĤ": 3635,
      "Ð³Ð»Ñı": 3636,
      "ĠÐ¸Ð¼ÐµÐ½Ð½Ð¾": 3637,
      "ĠÐ¼Ð½ÐµÐ½Ð¸Ñİ": 3638,
      "ĠÐ¿ÑĢÐ¸Ð²Ð¾Ð´": 3639,
      "ĠÐ¿Ð¾Ð´ÑĤ": 3640,
      "ĠÐ½ÐµÑĳ": 3641,
      "ĠÐ¿ÑĢÐ¾ÑĤÐ¸Ð²Ð½Ð¸ÐºÐ°": 3642,
      "ÑĢÐµÑĩÐµÑģÐº": 3643,
      "ĠÐłÐ°Ð´": 3644,
      "ĠÐ½Ð°Ð±Ð»ÑİÐ´": 3645,
      "Ð½Ð¸Ñİ": 3646,
      "ĠÐĵÑĢÐ¸Ð³": 3647,
      "ĠÐ·Ð²Ð°Ð½Ð¸Ðµ": 3648,
      "ĠÐ¿ÑĢÐ¾Ð¸Ð·Ð²Ð¾Ð´ÑģÑĤÐ²Ð°": 3649,
      "ĠÑģÑħ": 3650,
      "ĠÐºÐ¾ÑĢÐ¿ÑĥÑģ": 3651,
      "ĠÐ¿Ð»Ð¾ÑīÐ°Ð´ÑĮ": 3652,
      "Ġ1940": 3653,
      "Ð»Ð°Ð¼ÐµÐ½ÑĤ": 3654,
      "ĠÐŁÐ¾Ð±": 3655,
      "ĠÑĦÐ¸Ð»ÑĮÐ¼Ðµ": 3656,
      "ĠÑĪÐºÐ¾Ð»Ñĥ": 3657,
      "ĠÑģÐµÐ»ÑĮÑģÐ¾Ð²ÐµÑĤÐ°": 3658,
      "Ð¸ÑģÐ»Ð°Ð²": 3659,
      "ÐµÐµÐ²": 3660,
      "ĠÐºÑĤÐ¾": 3661,
      "Ð¤Ð¡Ðł": 3662,
      "ĠÑģÐ²Ð¸Ð´ÐµÑĤ": 3663,
      "Ð³Ð¾ÑĢ": 3664,
      "ĠÐºÐ¾Ð¼Ð°Ð½Ð´Ð°": 3665,
      "Ġ1918": 3666,
      "Ð¸ÑĩÐµÑģÐºÐ¸Ð¼Ð¸": 3667,
      "Ġ1993": 3668,
      "ĠÐ¿Ð¾Ð´ÑĢÐ°Ð·": 3669,
      "ĠÐ´Ð¾Ð»Ð¶Ð½Ð¾ÑģÑĤÐ¸": 3670,
      "ĠÐľÐ¾ÑģÐºÐ¾Ð²ÑģÐºÐ¾Ð¹": 3671,
      "ĠÐ½Ð°ÑĪ": 3672,
      "ĠÐĿÐ°ÑĢÐ¾Ð´": 3673,
      "ĠÐĻÐ¾ÑĢ": 3674,
      "ĠÐŀÐ¿": 3675,
      "ĠÐŁÑĢÐµÐ¼": 3676,
      "Ð°ÑĢÐ¸Ð¸": 3677,
      "ĠÐ¢Ðµ": 3678,
      "Ð°ÑİÑīÐµÐ¹": 3679,
      "ĠÐ²ÐµÑģÑĮ": 3680,
      "ĠÐłÐ¡Ð¤Ð¡Ðł": 3681,
      "ĠÐ¡Ð¡Ðł": 3682,
      "ĠÑĢÐ°Ð·ÑĢÐµÑĪ": 3683,
      "ÑħÐ°": 3684,
      "Ð¸ÑĢÑĥÐµÑĤ": 3685,
      "ĠÑĤÑĢÐ°Ð½ÑģÐ¿Ð¾ÑĢÑĤ": 3686,
      "ĠÑĢÐ°ÑģÑģÑĤÐ¾Ñı": 3687,
      "Ð»ÑĥÐ¶ÐµÐ½Ð½ÑĭÐ¹": 3688,
      "ĠÑĢÐ°Ð·Ð²ÐµÐ´": 3689,
      "Ð½ÑİÑİ": 3690,
      "Ð°ÑģÐ°": 3691,
      "ĠÐ¼Ð°Ð½": 3692,
      "ĠÑĦÐ»": 3693,
      "ĠÐĺÐ»ÑĮ": 3694,
      "ĠÐĵÐ°ÑĢ": 3695,
      "ĠÐºÑĢÐ°Ð¹": 3696,
      "ÐºÐ°ÑĤÐµÑĢ": 3697,
      "ĠÐ´Ð¾Ð»Ð¶Ð½Ñĭ": 3698,
      "Ġ182": 3699,
      "ad": 3700,
      "ĠÐ¸ÑģÑģÐ»ÐµÐ´Ð¾Ð²Ð°Ð½Ð¸Ñı": 3701,
      "ĠÐ¾ÑĤÐ½Ð¾ÑĪÐµÐ½Ð¸Ñı": 3702,
      "ĠÐĲÐº": 3703,
      "ĠÐ½Ð°Ð½": 3704,
      "ĠÑĩÑĳÑĢ": 3705,
      "ÐµÐ½ÑĤÐ¾Ð¼": 3706,
      "ĠÐ¡Ð¾Ð±": 3707,
      "ĠÐ²ÑģÐµÐ¹": 3708,
      "ÑĢÐ°Ð·Ñĥ": 3709,
      "ĠÐ¤ÑĳÐ´": 3710,
      "ĠÑĪÐºÐ¾Ð»Ðµ": 3711,
      "ĠÑĥÐµÐ·Ð´": 3712,
      "ĠÐ³Ð¾ÑĢÐ¾Ð´ÑģÐºÐ¾Ð³Ð¾": 3713,
      "Ġ2022": 3714,
      "ĠÐ¿ÑĢÐ¾ÑĦÐµÑģÑģÐ¾ÑĢ": 3715,
      "ĠÑģÐ»ÑĥÐ¶Ð±Ñĥ": 3716,
      "ĠÑģÐ¸Ð»Ñĭ": 3717,
      "ĠÐ¸Ð¼Ð¿ÐµÑĢÐ°ÑĤÐ¾ÑĢ": 3718,
      "Ð³Ð¾Ð²Ð¾ÑĢ": 3719,
      "ĠÐ¿ÐµÑĢÐµÐ½": 3720,
      "Ð¸ÑģÑĤÐ°Ð½": 3721,
      "Ð¾ÑĩÐ½ÑĭÐ¹": 3722,
      "ĠÐĴÐµÐ»Ð¸ÐºÐ¾Ð±": 3723,
      "Ð¾ÑĨ": 3724,
      "ĠÐ·Ð°ÑĢ": 3725,
      "ĠÐ±Ð»Ð¾Ðº": 3726,
      "ĠÐ¾Ð±ÑĢÐ°Ð·Ð¾Ð²Ð°Ð½Ð¸Ðµ": 3727,
      "ĠÑĤÐµÐ°ÑĤÑĢÐ°": 3728,
      "ĠÐ·Ð¸Ð¼": 3729,
      "ĠÐ¼ÐµÑĩ": 3730,
      "ĠÑĤÐµÑĢÑĢÐ¸ÑĤÐ¾ÑĢ": 3731,
      "ÑĳÑģ": 3732,
      "ĠÐ¼Ð¸Ðº": 3733,
      "Ð¾Ð¿Ð¾Ð»ÑĮ": 3734,
      "ĠÐľÐ¾ÑģÐºÐ²Ñĭ": 3735,
      "ÐµÐ½Ð½Ð¾Ð¼": 3736,
      "ĠÐ³Ð»Ð°Ð²Ð½ÑĭÐ¼": 3737,
      "ĠÑĢÐµÐ¼": 3738,
      "ĠÐĴÐ°ÑĢ": 3739,
      "ĠÑģÐ°Ð¼Ð¾Ð»ÑĳÑĤ": 3740,
      "ÐµÐ´Ð¸Ð½Ðµ": 3741,
      "ÐµÑĤÐ¾Ð¼": 3742,
      "ĠÐ¾ÑĤÐ¼ÐµÑĤ": 3743,
      "ÑįÐ¼": 3744,
      "ĠÐ¿ÐµÑĢÐµÐ´Ð°Ñĩ": 3745,
      "ĠÐºÐ¾ÑĢÐ¾ÑĤ": 3746,
      "im": 3747,
      "Ð¸Ð½Ð¸Ð¼": 3748,
      "ĠÐ´Ð¾ÑģÑĤÐ°ÑĤ": 3749,
      "ĠÐ¼Ð¾Ð»Ð¾Ð´ÑĳÐ¶": 3750,
      "ĠÐĴÐµÐ»Ð¸ÐºÐ¾Ð±ÑĢÐ¸ÑĤ": 3751,
      "ĠÐĳÐ¾ÑĢÐ¸Ñģ": 3752,
      "ÐºÐ¸Ð¼Ð¸": 3753,
      "ĠÑĥÑĩÐ°ÑģÑĤÐ½Ð¸Ðº": 3754,
      "ĠÐ½Ð¾Ð²ÑĭÑħ": 3755,
      "ĠÑĤÐµÑħÐ½Ð¾Ð»Ð¾Ð³": 3756,
      "ĠÐŁÐ¾Ð·": 3757,
      "Ġ1950": 3758,
      "Ð¾ÑĨÐ¸": 3759,
      "ĠÑĤÐ¾Ð¼Ñĥ": 3760,
      "ĠÐ¿ÑĢÐµÐ´Ð¾ÑģÑĤÐ°Ð²": 3761,
      "ĠÑĤÐ°Ð¹": 3762,
      "ÑĢÐ°Ð¼Ð°": 3763,
      "Ð°ÑİÑīÐ¸Ðµ": 3764,
      "ĠÐºÑĢ": 3765,
      "ÑģÑĤÑĢÐµ": 3766,
      "ĠÐ½Ð°Ð³ÑĢÐ°Ð´": 3767,
      "ĠÑĤÐ¾Ð»": 3768,
      "ĠÑĢÐ°ÑģÑĪÐ¸ÑĢ": 3769,
      "ĠÑĢÐµÐºÐ°": 3770,
      "Ð¼Ð¾": 3771,
      "ĠÐ¨ÑĤ": 3772,
      "ÐµÐ½ÑģÐºÐ¾Ð¹": 3773,
      "ĠÐ±Ð°ÑĢ": 3774,
      "ĠÐķÐºÐ°ÑĤÐµÑĢ": 3775,
      "ÑĢÐ°Ð·Ð´Ð½": 3776,
      "ĠÑģÑĤÐ¸Ñħ": 3777,
      "ĠÐ¿Ð»Ð°Ð²": 3778,
      "ĠÑģÐ¿Ð¾ÑĢÑĤÐ°": 3779,
      "ĠÑĢÐµÐ·ÑĥÐ»ÑĮÑĤÐ°ÑĤ": 3780,
      "ĠÑģÐ¾Ð³Ð»Ð°ÑģÐ½Ð¾": 3781,
      "Ð²Ñĥ": 3782,
      "ÑģÐ»ÐµÐ´": 3783,
      "ĠÐľÑĥÐ·": 3784,
      "ĠÑģÑĤÐ°ÑĤÑĥÑģ": 3785,
      "ĠÐ´Ð¾ÑĩÑĮ": 3786,
      "ĠÐºÐ¾ÑĢÐ¾Ð»Ñı": 3787,
      "Ð¿Ð¾Ð»Ð°Ð³": 3788,
      "ĠÐ´ÑĢÑĥÐ³Ð¸Ð¼Ð¸": 3789,
      "ĠÑģÐµÐ·Ð¾Ð½": 3790,
      "ÑİÑīÐ¸Ñħ": 3791,
      "ĠÐ³Ð²Ð°ÑĢÐ´ÐµÐ¹": 3792,
      "Ð±ÐµÑĢÐ³": 3793,
      "ĠÐ²Ð¾Ð·Ð¼Ð¾Ð¶Ð½Ð¾ÑģÑĤÑĮ": 3794,
      "ĠÐ¼Ð°Ðµ": 3795,
      "ĠÐ·Ð°Ñī": 3796,
      "ÑĥÐºÑĤ": 3797,
      "ĠÐºÐ¾Ð¼Ð°Ð½Ð´Ñĥ": 3798,
      "ĠÐ½Ð¾ÑĢÐ¼": 3799,
      "ĠÐ¼Ð¸ÑĢÐµ": 3800,
      "ĠÐºÐ°ÑĢÑĮÐµÑĢÑĥ": 3801,
      "ÐµÑģÑĤÑĢÐ°": 3802,
      "Ð±Ð¸Ð½": 3803,
      "ÐµÑģÐ°": 3804,
      "ĠÑģÐ½Ð¾Ð²Ð°": 3805,
      "Ð±ÐµÐº": 3806,
      "ĠÐ¿ÑĢÐ¾ÐµÐºÑĤÐ°": 3807,
      "Ð°ÑĤÐ¾ÑĢÐ°": 3808,
      "ĠÑģÐ²ÑıÑī": 3809,
      "ĠÐ³ÐµÑĢÑĨÐ¾Ð³": 3810,
      "ĠÑĦÐ¸Ð½Ð°Ð½ÑģÐ¾Ð²": 3811,
      "ĠÐ¾Ð²": 3812,
      "ÑĢÐ¸Ð¸": 3813,
      "ĠÐ´Ð¾ÑĢÐ¾Ð³Ð¸": 3814,
      "Ð¸ÑĤÐµÐ»ÑıÐ¼Ð¸": 3815,
      "ĠÑħÑĢÐ°Ð½": 3816,
      "ĠÑģÐ±Ð¾ÑĢÐ½ÑĥÑİ": 3817,
      "Ð¾ÑħÐ¾Ð·ÑıÐ¹ÑģÑĤÐ²ÐµÐ½": 3818,
      "os": 3819,
      "ÐºÐ¾Ð½": 3820,
      "ĠÑģÑĥÐ±": 3821,
      "ĠÐ¿Ð¾Ð²ÑĭÑĪ": 3822,
      "ĠÐ¿ÐµÑĢÐ²Ð¾Ð¼": 3823,
      "ĠÐĴÐ¸ÑĤ": 3824,
      "Ð½Ð¸ÑĤ": 3825,
      "Ð¸ÑĢÐ°ÑĤ": 3826,
      "ĠÑĤÑİ": 3827,
      "ia": 3828,
      "ĠÐ·Ð´Ð°Ð½Ð¸Ðµ": 3829,
      "Ð¸ÑĩÐ½Ð¾": 3830,
      "ĠÐ»Ð¸ÑĤÐµÑĢÐ°ÑĤÑĥÑĢ": 3831,
      "ĠÑģÐ»ÑĥÐ¶Ð±Ñĭ": 3832,
      "ĠÑıÐ½Ð²Ð°ÑĢÐµ": 3833,
      "ĠÑĦÐ¸Ð³": 3834,
      "ĠÐŁÐµÑĢÐ²ÑĭÐ¹": 3835,
      "ÐµÐ³Ð¾ÑģÑı": 3836,
      "ĠÐ²ÑĭÐ¿ÑĥÑī": 3837,
      "ĠÐ²ÑģÐºÐ¾ÑĢÐµ": 3838,
      "ĠÐ¿Ð¾ÑıÐ²Ð»Ñı": 3839,
      "ĠÐ³Ð¾ÑģÑĥÐ´Ð°ÑĢÑģÑĤÐ²ÐµÐ½Ð½ÑĭÐ¹": 3840,
      "ĠÐ·Ð°ÐºÐ¾Ð½Ñĩ": 3841,
      "ĠÑģÑĢÐ¾Ðº": 3842,
      "ĠÐ°Ð²Ð³ÑĥÑģÑĤÐµ": 3843,
      "ÑĢÐ°Ð»Ð°": 3844,
      "ÑĨÐ¸ÑıÑħ": 3845,
      "ĠÑģÐµÐ½ÑĤÑıÐ±ÑĢÐµ": 3846,
      "ĠÐ³Ð¸Ð´": 3847,
      "ÑĤÐ¾Ñĩ": 3848,
      "ĠÐ£Ð½": 3849,
      "ĠÐ½ÐµÐ¿ÑĢ": 3850,
      "ĠÐ¿ÐµÑĢÐµÐ¸Ð¼ÐµÐ½": 3851,
      "ĠÐ¾ÑĤÐµÑĨ": 3852,
      "ĠÐ½Ð°ÑħÐ¾Ð´Ð¸Ð»ÑģÑı": 3853,
      "ĠÐļÐ»": 3854,
      "ĠÑĩÑĥÐ²": 3855,
      "ĠÐĲÑĢÑĤ": 3856,
      "Ġ1917": 3857,
      "ĠÐ³Ð°Ð»": 3858,
      "ĠÐ²ÐµÑĢÑģÐ¸Ð¸": 3859,
      "ÑĨÐµÐ¼": 3860,
      "ĠJ": 3861,
      "ĠÐ³Ð¾Ñģ": 3862,
      "Ġ180": 3863,
      "ĠÑģÐ°Ð¹ÑĤ": 3864,
      "ĠÐĽÐµÐ½Ð¸Ð½Ð³ÑĢÐ°Ð´": 3865,
      "ĠÐ·Ð´Ð°Ð½Ð¸Ñı": 3866,
      "ĠÑģÐ»Ð°Ð²": 3867,
      "ĠÑħÑĢÐ¸ÑģÑĤÐ¸Ð°Ð½": 3868,
      "ÑĪÑĤ": 3869,
      "ĠÑĩÐ°ÑģÐ¾Ð²": 3870,
      "ĠÐ¾Ð±Ð¾ÑĢÐ¾Ð½Ñĭ": 3871,
      "Ð¸Ð½Ð¸": 3872,
      "Ð¸Ð»Ð¸Ð¹": 3873,
      "ÑĥÑİÑīÐ¸Ðµ": 3874,
      "Ð°Ð¹ÑĤ": 3875,
      "ĠÐ²Ð¸Ð·": 3876,
      "ĠÐ²Ð²ÐµÐ´": 3877,
      "ÐºÐ¸Ð½Ð°": 3878,
      "ĠÐ¡ÑĢÐµÐ´Ð¸": 3879,
      "ĠÐ¿ÑĢÐ¸Ð½ÑĨÐ¸Ð¿": 3880,
      "ĠÑģÐ¸ÑĤÑĥ": 3881,
      "Ġ1939": 3882,
      "ĠÐ´ÑĢÐ°Ð¼": 3883,
      "ĠÐ¿ÑĢÐµÐ´ÑģÑĤÐ°Ð²Ð»ÑıÐµÑĤ": 3884,
      "ĠÐ¢ÑĢÑĥ": 3885,
      "ĠÑıÐ·ÑĭÐºÐµ": 3886,
      "ĠÐºÐ¾Ð¼Ð¸ÑĤÐµÑĤÐ°": 3887,
      "Ð´ÐµÑĢ": 3888,
      "ĠÐ²ÐºÐ»ÑİÑĩÐ°Ñı": 3889,
      "ÑģÑĤÑĢÐ°Ð»": 3890,
      "ĠÐ¿ÑĢÐ¾Ð²Ð¸Ð½ÑĨÐ¸Ð¸": 3891,
      "ĠÐ´ÐµÐºÐ°Ð±ÑĢÐµ": 3892,
      "ĠÐ¶ÑĥÑĢÐ½Ð°Ð»Ð¸ÑģÑĤ": 3893,
      "ĠÐ¼Ð°ÑĢÑĤÐµ": 3894,
      "ĠÐŁÐ¾ÑĢÑĤ": 3895,
      "ĠÐ²Ð¾Ð·Ð´ÑĥÑĪ": 3896,
      "ĠÑĥÐ»Ð¸ÑĨÑĭ": 3897,
      "ĠÐ²Ð¾Ð´Ñĭ": 3898,
      "Ð½ÑĥÐ¶Ð´": 3899,
      "ĠÐ¤Ð¸Ð»Ð¸": 3900,
      "ÑĳÑĢÐ¾Ð¼": 3901,
      "ĠÐ´Ð²ÑĥÐ¼Ñı": 3902,
      "ĠÐ´Ð¸Ð¿Ð»Ð¾Ð¼": 3903,
      "Ġ1989": 3904,
      "ĠÐ±Ð¾Ð¹": 3905,
      "ÐµÐµÑħ": 3906,
      "Ð°Ð»ÑĮÐ½ÑĥÑİ": 3907,
      "ĠÐ´Ð¾ÑģÑĤÑĥÐ¿": 3908,
      "ĠÐ²ÐµÐ´ÑĥÑī": 3909,
      "ĠÑĩÐ°ÑģÑĤÑĮÑİ": 3910,
      "ĠÐĿÐµÑģÐ¼Ð¾ÑĤÑĢÑı": 3911,
      "ote": 3912,
      "ĠÐºÐ¾ÑĢÐ¿ÑĥÑģÐ°": 3913,
      "ĠÐ·Ð°Ð±Ð¸Ð»": 3914,
      "ÑĮÑİÑĤ": 3915,
      "ĠÐ´Ð¸Ñģ": 3916,
      "ĠÐ¿Ð¾Ð´ÑĩÐ¸Ð½": 3917,
      "ĠÐ¾ÑģÑĤÑĢÐ¾Ð²Ð°": 3918,
      "ĠÐ¿Ð¾Ð¼Ð¾ÑīÐ¸": 3919,
      "Ð¾Ð³Ð»Ð°ÑĪ": 3920,
      "ĠÐ¿ÑĢÐµÐ¼Ð¸Ð¸": 3921,
      "ĠÐ´ÐµÐ±ÑİÑĤÐ¸ÑĢÐ¾Ð²Ð°Ð»": 3922,
      "ĠÐ¾ÑĤÑĨÐ°": 3923,
      "ÐµÐ³Ð´Ð°": 3924,
      "ÑĢÐ¸Ñı": 3925,
      "ÑĪÑĤÐ°": 3926,
      "ÐµÐ»ÐµÐ¹": 3927,
      "ĠÐĺÐ²Ð°Ð½Ð¾Ð²Ð¸Ñĩ": 3928,
      "ĠÐ²ÑĭÐ½ÑĥÐ¶Ð´": 3929,
      "ĠÐ°Ð¼": 3930,
      "ĠÐ¥Ð°ÑĢ": 3931,
      "ĠÐ¿ÐµÑĢÐµÐ²Ð¾Ð´": 3932,
      "ĠÐºÑĢÐ°ÑĤ": 3933,
      "ÐµÐ»ÐµÐ½": 3934,
      "ĠÐĶÑį": 3935,
      "ĠÑıÐ·ÑĭÐº": 3936,
      "ÐºÐ¸Ð¿": 3937,
      "ĠÐ½Ð°ÑģÐµÐ»ÐµÐ½Ð¸Ðµ": 3938,
      "ĠÐ¿ÑĢÐ¸ÑĤ": 3939,
      "Ð¸ÑĤÐ°ÑĢ": 3940,
      "Ð»ÑĮÐ½Ð¾Ð³Ð¾": 3941,
      "ĠÐ¿Ð»Ð¾": 3942,
      "ĠÐĲÐ·ÐµÑĢÐ±Ð°Ð¹Ð´Ð¶": 3943,
      "ÑĥÑİÑĤÑģÑı": 3944,
      "ĠÐ¾ÑģÑĤÐ°Ð½Ð¾Ð²": 3945,
      "ÑĪÐ°": 3946,
      "ĠÑģÐ¾ÑģÑĤÐ¾Ð¸ÑĤ": 3947,
      "ĠÑĥÑģÑĤÑĢÐ¾Ð¹": 3948,
      "ĠÐ²Ð·Ð°Ð¸Ð¼": 3949,
      "ĠÐ²ÑħÐ¾Ð´Ð¸ÑĤ": 3950,
      "ĠSt": 3951,
      "Ð¼Ð°ÑĢ": 3952,
      "ÑıÑİÑĤ": 3953,
      "Ð¾ÑģÑĤÑĮÑİ": 3954,
      "ĠÐ¾ÑģÐ¾Ð±ÐµÐ½Ð½Ð¾": 3955,
      "ĠÐĵÐµÑĢÐ¾Ð¹": 3956,
      "Ð°Ð´Ð°ÐµÑĤ": 3957,
      "Ð¾Ð»ÐµÐ²": 3958,
      "ĠÐ±Ð°ÑģÑģÐµÐ¹": 3959,
      "Ð¸ÐºÐ¾Ð¹": 3960,
      "ir": 3961,
      "ĠÐĴÐ¸Ð»ÑĮ": 3962,
      "Ð¸Ð²Ð°ÑİÑĤ": 3963,
      "Ð¸ÑĥÐ¼Ð°": 3964,
      "ĠÑģÑĤÐ°Ð½Ð¾Ð²Ð¸ÑĤÑģÑı": 3965,
      "ĠÑĤÐ°Ð½ÐºÐ¾Ð²": 3966,
      "ĠÑģÐ¾Ð»Ð´Ð°ÑĤ": 3967,
      "ĠÐ¿Ð¾Ð»Ðµ": 3968,
      "ÑĥÐ½Ð°": 3969,
      "ÐµÐ½Ð½ÑĭÐ¼Ð¸": 3970,
      "ĠÐłÐ°Ð±Ð¾ÑĤ": 3971,
      "ĠÐºÐ¾Ð½ÑĦÐ»Ð¸Ðº": 3972,
      "ĠÐ½ÐµÑĦ": 3973,
      "ÑıÐ±ÑĢÑĮ": 3974,
      "ĠÐ½ÑĥÐ¶": 3975,
      "ĠÐ¿ÐµÑĢÐµÐµÑħ": 3976,
      "ĠÑĤÑĥÑĢÐµ": 3977,
      "ĠÐŁÐ¾Ð±ÐµÐ´": 3978,
      "ĠÐ¿ÑĢÐµÐ·Ð¸Ð´ÐµÐ½ÑĤÐ°": 3979,
      "ÑĢÐ¾Ð³": 3980,
      "lock": 3981,
      "ĠÐ¢Ð°Ð¼": 3982,
      "ĠÑģÐ¿ÐµÐºÑĤ": 3983,
      "ĠÐ²Ð¾Ð»Ð¾ÑģÑĤÐ¸": 3984,
      "ĠÑıÑĢ": 3985,
      "ĠÐ±Ð°Ð½": 3986,
      "ĠÐ¼ÑĥÐ·ÐµÐ¹": 3987,
      "ĠÐ¯Ð½": 3988,
      "ĠÑĢÑĥÐº": 3989,
      "Ð¸Ð½Ð´": 3990,
      "ĠÐ¾ÐºÑĤÑıÐ±ÑĢÐµ": 3991,
      "ĠÐĽÐµÐ²": 3992,
      "ĠÐ²ÑĭÑĢÐ°Ð¶": 3993,
      "ĠÐŁÐ¾ÑģÐ»ÐµÐ´": 3994,
      "ĠÐ¼ÐµÐ´Ð°Ð»Ð¸": 3995,
      "ĠÐŁÐ¾Ð»ÑĮÑĪ": 3996,
      "ent": 3997,
      "ĠÐ¿ÑĢÐ¾ÑģÑĤÑĢÐ°Ð½": 3998,
      "ĠÐ¿ÑĢÐ°Ð²Ð¸ÑĤÐµÐ»ÑĮÑģÑĤÐ²Ð°": 3999,
      "ĠÐ»Ð¸": 4000,
      "ĠÐ¿ÑĥÑĤÐ¸": 4001,
      "Ð¾Ð»Ñİ": 4002,
      "ĠÑģÐ²Ð¾ÑĳÐ¼": 4003,
      "ĠÐŁÐ°Ð»": 4004,
      "ĠÐĽÑĥÑĩ": 4005,
      "ÑĨÐ¸Ð¾Ð½Ð½ÑĭÑħ": 4006,
      "ĠÑģÐ¾ÑĤÑĢÑĥÐ´Ð½Ð¸Ñĩ": 4007,
      "Ð¸ÑĤÐµÐ»ÑĮÐ½Ð¾Ðµ": 4008,
      "ĠÐľÐ°ÑĢÑĤ": 4009,
      "ĠÑģÐµÑĢÐµÐ´Ð¸Ð½Ðµ": 4010,
      "ĠÐ´Ð¾Ð»Ð»": 4011,
      "Ġ32": 4012,
      "id": 4013,
      "ĠÐ½ÐµÐ´Ð¾ÑģÑĤ": 4014,
      "ĠÑĥÐºÑĢÐµÐ¿": 4015,
      "ĠÐ²Ð¿Ð¾ÑģÐ»ÐµÐ´ÑģÑĤÐ²Ð¸Ð¸": 4016,
      "Ð»ÑĥÐ³Ð¸": 4017,
      "ÑıÑģÐ½": 4018,
      "Ð°ÑĢÑĤÐ°Ð¼": 4019,
      "ĠÑĩÐµÐ¼Ð¿Ð¸Ð¾Ð½Ð°ÑĤ": 4020,
      "ĠÐºÐ»Ð°Ð´Ð±Ð¸ÑīÐµ": 4021,
      "ĠÐ¿ÑĭÑĤ": 4022,
      "ĠÑģÐµÐ¼ÑĮÐ¸": 4023,
      "ĠÐ¾Ð±Ð¾Ð·Ð½Ð°Ñĩ": 4024,
      "ĠÐĹÐ°Ñģ": 4025,
      "ĠÐ¾Ð¿ÑĭÑĤ": 4026,
      "ÑĨÐ¸Ð¾Ð½Ð½Ð¾Ð¹": 4027,
      "Ð²ÐµÑĢÐ¶": 4028,
      "ĠÐ²ÑĢÐ°Ñĩ": 4029,
      "Ð°ÑģÑģÐ°Ð¶": 4030,
      "ĠÐºÐ½Ð¸Ð³Ð¸": 4031,
      "ĠÐļÑĢÐ°ÑģÐ½Ð¾Ð¹": 4032,
      "Ð¸Ð½ÑģÐºÐ¾Ð¼": 4033,
      "ĠÐ¿ÐµÑĢÐ²ÑĭÐµ": 4034,
      "ĠÐ¿ÑĤ": 4035,
      "ÑĥÐ»Ð°": 4036,
      "ĠÑĢÐ°Ð·Ð½ÑĭÑħ": 4037,
      "ĠÐ±Ð¾Ð¼Ð±": 4038,
      "ĠÐ¸ÑģÐ¿Ð¾Ð»ÑĮÐ·Ð¾Ð²Ð°Ð»": 4039,
      "ĠÐ°ÑĢÐ¼Ð¸": 4040,
      "Ð»Ð¾ÑĢ": 4041,
      "ÐµÑĢÑĤÐ²": 4042,
      "ĠÑįÑĤÑĥ": 4043,
      "ĠÐºÑĢÑĥÐ¿Ð½ÐµÐ¹": 4044,
      "ĠÐ·Ð½Ð°Ð¼": 4045,
      "ÐļÐĲ": 4046,
      "ĠÐ¼Ð°ÑĤÐµÐ¼Ð°ÑĤ": 4047,
      "ĠÐ²ÐµÑĩ": 4048,
      "ĠÐ»Ð°Ð³": 4049,
      "ĠÐ¡Ð°Ð»": 4050,
      "ĠÐ¾Ð¿Ð°Ñģ": 4051,
      "Ð¦": 4052,
      "ÑĢÐ¸Ð¿": 4053,
      "ÐµÐ³Ð¾Ð´": 4054,
      "ĠÐ¸ÑİÐ»Ðµ": 4055,
      "ĠÐ²Ð¸Ð´Ð¾Ð²": 4056,
      "ĠÐ´Ð¾Ð±Ð°Ð²": 4057,
      "ÑĥÑİÑīÐµÐ³Ð¾": 4058,
      "ĠÐ¿ÑĢÐµÐ¸Ð¼": 4059,
      "Ð°ÑĤÐ°ÑĢ": 4060,
      "Ġ45": 4061,
      "ĠÐ´Ð°ÑĤ": 4062,
      "ĠÑĦÑĥÑĤÐ±Ð¾Ð»ÑĮ": 4063,
      "ĠÑģÐ¿Ð°Ñģ": 4064,
      "ĠÐ¼ÐµÑĢ": 4065,
      "ĠÑįÑģÑĤ": 4066,
      "Ð°Ð¼Ð°": 4067,
      "ĠÐĲÐ½ÑĤ": 4068,
      "ĠÐ¸Ð½Ð¸": 4069,
      "Ð¸ÑĢÐ¾Ð²Ð°Ð½Ð°": 4070,
      "Ġblock": 4071,
      "ĠÑĤÐ°ÐºÐ¸Ð¼": 4072,
      "ĠÐ¾Ð¿ÐµÑĢÐ°ÑĨÐ¸Ð¸": 4073,
      "ÐµÐ½ÑģÐºÐ¸Ð¹": 4074,
      "ĠÐŀÐºÐ¾Ð½Ñĩ": 4075,
      "ĠÐ¿ÑĢÐ¸Ð±Ñĭ": 4076,
      "quote": 4077,
      "ĠÑģÑĢÐµÐ´ÑģÑĤÐ²": 4078,
      "ĠÐĺÑĤÐ°Ð»Ð¸Ð¸": 4079,
      "Ġblockquote": 4080,
      "ĠÐ²ÑģÐ¿": 4081,
      "ĠÐ·Ð°Ð¿Ð¸Ñģ": 4082,
      "ĠÑĢÐ°ÑģÑģÐ¼Ð°ÑĤÑĢ": 4083,
      "ĠÐ½Ð°Ð³ÑĢÐ°Ð¶Ð´ÑĳÐ½": 4084,
      "ĠÐ¼Ð¸ÑĤ": 4085,
      "Ð¾ÑĩÐ½ÑĭÑħ": 4086,
      "ĠÐ¢Ð¾ÑĢ": 4087,
      "Ð¸Ð½ÑģÐºÐ°Ñı": 4088,
      "ĠÐ¿ÑĢÐµÐ´ÐµÐ»": 4089,
      "ÑĢÐµÑī": 4090,
      "ĠÐ½Ð¸Ð¶": 4091,
      "ĠÐĽÐµÐ¾Ð½": 4092,
      "ĠÐ½Ñĭ": 4093,
      "ĠÑĥÐ´Ð°ÑĢ": 4094,
      "ÑĨÐ¸ÑĦ": 4095,
      "ĠÑģÑĦÐ¾ÑĢÐ¼": 4096,
      "ĠÐ¾Ð´Ð½Ð¾Ð¼": 4097,
      "ĠÐ¾Ð±Ð»Ð°ÑģÑĤÑĮ": 4098,
      "ĠÐ¾ÑĤÐ»Ð¸ÑĩÐ¸Ðµ": 4099,
      "ĠÐ¸ÑĤÐ¾Ð³Ðµ": 4100,
      "ĠÐ¿ÑĢÐµÐº": 4101,
      "ĠÐ¸ÑİÐ½Ðµ": 4102,
      "ÑĢÐµÐ»ÑĮ": 4103,
      "Ð¾ÑĢÐ¾Ð½ÐµÐ½": 4104,
      "ĠÐĿÐ¸Ð¶": 4105,
      "ÐºÐ°Ð½": 4106,
      "Ð¸ÐºÑģ": 4107,
      "ĠÐ§ÐµÑĢÐµÐ·": 4108,
      "Ð»ÑıÐ»": 4109,
      "ÐµÑģÑĤÐ²Ð¾Ð¼": 4110,
      "ĠÐ¿ÐµÑĢÐµÐ³": 4111,
      "ĠÑĢÐ°Ð·Ð²Ð¸ÑĤÐ¸Ðµ": 4112,
      "ĠÐ¿ÑĢÐ¾Ð³": 4113,
      "ra": 4114,
      "ĠÑģÐ»ÑĥÐ¶Ð¸Ð»": 4115,
      "Ð²ÐµÑĤÐ°": 4116,
      "ÑĢÐ¾Ð¶": 4117,
      "Ð¸Ð»Ð¸Ð¸": 4118,
      "ĠÐ¸ÑģÐ¿Ð¾Ð»ÑĮÐ·ÑĥÐµÑĤÑģÑı": 4119,
      "Ġ179": 4120,
      "ĠÐ¡Ð¸Ð±Ð¸ÑĢ": 4121,
      "ĠÐĲÑħ": 4122,
      "ĠÐĽÐ¾Ð½Ð´": 4123,
      "ÑĢÑĥÑĤ": 4124,
      "ÑĥÐºÐ°": 4125,
      "ĠÐ¿ÑĢÐ¸ÑģÑĤ": 4126,
      "Ð¾ÑģÑĢÐµÐ´": 4127,
      "ÑĥÑīÐµÑģÑĤÐ²ÐµÐ½Ð½Ð¾": 4128,
      "ĠÐºÐ¾Ð¼Ð¿Ð°Ð½Ð¸Ñı": 4129,
      "ĠÑģÑĨÐµÐ½Ð°ÑĢ": 4130,
      "Ð°ÐºÐ¸": 4131,
      "ĠÐºÐ¾Ð¼Ð¼ÑĥÐ½": 4132,
      "Ð°Ð´ÑĮ": 4133,
      "ĠÑĢÐµÐ»Ð¸Ð³Ð¸": 4134,
      "ĠÐºÐ½Ð¸Ð³": 4135,
      "Ð¾Ð°Ð½": 4136,
      "ĠÑĢÐ¸Ð¼": 4137,
      "ĠÐ¿ÑĢÐ¾Ð³ÑĢÐ°Ð¼Ð¼": 4138,
      "ĠÐ¡Ð²ÑıÑĤÐ¾Ð³Ð¾": 4139,
      "ĠÐ¿ÑĥÐ±Ð»": 4140,
      "Ð¾Ð·Ñĭ": 4141,
      "ĠÑģÐ¾Ð·Ð´Ð°Ð½Ð¸Ñı": 4142,
      "Ð½Ð°ÑĩÐ°Ð»Ð°": 4143,
      "ĠÑģÐ¿ÐµÑĨÐ¸Ð°Ð»Ð¸ÑģÑĤ": 4144,
      "ÐµÐ»Ñĳ": 4145,
      "ĠÐ±ÐµÐ·Ð¾Ð¿Ð°ÑģÐ½Ð¾ÑģÑĤÐ¸": 4146,
      "ĠÐ·Ð°Ð¼ÐµÑĤ": 4147,
      "ĠÐĿÐ¸ÐºÐ¾Ð»Ð°": 4148,
      "ÐºÐ¾Ð»ÑĮ": 4149,
      "ĠÐŃÑĤÐ¾ÑĤ": 4150,
      "Ġ70": 4151,
      "ĠÐ¸Ð½Ð¶ÐµÐ½ÐµÑĢ": 4152,
      "Ð»ÑıÑĤÑĮ": 4153,
      "ĠÑģÐ¿ÑĢÐ°Ð²": 4154,
      "ĠÐºÐ¸ÑĤÐ°Ð¹": 4155,
      "ĠÐ¿ÑĢÐµÐ¾Ð±ÑĢÐ°Ð·": 4156,
      "ĠÐĺÐ¼Ð¿": 4157,
      "Ð¾Ð¿ÐµÐ´": 4158,
      "Ð¸ÑĢÐ¾Ð²Ð°Ð»Ð¸": 4159,
      "Ð¾ÑĩÐ½Ð¾Ð³Ð¾": 4160,
      "ig": 4161,
      "ĠÐ¿Ð¾Ð´ÑĢÐ°Ð·Ð´ÐµÐ»": 4162,
      "ĠÑģÐ¸ÑģÑĤÐµÐ¼Ð°": 4163,
      "ĠÐ¿ÑıÑĤÑĮ": 4164,
      "ÐµÑĢÐ¸Ð¼": 4165,
      "ÑĥÑĢÐ³Ð°": 4166,
      "Ð¸ÑģÑĤÐ°": 4167,
      "ĠÐ²ÑĤÐ¾ÑĢÐ¾Ð³Ð¾": 4168,
      "ĠÑģÐ°Ð´": 4169,
      "ÑİÑīÐ¸Ðµ": 4170,
      "ĠÐ½Ð¾Ð²Ð¾Ð¹": 4171,
      "ĠÐ·Ð°Ð²Ð¾Ð´Ð°": 4172,
      "ĠÐ·Ð°Ð¼ÐµÐ½": 4173,
      "ĠÐ¾Ð¶": 4174,
      "ĠÑĢÐ°Ð·Ð¼ÐµÑī": 4175,
      "ĠÐ¿ÐµÑĢÑģÐ¾Ð½Ð°Ð¶": 4176,
      "ĠÐķÐ²Ð³": 4177,
      "ĠÐ¸ÑģÐºÑĥÑģÑģÑĤÐ²": 4178,
      "Ġ80": 4179,
      "Ð¸Ð·Ð°ÑĨÐ¸Ñı": 4180,
      "Ð¸Ð½ÑģÐºÐ¸Ñħ": 4181,
      "ĠÐ²Ð¸Ð½": 4182,
      "ĠÐ¡ÑĤÐ°Ð»": 4183,
      "ÑĳÐ½Ð½Ð°Ñı": 4184,
      "ÑĭÐº": 4185,
      "ĠÑĥÐ´Ð¾ÑģÑĤÐ¾": 4186,
      "ation": 4187,
      "ĠÐ¼Ð°ÑģÑģÐ¾Ð²": 4188,
      "Ð¾Ð²Ð°Ð»Ð¾": 4189,
      "ÐºÐ¾Ðµ": 4190,
      "ĠIn": 4191,
      "Ð°ÑĨÐ¸Ñı": 4192,
      "ĠÐ´Ð¸ÑģÑģ": 4193,
      "ĠÐ½Ð¾ÑıÐ±ÑĢÐµ": 4194,
      "ĠÑģÐ¾Ð³Ð»Ð°ÑĪ": 4195,
      "ÐºÐ¾Ð²ÑģÐºÐ¾Ð³Ð¾": 4196,
      "Ð³Ð¸Ð¿": 4197,
      "ÐµÐ½Ð¸Ð²": 4198,
      "ĠÑĨÐµÐ½ÑĤÑĢÐ¾Ð¼": 4199,
      "ĠÑĢÑıÐ´Ð¾Ð¼": 4200,
      "ĠÑģÑĤÑĢÐ°Ð½Ðµ": 4201,
      "ĠÐľÐ¸ÑĢ": 4202,
      "ĠÐ¿ÑĢÐ°ÐºÑĤÐ¸ÑĩÐµÑģÐºÐ¸": 4203,
      "ĠÑįÐºÐ·": 4204,
      "ĠÐ¸Ð³ÑĢÐ°Ð»": 4205,
      "ĠÑģÐ°Ð¼Ð¾Ð³Ð¾": 4206,
      "ĠÑĦÐµÑģÑĤ": 4207,
      "ÑĪÑĥÑİ": 4208,
      "ĠÑģÑĤÑĢÐ¾Ð¸ÑĤÐµÐ»ÑĮÑģÑĤÐ²Ð¾": 4209,
      "ĠÑĩÐ»ÐµÐ½Ð¾Ð²": 4210,
      "ĠÑįÑĤÐ¾Ð¼Ñĥ": 4211,
      "ĠÑĥÑĩÐ¸Ð»Ð¸ÑīÐµ": 4212,
      "ĠÐ°Ð¿ÑĢÐµÐ»Ðµ": 4213,
      "ÑīÐ¸Ðº": 4214,
      "ĠÐ»ÐµÐ¹ÑĤÐµÐ½Ð°Ð½ÑĤ": 4215,
      "ÑĢÐ¾ÑĪ": 4216,
      "ĠÑģÑİÐ¶": 4217,
      "ĠÐºÐ»Ð°ÑģÑģÐ°": 4218,
      "ÑĭÐ´": 4219,
      "Ð°ÑĢÐ°Ð½": 4220,
      "ĠÑĢÐ¾ÑģÑĤ": 4221,
      "ĠÐºÐ°Ð²Ð°Ð»": 4222,
      "ĠÐºÐ¾Ð¼Ð¼Ñĥ": 4223,
      "ĠÐ³Ð¸Ð¼": 4224,
      "ÑĮÐµÐ²": 4225,
      "ĠÑĨÐµÐ½ÑĤÑĢÐµ": 4226,
      "ĠÐ²Ð¾ÑģÐ¿Ð¸ÑĤ": 4227,
      "ÑĥÑħÐ°": 4228,
      "ĠÑĩÐµÑĤÐ²ÑĳÑĢ": 4229,
      "Ð½ÐµÐ¿": 4230,
      "ĠÐ²Ð°ÑĢÐ¸Ð°Ð½ÑĤ": 4231,
      "ĠÐ¿Ð¾ÑħÐ¾Ð´": 4232,
      "ĠÐ¾ÑĤÐ½Ð¾ÑģÐ¸ÑĤÑģÑı": 4233,
      "ÑĢÐ°Ð½Ð°": 4234,
      "ĠÐ·Ð°Ð±Ð¾Ð»": 4235,
      "Ð¸Ð·Ð²ÐµÑģÑĤ": 4236,
      "ĠÑĦÐµÐ²ÑĢÐ°Ð»Ðµ": 4237,
      "Ð´Ð¾": 4238,
      "ĠÐ¼Ð¾ÑģÐº": 4239,
      "ĠÐ£ÐºÐ°Ð·": 4240,
      "um": 4241,
      "Ð½Ð¸ÐºÐµ": 4242,
      "ĠÐĶÐµÐ¼": 4243,
      "ĠÐ²Ð¾ÑģÑĤÐ¾ÐºÐµ": 4244,
      "ĠÐ¿ÑĢÐ¾Ð¸ÑģÑħÐ¾Ð´": 4245,
      "ĠÑģÐ¾Ðº": 4246,
      "ĠÐ¼Ð½Ð¾Ð³Ð¾ÑĩÐ¸Ñģ": 4247,
      "ĠÐ¾Ð±Ð¾ÑĢÑĥÐ´": 4248,
      "ĠÐ¼Ð°ÑĤÑĩÐµÐ¹": 4249,
      "ÑĥÑİÑīÐ¸Ð¼": 4250,
      "ÑİÑģ": 4251,
      "ĠÑĥÑĩÐµÐ½Ð¸": 4252,
      "ĠÑģÑĭÐ½Ð°": 4253,
      "Ð¾Ð·Ð²": 4254,
      "ĠÑģÐµÑĢÑĮ": 4255,
      "ĠÑģÐ»Ð¾Ð²Ð°": 4256,
      "ÑĨÐ¸ÐºÐ»": 4257,
      "ĠÑĥÑģÑĤÑĥÐ¿": 4258,
      "ĠÐ¿ÑĢÐ¸Ð·ÑĳÑĢ": 4259,
      "ĠÐ¿ÑĢÐ¾Ð¸Ð³": 4260,
      "ĠÐ»ÐµÑĩ": 4261,
      "ĠÐ¿Ð¾ÑģÐµÐ»ÐµÐ½Ð¸Ðµ": 4262,
      "Ð¾ÑİÐ·": 4263,
      "ÑĨÐ¸Ð¾Ð½Ð½Ð¾Ð³Ð¾": 4264,
      "ĠÐľÐµÐ´Ð°Ð»ÑĮ": 4265,
      "ÑĤÐ°Ñħ": 4266,
      "ĠÑĤÑĢÐµÐ½ÐµÑĢ": 4267,
      "ĠÐ´ÐµÐ¼Ð¾ÐºÑĢÐ°ÑĤ": 4268,
      "ĠÐ¡ÑĤÐ°Ð½": 4269,
      "ĠÑĩÐ¸ÑģÐ»ÐµÐ½": 4270,
      "ĠÑĥÐ½Ð¸Ð²ÐµÑĢÑģÐ¸ÑĤÐµÑĤÐµ": 4271,
      "ĠÐ¿Ð¾Ð·Ð¸ÑĨÐ¸Ð¸": 4272,
      "ut": 4273,
      "Ð¸ÑģÑĤÑĭ": 4274,
      "ĠÐłÐ¾ÑģÑĤ": 4275,
      "ĠÐ²Ð¼ÐµÑģÑĤÐ¾": 4276,
      "ĠÐ£Ð¸Ð»ÑĮ": 4277,
      "ĠÐ¿ÐµÑĢÐµÑĥÐ»Ð¾Ðº": 4278,
      "ĠÑģÐ»Ð¾Ð²Ð°Ð¼": 4279,
      "ĠÑĥÐ¿ÑĢÐ°Ð·Ð´Ð½": 4280,
      "ĠÐ¿ÑĢÐ¾ÑĤÑıÐ¶ÐµÐ½Ð¸Ð¸": 4281,
      "ĠÑģÑĢÐ°Ð·Ñĥ": 4282,
      "ĠÐ¾ÑĢÐ´ÐµÐ½Ð¾Ð¼": 4283,
      "ĠÐ¿Ð»Ð¾ÑīÐ°Ð´Ð¸": 4284,
      "Ð¾Ð²Ð°Ð½Ð¸Ð¸": 4285,
      "ĠÑĤÐµÑĢÑĢÐ¸ÑĤÐ¾ÑĢÐ¸": 4286,
      "ĠÐ¿Ð¾ÑģÑĤÑĥÐ¿Ð¸Ð»": 4287,
      "ĠÐĿÐ°ÑģÐµÐ»ÐµÐ½Ð¸Ðµ": 4288,
      "Ð°Ð´Ð¶": 4289,
      "ĠÐ¿Ð°ÑģÑģÐ°Ð¶": 4290,
      "ĠÐ²Ð½Ð¸Ð¼Ð°Ð½Ð¸Ðµ": 4291,
      "ÑĢÐ°Ð½Ñĭ": 4292,
      "ĠÐĲÐ´Ð¼Ð¸Ð½Ð¸ÑģÑĤ": 4293,
      "ĠÐ²Ð¾ÐµÐ½Ð½Ð¾Ð³Ð¾": 4294,
      "ĠÐĵÐµÐ½ÐµÑĢÐ°": 4295,
      "ĠÐŃÐ¼": 4296,
      "ĠÐļÐ¾ÑģÑĤ": 4297,
      "ĠÐ´Ð¾ÑģÑĤÐ¸Ð¶": 4298,
      "ĠÐ·Ð°Ð½ÑıÑĤ": 4299,
      "ÑĢÐ¾ÑĤ": 4300,
      "ĠÐ¥Ð¾ÑĤ": 4301,
      "ĠÐ¸Ð½ÑĦ": 4302,
      "ĠÐŁÐ¾ÑĤ": 4303,
      "Ð°Ð²ÑĪÐ¸Ñħ": 4304,
      "ÑĢÐ¾ÑĤÐ¸Ð²": 4305,
      "ĠÐ½Ð°ÑĩÐ°Ð»Ð¾": 4306,
      "ĠÐĲÐ³": 4307,
      "ĠÐľÐ°Ð³": 4308,
      "ĠÐ¿ÐµÑĢÐ²ÑĥÑİ": 4309,
      "ĠÐĿÐ°Ð³": 4310,
      "ĠÐĺÐ½Ð´": 4311,
      "ĠÑĢÐµÐ±": 4312,
      "ĠÑĪÐµÑģÑĤ": 4313,
      "ĠÑįÐ¿Ð¾Ñħ": 4314,
      "ĠÑģÐ¾ÑģÑĤÐ°Ð²Ð°": 4315,
      "ĠÐ¡ÐµÐ½": 4316,
      "Ð°Ð½Ð½Ð¾Ð¹": 4317,
      "ĠÐĽÑĮ": 4318,
      "ĠÑĤÐ¾Ð²Ð°ÑĢ": 4319,
      "Ð¾Ð½Ð¾Ñģ": 4320,
      "ĠÑĥÑģÐ¸Ð»": 4321,
      "ĠÐºÐ¾ÑģÑĤ": 4322,
      "ĠÐ±Ð¾ÐµÐ²ÑĭÑħ": 4323,
      "ĠÐ³Ð»Ð°Ð·": 4324,
      "ĠÐ°ÑģÑĤ": 4325,
      "Ð¾Ð½Ð¸Ð¼": 4326,
      "ĠÑģÐ¾ÑģÐµÐ´": 4327,
      "ĠÑģÑĤÑĢÐ¾Ð¸ÑĤÐµÐ»ÑĮÑģÑĤÐ²Ð°": 4328,
      "ĠÐĵÐµÐ¾ÑĢÐ³": 4329,
      "ÑĳÐ·Ð´": 4330,
      "ĠÐ¾ÑĤÑģÑĤÐ°Ð²": 4331,
      "ĠÐ·Ð°Ð¼ÐµÑģÑĤÐ¸ÑĤÐµÐ»ÑĮ": 4332,
      "ĠÐĹÐ°Ð²": 4333,
      "ĠÑģÐ¿Ð¸ÑģÐº": 4334,
      "ĠÐ²ÐµÑĢÐ¾ÑıÑĤ": 4335,
      "ĠÐ»ÑİÐ´Ð¸": 4336,
      "Ð¾Ð½Ñģ": 4337,
      "Ð°Ð½Ð°Ð²Ð»Ð¸Ð²": 4338,
      "ĠÑģÐ²Ð¸Ð´ÐµÑĤÐµÐ»ÑĮ": 4339,
      "ĠÐ´Ð¾Ð»Ð»Ð°ÑĢÐ¾Ð²": 4340,
      "ĠÐ¾ÑĢÑĥÐ´": 4341,
      "ĠÑįÑģÐº": 4342,
      "ĠÐĲÐ½ÑĤÐ¾Ð½": 4343,
      "Ð·Ð°": 4344,
      "ĠÐ´Ð°Ð½Ð½ÑĭÑħ": 4345,
      "Ð¸ÑĢÐ¾Ð²Ð°Ð½Ð½ÑĭÑħ": 4346,
      "ĠÐ½Ð¾Ð²ÑĭÐµ": 4347,
      "ĠÑįÐºÑģÐ¿ÐµÐ´": 4348,
      "Ð»Ð°Ð½Ð´Ð¸Ð¸": 4349,
      "Ð¸ÑĢÐ¾Ð²Ð°Ð½Ñĭ": 4350,
      "Ð°Ð±Ð¾": 4351,
      "ÐµÑĢÐ°Ð»ÑĮ": 4352,
      "ĠXVIII": 4353,
      "Ð¾Ð³ÑĢÐ°ÑĦÐ¸Ñı": 4354,
      "ĠÐ³Ð»Ð°Ð²Ðµ": 4355,
      "ĠÐºÐ»ÐµÑĤ": 4356,
      "ĠÐ¾Ð±Ð»Ð°": 4357,
      "ĠÐĿÐµÐºÐ¾ÑĤÐ¾ÑĢ": 4358,
      "ĠÐ´ÐµÐ²ÑĥÑĪ": 4359,
      "Ð±Ð¾Ð¹": 4360,
      "ĠÐ»Ð¸Ð³Ð¸": 4361,
      "ĠÑģÐ¾Ð¾ÑĢÑĥÐ¶": 4362,
      "ĠÐĲÐ½Ð³Ð»Ð¸Ð¸": 4363,
      "ĠÑģÐ¾Ð¾ÑĤÐ²ÐµÑĤÑģÑĤÐ²Ð¸Ð¸": 4364,
      "Ð¶ÐµÐ½Ð¸Ñı": 4365,
      "ĠÐ¼Ð¸ÑģÑģ": 4366,
      "ĠÐ¿ÑĢÐ¾ÑıÐ²": 4367,
      "ĠÑĢÐµÐ»Ð¸Ð³Ð¸Ð¾Ð·": 4368,
      "ÑĭÑĤÐ°": 4369,
      "ÐºÐ¾Ð¼Ð°": 4370,
      "ĠÐ³Ð»Ð°Ð²Ð½Ð¾Ð³Ð¾": 4371,
      "ĠÐ¿Ð¾Ð±ÐµÐ´Ñĥ": 4372,
      "ĠÐ½Ð°Ð·ÑĭÐ²Ð°ÐµÐ¼": 4373,
      "ĠÐ¾Ð±Ð¾ÑĢÐ¾Ð½": 4374,
      "Ð¸Ð²Ð°Ð½Ð¸Ñı": 4375,
      "ĠÐ¿Ð¾Ð²ÑĤÐ¾ÑĢ": 4376,
      "ĠÑĩÐ¸ÑĤ": 4377,
      "ĠÐºÐ°Ð¼Ð¿": 4378,
      "Ð¿ÐµÐ´": 4379,
      "ĠÐ¿ÐµÑħÐ¾ÑĤ": 4380,
      "ĠÐ¿Ð»Ð¾ÑĤ": 4381,
      "ĠÐ©": 4382,
      "ĠÐºÐ¾Ð¿": 4383,
      "Ð¸ÑĨÑĥ": 4384,
      "ĠÑģÑĤÐ°Ð½ÑĨÐ¸Ñı": 4385,
      "ĠÐºÐ°Ð±": 4386,
      "ĠÐľÐ°ÐºÑģÐ¸Ð¼": 4387,
      "ĠÑģÐºÑĥÐ»ÑĮ": 4388,
      "Ð¾Ð¿ÑĢÐ¸ÑıÑĤ": 4389,
      "Ġ1919": 4390,
      "ĠÐ¸ÑģÑĤÑĢÐµÐ±": 4391,
      "Ð¿Ð°ÑĢÑħ": 4392,
      "ĠÐ½Ð°ÑĩÐ°Ð»ÑĮÐ½Ð¸Ðº": 4393,
      "ĠÐ·Ð°Ð¿Ð°Ð´Ðµ": 4394,
      "ĠÐ¡Ð»Ð°Ð²": 4395,
      "ĠÐ»ÑĳÐ³": 4396,
      "ĠÐ´ÑĢ": 4397,
      "Ð´Ñĥ": 4398,
      "Ð¸Ð´ÐµÑĢ": 4399,
      "ĠÐ²ÑĭÑĪÐµ": 4400,
      "ĠÐ¿Ð¾Ð»Ð½Ð¾Ð¼": 4401,
      "ĠÐļÑĢÑĭÐ¼": 4402,
      "ĠÐ¿ÑĢÐ°Ð²Ð¸ÑĤÐµÐ»ÑĮÑģÑĤÐ²Ð¾": 4403,
      "ÑĥÐ³Ð¾Ð»ÑĮ": 4404,
      "Ð°Ð½Ð½Ð°Ñı": 4405,
      "ĠÐ¿ÑĢÐµÐ´Ð¿Ð¾Ð»Ð°Ð³": 4406,
      "ĠÐľÐ¸Ð»": 4407,
      "Ð°ÑĪÐº": 4408,
      "ĠÐºÐ°Ð´": 4409,
      "ĠÐ²Ð¾ÐµÐ½Ð½ÑĭÑħ": 4410,
      "ÐµÐ¹ÑģÑı": 4411,
      "ÑĨÐ¸ÐºÐ»Ð¾Ð¿ÐµÐ´": 4412,
      "ĠÐ¿Ð¾ÐºÐ°": 4413,
      "ĠÐ·Ð°Ð³": 4414,
      "ÑģÑĤÐ²Ð¸Ðµ": 4415,
      "ĠÐŁÐµÑĢÐ²Ð¾Ð¹": 4416,
      "Ð¸ÑĨÐ¸": 4417,
      "Ġ36": 4418,
      "ĠÐ¿ÑĢÐ¾ÑħÐ¾Ð´Ð¸ÑĤ": 4419,
      "ĠÐłÐ°Ñģ": 4420,
      "ĠÐ¼ÐµÑĤÐ°Ð»Ð»": 4421,
      "ĠÐĲÐ²ÑĤÐ¾ÑĢ": 4422,
      "ĠÐ£Ð·": 4423,
      "ÐµÐ²ÑĭÑħ": 4424,
      "ĠÐ²Ð¾ÐµÐ²": 4425,
      "ĠÐ¶Ð¸Ð²Ð¾Ð¿": 4426,
      "ĠÐ³Ð»Ð°Ð²Ð½ÑĭÐ¹": 4427,
      "ĠÐļÐ°Ð¿": 4428,
      "ĠÐ±Ð¾Ð³Ð°ÑĤ": 4429,
      "ĠÐŁÑĢÐµÐ·Ð¸Ð´Ð¸ÑĥÐ¼Ð°": 4430,
      "ĠÑĢÐ°Ð±Ð¾ÑĤÐ°ÑĤÑĮ": 4431,
      "ÐµÑħÐ½": 4432,
      "ĠÐ¾ÑĩÐµÑĢÐµÐ´ÑĮ": 4433,
      "ĠÐ°ÐºÑĤÑĳÑĢ": 4434,
      "ĠÑĩÐµÑĤÐ²ÐµÑĢ": 4435,
      "Ġ1988": 4436,
      "ĠÐĴÐ»Ð°Ð´Ð¸Ð¼Ð¸": 4437,
      "ĠÐŀÑĦÐ¸ÑĨÐ¸Ð°Ð»ÑĮÐ½ÑĭÐ¹": 4438,
      "ĠÐ²ÐµÐ»": 4439,
      "ÑĥÐµÐ¼": 4440,
      "ĠÐ¡Ð¿Ð¸ÑģÐ¾Ðº": 4441,
      "Ð¸Ð°ÑĤ": 4442,
      "Ð¾Ð´Ð½": 4443,
      "ĠÑĦÐ»Ð¾ÑĤÐ°": 4444,
      "Ð¸ÑĤÐ¾ÑĢ": 4445,
      "ĠÑĢÑıÐ´Ð°": 4446,
      "ĠÐ±ÐµÐ¶": 4447,
      "ĠÐ¿ÑĢÐ¾Ð³ÑĢÐ°Ð¼Ð¼Ñĭ": 4448,
      "ĠÐºÐ¾Ð»Ð»ÐµÐº": 4449,
      "ĠÐ²ÑģÐµÐ³Ð´Ð°": 4450,
      "ĠÑħÐ¾ÑĢÐ¾ÑĪÐ¾": 4451,
      "ÐºÐ¸Ð¿Ð°Ð¶": 4452,
      "ĠÐ·Ð°ÑıÐ²Ð¸Ð»": 4453,
      "ĠÐ¿ÑĢÐµÐ´ÑģÐµÐ´Ð°ÑĤÐµÐ»ÑĮ": 4454,
      "ÑģÐ¸Ð¸": 4455,
      "ĠÐ¢Ð°ÐºÐ¸Ð¼": 4456,
      "ĠÑĤÑıÐ¶ÑĳÐ»": 4457,
      "ĠÐĴÐ¸Ð½": 4458,
      "ĠÐ¿Ð¾Ð½Ð¸Ð¼": 4459,
      "Ġ1937": 4460,
      "ĠÐŀÐŀ": 4461,
      "ĠÐ¸Ð½Ð¾Ð³Ð´Ð°": 4462,
      "ĠÐ²ÑĭÑĪÐ»Ð°": 4463,
      "ĠÐºÐ°ÑĤÐ¾Ð»": 4464,
      "Ð¾ÐºÐ¾Ð»": 4465,
      "ÐµÐ²ÑģÐºÐ¸Ð¹": 4466,
      "ĠÐ°Ð·": 4467,
      "ĠÑģÐ¿ÑĥÑģÑĤÑı": 4468,
      "ĠÐľÐ¾ÑģÐºÐ¾Ð²ÑģÐºÐ¾Ð³Ð¾": 4469,
      "ĠÑĩÐµÐ»": 4470,
      "ĠÐ½ÐµÐ¿Ð¾ÑģÑĢÐµÐ´": 4471,
      "ĠÐ¿ÑĢÐ°Ð·Ð´": 4472,
      "ĠÐ§Ð»ÐµÐ½": 4473,
      "iv": 4474,
      "Ð¸Ð½Ð¾Ð¼": 4475,
      "ĠÐ½Ð°ÑĩÐ°Ð»ÑĮÐ½Ð¸ÐºÐ°": 4476,
      "ĠÐ´Ð²Ð¾ÑĢÑıÐ½": 4477,
      "Ð¾Ð½Ñĥ": 4478,
      "Ġ'": 4479,
      "ĠÑĢÐµÑĦÐ¾ÑĢÐ¼": 4480,
      "ĠÐ±Ð¾Ð»ÐµÐ·": 4481,
      "Ð¾Ð²ÐµÑĢ": 4482,
      "Ġ33": 4483,
      "Ð¾Ð½ÑĩÐ°Ð»ÑģÑı": 4484,
      "Ð¾Ð¿Ð¾Ð»": 4485,
      "ĠÑģÑĤÑĢÐµÐ¼": 4486,
      "ÑĢÑĥÐ½": 4487,
      "10": 4488,
      "ĠÐŁÐ¸ÑĤ": 4489,
      "ĠÐ½Ð°ÑĥÐºÐ¸": 4490,
      "ĠÐ½Ð°ÑĨÐ¸Ð¾Ð½Ð°Ð»ÑĮÐ½Ð¾Ð¹": 4491,
      "ĠÑģÑĦ": 4492,
      "ĠÐ¿ÑĢÐ¸Ð»": 4493,
      "ĠÐ¿Ð¾Ð»ÑĥÑĩÐ¸Ð»Ð¸": 4494,
      "Ġ1938": 4495,
      "ĠÐ¸Ð³ÑĢÐµ": 4496,
      "ĠÐ½Ð°Ð»Ð¸Ñĩ": 4497,
      "ĠÐºÑĢÐ¾Ð¼Ðµ": 4498,
      "Ð¾Ð²Ð°Ð»ÑģÑı": 4499,
      "ĠÐļÐ¾Ð´": 4500,
      "ĠÑĤÐµÐ¾ÑĢ": 4501,
      "ÑįÐ»ÑĮ": 4502,
      "ĠÐľÐ°": 4503,
      "ĠÐ²ÑĭÑģÐ¾ÑĤ": 4504,
      "ĠÐ¿ÑĢÐ¾Ð¸Ð·Ð²ÐµÐ´ÐµÐ½Ð¸Ñı": 4505,
      "Ġp": 4506,
      "ÑīÐµ": 4507,
      "ĠÐľÐ°ÑĢÐ¸Ñı": 4508,
      "ĠÐ¸Ð½ÑĦÐ¾ÑĢÐ¼Ð°ÑĨÐ¸Ð¸": 4509,
      "ĠÐŃÑģÑĤ": 4510,
      "ĠÐŀÐ»ÑĮ": 4511,
      "ĠÐ¿Ð¾Ð¸ÑģÐº": 4512,
      "ĠÐ²ÑĢÐ°": 4513,
      "ĠÐ¢Ð¸Ð¼": 4514,
      "ĠÑĢÐµÐ²Ð¾Ð»ÑİÑĨÐ¸Ð¸": 4515,
      "ĠÑĥÑģÑĤÐ°Ð½Ð¾Ð²Ð»ÐµÐ½": 4516,
      "ĠÐ½Ð°ÑĥÑĩÐ½Ð¾": 4517,
      "Ð¾Ð²ÑĥÑİ": 4518,
      "Ð¸Ð»ÑĮÐ¼": 4519,
      "ÑıÑİÑĤÑģÑı": 4520,
      "ĠÐ¼Ð°ÑĪÐ¸Ð½": 4521,
      "ĠÑĪÑĤÑĥÑĢ": 4522,
      "ÑĢÐ¸Ð³Ð¸Ð½": 4523,
      "Ð¾ÑģÑĤÐ¾ÑıÑĤÐµÐ»ÑĮ": 4524,
      "ÐµÑģÑģÐ°": 4525,
      "ĠÐ¿Ð¾Ñį": 4526,
      "ÑĥÑĩÐ¸": 4527,
      "ĠÐ°Ð½Ð°Ð»Ð¾Ð³": 4528,
      "Ð°Ð½Ð´Ð°ÑĢÑĤ": 4529,
      "ĠÐ¿ÑĢÐµÑģÑĤ": 4530,
      "ĠÐ¿ÐµÑģÐ½Ð¸": 4531,
      "ĠÐĴÐµÑĢ": 4532,
      "ĠÐ¿ÑĢÐ¸ÑĢÐ¾Ð´": 4533,
      "ĠÐ³ÑĢÐµÑĩÐµÑģÐº": 4534,
      "ĠÐ¾Ð´Ð½Ð¾Ð²ÑĢÐµÐ¼ÐµÐ½Ð½Ð¾": 4535,
      "ÑĩÐ¸": 4536,
      "ĠÑĤÑĥÑĢÐ½Ð¸ÑĢÐ°": 4537,
      "ĠÐ´ÐµÑĢÐµÐ²ÑıÐ½": 4538,
      "ĠÐ¾Ð´Ð½": 4539,
      "ĠÐºÑĥÐ±": 4540,
      "ĠÐ¿Ð¸ÑģÐ°ÑĤÐµÐ»ÑĮ": 4541,
      "Ð¾Ð½Ð°ÑĩÐ°Ð»ÑĮÐ½Ð¾": 4542,
      "Ð´Ð°ÑİÑĤ": 4543,
      "Ð¾Ð³ÑĢÐ°Ð´": 4544,
      "Ð¸ÑĢÑĥÐµÑĤÑģÑı": 4545,
      "ĠÐ¸Ð½Ð¸ÑĨÐ¸": 4546,
      "ĠÑĢÐµÐ°Ðº": 4547,
      "ĠÐ´ÑĥÑĪ": 4548,
      "ĠÐŁÐ¾Ð¿": 4549,
      "ĠÑĢÑĭÐ½": 4550,
      "ĠÐ¿Ð°ÑĢÑĤÐ¸Ð¹": 4551,
      "ĠÐļÐ°Ð²ÐºÐ°Ð·": 4552,
      "ĠÐ¿Ð¸ÑĤ": 4553,
      "ĠÑĥÑģÐ»Ð¾Ð²Ð¸ÑıÑħ": 4554,
      "ĠÑħÐ¾Ð»": 4555,
      "ĠÐ¸ÑģÐ¿Ð¾Ð»ÑĮÐ·Ð¾Ð²Ð°ÑĤÑĮ": 4556,
      "ÐµÐºÐ°ÐµÑĤ": 4557,
      "ĠÐ¡Ð¾ÑĨÐ¸Ð°Ð»Ð¸ÑģÑĤ": 4558,
      "ĠÐ½Ð¸ÐºÐ°Ðº": 4559,
      "ĠÐ¼Ð¸Ð½Ð¸ÑģÑĤÑĢÐ°": 4560,
      "ĠÐ¾ÐºÐºÑĥÐ¿": 4561,
      "ĠÑįÐºÑģÐ¿Ð»Ñĥ": 4562,
      "ay": 4563,
      "ĠÐ¿Ð¾ÐºÐ¸Ð½": 4564,
      "ĠÐ¾ÑĤÑĢÐ°Ð¶": 4565,
      "ĠÐ´Ð¸ÑģÑģÐµÑĢÑĤÐ°": 4566,
      "ĠÐŀÐºÑĤ": 4567,
      "ĠÐ¿ÐµÑĢÐµÑģÑĤ": 4568,
      "ĠÑĪÑĤÐ°ÑĤ": 4569,
      "ĠÐ´Ð¸ÑĢÐµÐºÑĤÐ¾ÑĢ": 4570,
      "ĠÑĢÐµÐ³ÑĥÐ»ÑıÑĢ": 4571,
      "ĠÐ½Ð°ÑĩÐ°Ð»Ð¸": 4572,
      "ĠÐ³Ð¸Ð¿": 4573,
      "ĠÑģÐ¾Ð¿ÑĢÐ¾Ð²": 4574,
      "ĠÐ²ÐºÐ»Ð°Ð´": 4575,
      "ĠÑĦÐ»Ð¾ÑĤ": 4576,
      "ÑģÑĤÐ¾": 4577,
      "ÑĨÐ°Ð¼": 4578,
      "ĠÑĩÐµÑĢ": 4579,
      "ĠÐ¸ÑģÐ¿Ð¾Ð»Ð½Ñı": 4580,
      "Ð¾ÑģÑĤÑĢÐ¾": 4581,
      "Ð¸ÑĤÐ¸": 4582,
      "ĠÐļÐ°Ð·Ð°ÑħÑģÑĤ": 4583,
      "ĠÐ·Ð°ÐºÐ°Ð·": 4584,
      "ĠÑģÑĤÐµÐ½": 4585,
      "ĠÑĢÐµÐºÐµ": 4586,
      "ĠÐ´Ð¾ÑģÑĤÐ°ÑĤÐ¾ÑĩÐ½Ð¾": 4587,
      "ĠÑħÐ¾Ðº": 4588,
      "ĠÐ´Ð¸Ð²Ð¸Ð·Ð¸Ñı": 4589,
      "Ð±Ð¸Ð»": 4590,
      "ĠÑĢÐ¸Ñģ": 4591,
      "Ð¾Ð²Ð¾Ðµ": 4592,
      "ĠÐ·Ð°Ð²Ð¸ÑģÐ¸Ð¼": 4593,
      "ĠÑĤÑĢÐ°Ð½Ñģ": 4594,
      "ÑģÐµÐ½": 4595,
      "ĠÐĴÐµÐ»Ð¸ÐºÐ¾Ð±ÑĢÐ¸ÑĤÐ°Ð½Ð¸Ð¸": 4596,
      "ÐµÑĢÐ°Ð¼Ð¸": 4597,
      "ÑĢÐ°Ð±Ð°ÑĤ": 4598,
      "ag": 4599,
      "ĠÐ¿ÑĢÐ¾ÑĤÐµÑģÑĤ": 4600,
      "ĠÐ¿Ð¾ÑĤÐ¾Ð¼Ñĥ": 4601,
      "Ð¾Ð»Ð¾Ð³Ð¸Ñı": 4602,
      "50": 4603,
      "Ð¸Ð·Ð½ÐµÑģ": 4604,
      "ĠÐ¿Ð¾ÐµÐ·Ð´": 4605,
      "ĠÐºÐ°Ð¿": 4606,
      "ĠÐ¡ÑĤÐµÐ¿": 4607,
      "ĠÐŁÐ°": 4608,
      "ĠÑģÐ¾ÑĢÐµÐ²Ð½Ð¾Ð²Ð°Ð½Ð¸Ñı": 4609,
      "ĠÐ½ÐµÐ´Ð¾ÑģÑĤÐ°ÑĤ": 4610,
      "ĠÐ½Ð¸Ñĩ": 4611,
      "ĠÐ¾Ð±Ð»Ð°Ð´": 4612,
      "ĠÐ¾Ð·ÐµÑĢÐ°": 4613,
      "ĠÐŁÐ¾Ð·Ð¶Ðµ": 4614,
      "ĠÐµÐ²ÑĢÐµÐ¹": 4615,
      "ĠÐĴÐ¼ÐµÑģÑĤ": 4616,
      "ĠÐ³ÐµÑĢÐ±": 4617,
      "ĠÑģÑĤÐ¾": 4618,
      "ĠÐĽÐ°ÑĤ": 4619,
      "Ð°ÑıÑģÑı": 4620,
      "ĠÐ¿ÑĢÐ¾Ð¼ÑĭÑĪÐ»ÐµÐ½Ð½Ð¾ÑģÑĤÐ¸": 4621,
      "ĠÐŁÐ¾Ðº": 4622,
      "ĠÐ·Ð½Ð°ÑĩÐµÐ½Ð¸Ñı": 4623,
      "ĠÐ´Ð²Ð¾ÑĢÐ¾Ð²": 4624,
      "ĠÐļÐ°ÑĢÐ»": 4625,
      "ĠÑĤÑĥÑĢÐ½": 4626,
      "ĠÐ³Ð¾ÑĢÐ¾Ð´ÑģÐºÐ¾Ð¹": 4627,
      "ÑĥÐ¼Ñĭ": 4628,
      "ĠÐºÐ¸Ñģ": 4629,
      "ĠÐºÐ°ÑĤÐµÐ³Ð¾ÑĢÐ¸Ð¸": 4630,
      "ĠIV": 4631,
      "ĠÐ¿Ð¾Ð´Ð²ÐµÑĢÐ³": 4632,
      "Ġ90": 4633,
      "ĠÐ¡ÑĥÐ´": 4634,
      "ĠÐ¥Ð°ÑĢÑĮ": 4635,
      "Ġ178": 4636,
      "Ð¶Ð´Ðµ": 4637,
      "ĠÐ½Ð°ÑħÐ¾Ð´ÑıÑĤÑģÑı": 4638,
      "ĠÐ´Ð¾Ð³Ð¾Ð²Ð¾ÑĢ": 4639,
      "ĠÑĤÐ°ÐºÐ¾Ð¹": 4640,
      "ĠÐĽÐ¸Ð³": 4641,
      "ĠÑĥÑĢÐ¾Ð²Ð½Ðµ": 4642,
      "ĠÐ¾ÑģÐ½Ð¾Ð²Ð½Ð¾Ð¹": 4643,
      "ĠÐ¸ÑģÑģÐ»ÐµÐ´Ð¾Ð²Ð°ÑĤÐµÐ»ÑĮ": 4644,
      "ĠÐĵÑĢÐ°Ð½": 4645,
      "ĠÑĤÐ°Ð±": 4646,
      "ĠÐ±ÑĭÑģÑĤÑĢÐ¾": 4647,
      "ĠÐ¶ÐµÐ»ÐµÐ·Ð½Ð¾Ð¹": 4648,
      "ĠÑģÐ¾ÑģÑĤÐ¾ÑıÐ½Ð¸Ñİ": 4649,
      "ĠÐ¾Ð·Ð½Ð°Ñĩ": 4650,
      "ĠÐ±Ð¾Ð»ÑĮÑĪÐ¸Ð½ÑģÑĤÐ²Ð¾": 4651,
      "ĠÐ¥Ð¾ÑĢ": 4652,
      "ĠÐºÐ¾Ð½ÑģÑĤÑĢÑĥÐº": 4653,
      "ĠÐ¾Ð±ÑīÐµÐ¹": 4654,
      "ÑĭÐ¶": 4655,
      "Ð¾ÑģÐ»Ð¾Ð²": 4656,
      "ĠÐ½ÐµÑģÐ¼Ð¾ÑĤÑĢÑı": 4657,
      "ĠÐĿÐ°ÑĢ": 4658,
      "ĠÐĹÐ½Ð°Ð¼": 4659,
      "Ð¾Ð¶Ðµ": 4660,
      "Ġ1946": 4661,
      "ĠÐ´Ð¾Ð¼Ð°ÑĪ": 4662,
      "ĠÐ±ÑĢÐ¸ÑĤÐ°Ð½": 4663,
      "Ð´Ð°ÐµÑĤÑģÑı": 4664,
      "ĠÑģÐ¿Ð¾ÑĢÑĤÑģ": 4665,
      "ĠÐ¢Ð¸Ñħ": 4666,
      "ĠÐ¼ÑĥÑģ": 4667,
      "ĠÐ²Ð¾Ð·Ð²": 4668,
      "ĠÐĵÑĢÐµ": 4669,
      "ĠÐŃÑĤÐ°": 4670,
      "ĠÑĤÐµÐ»Ð°": 4671,
      "ÑĭÐ²Ð°": 4672,
      "ĠÐ¸Ð·Ð³Ð¾ÑĤÐ¾Ð²": 4673,
      "ĠÐ´ÐµÐ¹ÑģÑĤÐ²Ð¸Ð¹": 4674,
      "ĠÑĥÑĪ": 4675,
      "ĠÐĳÑĥÑĢ": 4676,
      "ĠÐľÐµÑĤ": 4677,
      "ĠÑħÑĥÐ´Ð¾Ð¶Ð½Ð¸Ðº": 4678,
      "ĠÑĪÑĤÐ°Ð±Ð°": 4679,
      "ĠÑĥÑĢÐ¾Ð²Ð½Ñı": 4680,
      "ĠÐ´ÐµÐ½": 4681,
      "ĠÐ¿ÑĢÐµÐ¶": 4682,
      "Ð°Ð½Ñĥ": 4683,
      "Ð¸ÑĤÐµÐ»ÑĮÐ½ÑĭÐ¼": 4684,
      "ÑĩÐ¸ÐºÐ¾Ð²": 4685,
      "ĠÐ´Ð»": 4686,
      "ÑģÑĤÑĢÐ¾Ð¹": 4687,
      "ĠÐ¼Ð¾Ð³Ð»Ð¸": 4688,
      "ĠÑĥÐ»Ð¸ÑĨÐµ": 4689,
      "ĠÑģÐ¾ÑģÑĤÐ¾ÑıÐ»Ð°ÑģÑĮ": 4690,
      "Ð·Ðµ": 4691,
      "ĠÐĶÐ¾Ðº": 4692,
      "ĠÐºÐ¾Ð½ÑĨÐµÑĢÑĤ": 4693,
      "ĠÐºÐ¾ÑĤÐ¾ÑĢÐ¾Ð¼Ñĥ": 4694,
      "ĠÐ¿ÑĥÑģÑĤ": 4695,
      "ĠÐ±ÑĥÐº": 4696,
      "ĠÐ´ÐµÑĢÐ¶": 4697,
      "ĠÐ¢Ð°Ð¹": 4698,
      "ĠÐ´Ð¾Ð¼Ðµ": 4699,
      "ĠÐĲÐ½Ð´ÑĢÐµÐ¹": 4700,
      "ĠÐ²Ð¾ÐºÑĢÑĥÐ³": 4701,
      "ĠÐ¿ÐµÐ²": 4702,
      "ÐµÐ²Ð¸ÑĩÐ°": 4703,
      "Ð¼Ð°Ð½Ð°": 4704,
      "ĠÑģÐ¸Ð»ÑĮÐ½Ð¾": 4705,
      "ĠÐĳÑĥÐ´": 4706,
      "ÑĳÐ½Ð½ÑĭÐ¼": 4707,
      "ĠÐºÐ¾Ð½ÐµÑĩ": 4708,
      "ĠÑģÐ¿Ð¸ÑģÐ¾Ðº": 4709,
      "ÑĢÐ¸ÑĨ": 4710,
      "Ð°Ð»Ñĥ": 4711,
      "ĠÐļÐ¾Ð¼Ð¿": 4712,
      "ĠÐĲÐ»ÐµÐºÑģÐµÐ¹": 4713,
      "ĠÑĥÐ±Ð¸ÑĤ": 4714,
      "ĠÑĤÑĥÑĢÐ½Ð¸ÑĢÐµ": 4715,
      "Ð¾Ð´Ð°ÑĤÐµÐ»ÑĮ": 4716,
      "ĠÐ¾Ð½Ð¾": 4717,
      "ĠÑģÑĤÐ°ÑĢÑĪÐ¸Ð¹": 4718,
      "ĠÐºÐ¾Ð»Ð»ÐµÐºÑĤ": 4719,
      "Ð½ÐµÑĢ": 4720,
      "ÑģÑĤÐ²ÐµÐ½Ð½ÑĭÑħ": 4721,
      "ĠÐ±Ð¾Ð¼Ð±Ð°ÑĢÐ´": 4722,
      "ÑĨÐµÐ½ÑĤ": 4723,
      "ĠÐĿÐ°Ð´": 4724,
      "ĠÑĢÑĥÑģÑģÐºÐ¸Ð¹": 4725,
      "ÐµÐºÐ°Ð½": 4726,
      "ĠÐ¿ÑĢÐ¸Ð³Ð»Ð°ÑĪ": 4727,
      "ĠÐłÐ°Ð¹": 4728,
      "ĠÐ½Ð°ÑģÑĩÐ¸ÑĤ": 4729,
      "ÑģÐºÐ¾ÑħÐ¾Ð·ÑıÐ¹ÑģÑĤÐ²ÐµÐ½": 4730,
      "ĠÐ¸Ð½ÑģÑĤÑĢÑĥ": 4731,
      "ĠÐĵÑĢÑĥÐ·": 4732,
      "ĠÐ¡ÐµÐ²ÐµÑĢÐ½Ð¾Ð¹": 4733,
      "ÑĥÐºÐ¾Ð²": 4734,
      "ĠÑĩÐµÐ»Ð¾Ð²ÐµÑĩ": 4735,
      "ĠÐļÑĢ": 4736,
      "ĠÐļÐ¾Ð½ÑģÑĤÐ°Ð½ÑĤÐ¸Ð½": 4737,
      "ÑĢÐ°Ð»Ð¸": 4738,
      "Ġ1986": 4739,
      "ÑıÑĤÑĮÑģÑı": 4740,
      "ÑĭÐ²Ð°Ð»Ð¸": 4741,
      "ĠÐ¾ÑĢÐ³": 4742,
      "ÐµÐ·Ð´Ñĭ": 4743,
      "ĠÐ¿ÑĢÐ°Ð²Ð¸Ð»Ð¾": 4744,
      "ÐĴÐĶ": 4745,
      "ĠÐºÐ°Ð½Ð´Ð¸Ð´Ð°ÑĤ": 4746,
      "ĠÐ³Ð¾ÑģÑĥÐ´Ð°ÑĢÑģÑĤÐ²ÐµÐ½Ð½Ð¾Ð¹": 4747,
      "ĠÑĢÐ°Ð·Ð»Ð¸ÑĩÐ½ÑĭÐµ": 4748,
      "ĠÐ¿Ð¾ÑĢÑĥÑĩ": 4749,
      "Ð¶ÐµÐ³Ð¾Ð´": 4750,
      "ĠÐ¾Ð±ÑıÐ·Ð°Ð½": 4751,
      "Ð°ÑĢÐ´Ð°": 4752,
      "ĠÐ¿Ð°ÑĢÐ»Ð°Ð¼ÐµÐ½ÑĤ": 4753,
      "ĠÐ²Ð¾ÐµÐ½Ð½Ð¾Ð¹": 4754,
      "Ð»Ð¸Ð¶Ð°Ð¹": 4755,
      "Ð¾Ð´ÐµÐ¹ÑģÑĤÐ²": 4756,
      "ĠÐ¼Ð°ÑĤÑĮ": 4757,
      "ĠÐ·Ð°ÑīÐ¸Ñī": 4758,
      "ĠÐłÐ°ÑģÐ¿Ð¾Ð»Ð¾Ð¶": 4759,
      "ĠÐĽÐ¸Ð½": 4760,
      "ĠÐ½ÐµÐ¸Ð·Ð²ÐµÑģÑĤ": 4761,
      "ĠÐ²ÑĭÐ¸Ð³ÑĢÐ°Ð»": 4762,
      "ĠÐ¿Ð¾Ð´ÑħÐ¾Ð´": 4763,
      "ĠÑģÐ°Ð¼Ð¾ÑģÑĤÐ¾ÑıÑĤÐµÐ»ÑĮ": 4764,
      "ĠÐ¿Ð¸ÑģÐ°Ð»": 4765,
      "ĠÐĺÐ·ÑĢÐ°": 4766,
      "ĠÐ°Ð²ÑĤÐ¾Ð¼Ð¾Ð±Ð¸Ð»ÑĮ": 4767,
      "ĠÐĴÑģÐµÐ³Ð¾": 4768,
      "ĠÐ¿Ð°Ð¼ÑıÑĤÐ½Ð¸Ðº": 4769,
      "ĠÐ±ÐµÐ³": 4770,
      "ĠÐ¿ÐµÑĢÐ²ÐµÐ½": 4771,
      "ĠÐ·Ð½Ð°ÐºÐ¾Ð¼": 4772,
      "ĠÑĦÐ°ÐºÑĥÐ»ÑĮÑĤÐµÑĤ": 4773,
      "ĠÐ¿Ð¸Ð»": 4774,
      "Ð°Ð±Ð¾ÑĢÐ°ÑĤ": 4775,
      "ĠÐļÑĥÐ·": 4776,
      "ĠÐŃÐ»": 4777,
      "ĠÐ¾Ð´Ð½Ð¾Ð¸Ð¼": 4778,
      "ĠÐ²ÐµÐ»Ð¸Ñĩ": 4779,
      "Ġ34": 4780,
      "ĠÑħÐ¾Ð·ÑıÐ¹ÑģÑĤÐ²Ð°": 4781,
      "ĠÐĽÑİÐ±": 4782,
      "ĠÑģÐµÑĢÑĮÑĳÐ·": 4783,
      "ĠÐ¿ÑĢÐ¸Ð·Ð²": 4784,
      "Ġthe": 4785,
      "ĠÐ±ÑĥÑĢ": 4786,
      "ĠÑģÐµÐ¹": 4787,
      "ĠÐ§ÐµÑħ": 4788,
      "ĠÐ²ÑģÑĤÑĢÐµÑĤ": 4789,
      "Ġ1965": 4790,
      "ĠÐ¾Ð´Ð½Ñĥ": 4791,
      "ĠÐ¿Ð»ÐµÐ½": 4792,
      "ĠÐ¿Ð»Ð°ÑģÑĤ": 4793,
      "ĠÑĦÐ¾ÑĢÐ¼Ñĭ": 4794,
      "ÐµÐ»Ð»": 4795,
      "ĠÐ·Ð°ÐºÑĢÑĭÑĤ": 4796,
      "ÑĤÐ°Ð¶": 4797,
      "ÑĮÐµÑĢÐ°": 4798,
      "ĠÐ¿ÑĢÐ¾Ð´ÑĥÐºÑĤ": 4799,
      "Ð¸Ð´Ñĥ": 4800,
      "ĠÐ·Ð½Ð°ÑĩÐµÐ½Ð¸Ðµ": 4801,
      "ĠÐ¡Ð¾Ð»": 4802,
      "Ġ1929": 4803,
      "Ġ1987": 4804,
      "Ð¾ÑĢÐ´Ð¶": 4805,
      "ÑĨÐ°ÑĤÑĮ": 4806,
      "Ð½Ð°Ð·Ð½Ð°Ñĩ": 4807,
      "ĠÐ»Ð°ÑĤ": 4808,
      "ĠÐ´Ð¾ÑħÐ¾Ð´": 4809,
      "Ð¸Ð¼ÐµÑĢ": 4810,
      "Ð¾Ð¿Ð¾Ð»Ð¾Ð¶": 4811,
      "ĠÐ£ÑĩÐ°ÑģÑĤ": 4812,
      "Ð¡Ð¡": 4813,
      "ĠÐĲÑĦÑĢ": 4814,
      "ĠÐ¸Ð·Ð²ÐµÑģÑĤÐ½Ð¾": 4815,
      "ĠÐŃÑĤÐ¸": 4816,
      "ĠÑģÐ½ÑıÑĤ": 4817,
      "ĠÐ²Ð»Ð¸ÑıÐ½Ð¸Ðµ": 4818,
      "ĠÑĨÐ²ÐµÑĤÐ°": 4819,
      "ĠÑģÐ°Ð¼Ð¾Ð¹": 4820,
      "ĠÐ¿Ð¾Ð±ÐµÑĢÐµÐ¶": 4821,
      "ĠÐ¼Ð°Ð³Ð°Ð·": 4822,
      "ĠÐĶÐ°Ð²": 4823,
      "ĠÑıÐ²Ð»ÑıÐ»ÑģÑı": 4824,
      "ĠÐŁÐ¾Ñħ": 4825,
      "ĠÑĤÐ²Ð¾ÑĢÑĩ": 4826,
      "Ð¸Ð´Ð¾Ð²": 4827,
      "ĠÐºÐ¾Ð¼Ð°Ð½Ð´Ð¸ÑĢÐ°": 4828,
      "Ð»Ð¸ÑĪ": 4829,
      "ĠÐºÐ¾Ð¼Ð°Ð½Ð´Ðµ": 4830,
      "ĠÐµÐ²ÑĢÐµ": 4831,
      "ĠÑĩÐ¸ÑģÑĤ": 4832,
      "ĠÑįÐºÑģÐ¿ÐµÑĢÐ¸Ð¼": 4833,
      "ĠÐ²Ð¾Ð·Ð¼Ð¾Ð¶Ð½Ð¾": 4834,
      "ĠÐĳÐµÐ½": 4835,
      "ĠÐĿÐ°Ñĩ": 4836,
      "ĠÐ½Ð°Ð¿ÑĢÐ°Ð²Ð»ÐµÐ½": 4837,
      "ÐµÐ½ÑĮÑĪ": 4838,
      "ĠÑįÐºÐ¸Ð¿Ð°Ð¶": 4839,
      "ĠÑĢÐ°Ð·Ð³": 4840,
      "ĠÐŀÐ´Ð¸Ð½": 4841,
      "ĠÐ¢ÑĢÐ¾": 4842,
      "ÐµÐ·Ð´Ðµ": 4843,
      "ĠÑįÑĦÑĦÐµÐºÑĤÐ¸Ð²": 4844,
      "ĠÑĤÑĥÑĢÐµÑĨ": 4845,
      "ĠÐµÐ¿Ð°ÑĢÑħ": 4846,
      "Ġ500": 4847,
      "Ð¾ÐºÐ¾": 4848,
      "ĠÐĴÑģÐºÐ¾ÑĢÐµ": 4849,
      "ĠÐ¿ÑĢÐ°Ð²Ð»ÐµÐ½Ð¸Ñı": 4850,
      "ĠÑĨÐµÐ»Ð¾Ð¼": 4851,
      "ĠÑģÐµÐ»ÑĮÑģÐ¾Ð²ÐµÑĤ": 4852,
      "ĠÐ´Ð¾ÐºÐ°Ð·": 4853,
      "Ġ1985": 4854,
      "ĠÐ¼Ð½Ð¾Ð¶ÐµÑģÑĤÐ²Ð¾": 4855,
      "ĠÐĿÐ°Ð·Ð²": 4856,
      "ÑİÐ½": 4857,
      "ĠÐ²Ð¾ÑģÑĮ": 4858,
      "ĠÐ³Ð¾ÑģÑĤ": 4859,
      "Ġ1926": 4860,
      "ĠÐ²ÑĭÐ±Ð¾ÑĢÐ°Ñħ": 4861,
      "Ð¾Ð²Ð°Ð½Ð¾": 4862,
      "ĠÐ½Ð°Ð¿Ð¸ÑģÐ°Ð»": 4863,
      "ĠÐ·Ð°Ð¼ÑĥÐ¶": 4864,
      "Ð°Ð´ÐµÐ½Ð¸Ñı": 4865,
      "ĠÐ²ÑĢÑĥÑĩ": 4866,
      "ĠÑģÐ´": 4867,
      "ÑĨÐ¸Ð¾Ð½Ð½ÑĭÐ¹": 4868,
      "ĠÐ¾ÑĢÐ¸Ð³Ð¸Ð½": 4869,
      "ĠÑĢÐ°ÐºÐµÑĤ": 4870,
      "ĠÐ¼ÑıÑĩ": 4871,
      "ĠÐ´Ð¸Ð½": 4872,
      "ÐµÑĢÐ°ÑĤÐ¸Ð²": 4873,
      "ĠÐ¡Ñĥ": 4874,
      "ĠÐ¡Ð°Ð²": 4875,
      "ĠÐľÐ°ÑĢÐº": 4876,
      "ÑģÑĤÐµÑĢ": 4877,
      "ĠÐ£Ð¼ÐµÑĢ": 4878,
      "ĠÐ°Ð¼ÐµÑĢÐ¸ÐºÐ°Ð½ÑģÐºÐ¸Ð¹": 4879,
      "ÑĢÐ¾ÑģÐ»Ð°Ð²": 4880,
      "ĠÐ¾Ð³ÑĢÐ¾Ð¼": 4881,
      "ĠÐºÐ²Ð°Ð»Ð¸ÑĦ": 4882,
      "ĠÐ²Ð¾ÑģÑĤÐ¾ÐºÑĥ": 4883,
      "ĠÑĥÐ´Ð°Ð»": 4884,
      "Ð¸ÑĤÐ¾Ð²": 4885,
      "op": 4886,
      "ĠÐ¿ÑĢÐ¾ÑģÑĤÐ¾": 4887,
      "Ð¾ÑĢÐ¾ÑĤÐ°": 4888,
      "ĠÑģÐ¼ÐµÑĢÑĤ": 4889,
      "Ð¾ÑĤÑĢÐµÐ±": 4890,
      "ĠÐ½Ð°Ð·Ð²Ð°Ð½Ð¸Ñı": 4891,
      "ĠÑĢÐµÐ¶Ð¸ÑģÑģÑĳÑĢ": 4892,
      "ĠÐ±ÑĥÐ´ÑĥÑĤ": 4893,
      "ĠÑģÑĥÐ´Ð°": 4894,
      "ĠÐĿÐ¾Ð²Ð³Ð¾ÑĢÐ¾Ð´": 4895,
      "ĠÐĳÐ»Ð°Ð³": 4896,
      "ÐµÐ½ÑĤÐµ": 4897,
      "ĠÐ¢Ð°": 4898,
      "ĠÑĤÐµÑĢÐ¼Ð¸Ð½": 4899,
      "ĠÐ´ÑĢÐ°Ð¼Ð°ÑĤ": 4900,
      "ÐµÐ½Ð¸Ð»": 4901,
      "ĠÑģÐµÑĢÐ´": 4902,
      "ĠÐºÐ¾ÑĢÑĢÐµ": 4903,
      "ĠÐ±Ð¸Ð·Ð½ÐµÑģ": 4904,
      "ĠÐłÐ¾ÑģÑģÐ¸Ñı": 4905,
      "ĠÐ¯Ð¿Ð¾Ð½Ð¸Ð¸": 4906,
      "ĠÐ±Ð¸Ð±Ð»Ð¸Ð¾ÑĤÐµÐº": 4907,
      "ĠÑĢÐ°ÑģÐ¿Ð¾Ð»Ð¾Ð¶ÐµÐ½Ð°": 4908,
      "ĠÐĺÐ·Ð²ÐµÑģÑĤ": 4909,
      "ĠÐ°ÑįÑĢÐ¾Ð¿": 4910,
      "ĠÐĵÑĥ": 4911,
      "ĠÐĹÐ°ÑģÐ»ÑĥÐ¶ÐµÐ½Ð½ÑĭÐ¹": 4912,
      "ĠÑįÐ»ÐµÐºÑĤÑĢÐ¾Ð½": 4913,
      "ĠÐĴÐ»Ð°Ð´Ð¸Ð¼Ð¸ÑĢÐ°": 4914,
      "ĠÐºÐ¾Ð¼Ð¿ÑĮÑİÑĤ": 4915,
      "ÐºÑĥÑĤ": 4916,
      "ĠÑģÑĬÑĳÐ¼": 4917,
      "Ġ]": 4918,
      "ĠÐ¼ÐµÑģÑıÑĨÐµÐ²": 4919,
      "Ġ38": 4920,
      "Ð¸ÑĢÐ¾Ð²Ð°Ð»Ð°": 4921,
      "ĠÐ½Ð°ÑĥÑĩÐ½ÑĭÑħ": 4922,
      "ÑĩÐ°Ñģ": 4923,
      "ĠÐ¾ÑħÑĢÐ°Ð½": 4924,
      "ĠÐ¿Ð¾ÑģÐµÑī": 4925,
      "ĠÐ¿Ð¾Ð·Ð´Ð½ÐµÐµ": 4926,
      "ÐĲÐŀ": 4927,
      "ĠÐ¿ÐµÑĢÐµÐ²ÐµÐ´": 4928,
      "ĠÑĥÑĩÐ°ÑģÑĤÐ½Ð¸ÐºÐ¾Ð²": 4929,
      "ĠÐļÐ¸ÑĤ": 4930,
      "ÑĪÐ¸Ð±": 4931,
      "ĠÐ¼ÑĥÐ»ÑĮÑĤ": 4932,
      "ÐĲÐĿ": 4933,
      "ĠÐºÐ¾Ð½ÑĦÐµÑĢÐµÐ½": 4934,
      "ĠÐ¾Ð´ÐµÑĢÐ¶": 4935,
      "ĠÐļÑĥ": 4936,
      "Ð²ÐµÐ¹ÑĨ": 4937,
      "Ġ[": 4938,
      "ĠÐºÐ¾Ð´": 4939,
      "ĠÐ¿ÑĥÑĤÐµÑĪ": 4940,
      "Ġ1948": 4941,
      "ĠÐĶÐ¶Ð¾ÑĢÐ´Ð¶": 4942,
      "ĠÑģÑĤÐ¾ÑĢÐ¾Ð½Ñĥ": 4943,
      "Ð¾Ð²Ð¾Ð¼": 4944,
      "ĠÐºÐ¾Ð½ÑĤÑĢÐ¾Ð»": 4945,
      "ĠÐĺÑģÑĤÐ¾ÑĢÐ¸Ñı": 4946,
      "ĠÐ·Ð°Ð¿Ð°Ñģ": 4947,
      "ĠÑĥÑĢÐ¾Ð²Ð½ÐµÐ¼": 4948,
      "ĠÐ¿ÐµÑĩÐ°ÑĤ": 4949,
      "ie": 4950,
      "ÐµÐ½ÑĮÑİ": 4951,
      "ĠÐĵÑĢÐ°": 4952,
      "ĠÑģÐ½Ð¸Ð¼": 4953,
      "ÑĥÑĩÑĪ": 4954,
      "ĠÐ²ÑģÑı": 4955,
      "Ð½Ð°Ð²": 4956,
      "ĠÐ²Ð»Ð°ÑģÑĤÑĮ": 4957,
      "ĠÐĲÐ½Ð°ÑĤ": 4958,
      "Ð»ÐµÐ²": 4959,
      "ĠÐ¾ÑģÐ²Ð¾Ð±Ð¾Ð¶Ð´": 4960,
      "Ð½Ð¸ÐºÑĥ": 4961,
      "ĠÑģÑĩÐ¸ÑĤÐ°ÐµÑĤÑģÑı": 4962,
      "ĠÐ´Ð°Ð»ÑĮÐ½ÐµÐ¹ÑĪÐµÐ¼": 4963,
      "Ð¸Ð²ÑĪÐ¸ÑģÑĮ": 4964,
      "ĠÐĲÐ·Ð¸Ð¸": 4965,
      "ĠÐ¢Ð¾Ð»": 4966,
      "ĠÐ¾ÑĢÐº": 4967,
      "ĠÑĥÐ»Ð¸ÑĨ": 4968,
      "Ġ1959": 4969,
      "ĠÐ±Ð¾ÑıÑħ": 4970,
      "ĠÐ¸ÑģÑģÐ»ÐµÐ´Ð¾Ð²Ð°Ð½Ð¸Ð¹": 4971,
      "ÑģÑĥÑĢ": 4972,
      "Ð¸ÑĤÐµÐ»ÑĮÐ½Ð°Ñı": 4973,
      "ĠÐ¸Ð¼ÐµÐ»Ð¸": 4974,
      "Ġ1963": 4975,
      "ĠÑİÑĢÐ¸Ð´": 4976,
      "ĠÐ¾ÑĤÐ½Ð¾ÑĪÐµÐ½Ð¸Ð¸": 4977,
      "ĠÐ¿ÑĢÐ¾ÑĢ": 4978,
      "ĠÑģÐµÐ»ÑĮÑģÐºÐ¾ÑħÐ¾Ð·ÑıÐ¹ÑģÑĤÐ²ÐµÐ½": 4979,
      "ĠÐ·Ð°ÑģÐ»ÑĥÐ³Ð¸": 4980,
      "ĠÑģÐ»ÑĥÑĩÐ°Ð¹": 4981,
      "ĠÐ¶ÑĥÑĢÐ½Ð°Ð»Ð°": 4982,
      "ĠÐŁÐ°Ð²Ð»Ð¾Ð²": 4983,
      "ĠÐ°Ð²ÑĤÐ¾Ð±": 4984,
      "ĠÐ·Ð°Ð¿Ð°Ð´Ð½Ð¾Ð¹": 4985,
      "ĠÐ½ÐµÐ¾Ð´Ð½": 4986,
      "Ð°ÑĢÐµ": 4987,
      "ĠÐ°ÑĢÑĤÐ¸ÑģÑĤ": 4988,
      "ĠÐļÑĢÐ¸ÑģÑĤ": 4989,
      "ĠÐ¿ÐµÑĢÐµÐº": 4990,
      "ĠÐºÐ¾Ð½ÑģÐµÑĢÐ²": 4991,
      "ĠY": 4992,
      "ĠÐĶÐ°Ð½": 4993,
      "ĠÐ¡ÐµÐ²": 4994,
      "ĠÐ¿ÑĮ": 4995,
      "ĠÐķÑĳ": 4996,
      "ÐµÐ»Ðµ": 4997,
      "Ð¾Ð»Ð¾Ð³Ð¸ÑĩÐµÑģÐºÐ¸Ñħ": 4998,
      "ĠÐºÐ½ÑıÐ¶": 4999,
      "Ð°Ð±ÑĢ": 5000,
      "ĠÐ´Ð¾Ð»Ð¶Ð½Ð°": 5001,
      "ĠÐĵÐµÑĢÐ¾Ñı": 5002,
      "ĠÐ¿Ð°ÑĤÑĢÐ¸": 5003,
      "ĠÐ¿ÑĢÐµÐ´Ð¿Ð¾Ð»Ð¾Ð¶": 5004,
      "ĠÑģÑĤÐ¾Ñı": 5005,
      "ĠÐ¥Ð¾Ð»": 5006,
      "ÑĢÐ°ÑĪ": 5007,
      "ow": 5008,
      "ÑĢÐ³": 5009,
      "ĠÐĿÐµÐºÐ¾ÑĤÐ¾ÑĢÑĭÐµ": 5010,
      "ĠÐ¼ÐµÐ¶": 5011,
      "Ð¸Ð²Ð°Ð»Ð¸": 5012,
      "ĠÐ°Ð²ÑĤÐ¾Ð¼Ð°ÑĤ": 5013,
      "ĠÐłÑĥ": 5014,
      "od": 5015,
      "ĠÐ·Ð½Ð°ÑĩÐ¸ÑĤÐµÐ»ÑĮÐ½Ð¾": 5016,
      "ÑįÐº": 5017,
      "ĠÑģÑĤÐ°ÑĤÑĮÐ¸": 5018,
      "ĠÑĤÐµÐ¾ÑĢÐ¸Ð¸": 5019,
      "st": 5020,
      "ĠÐ°Ð½Ð³Ð»Ð¸Ð¹": 5021,
      "Ð»Ð¸ÑĨÐ°": 5022,
      "ĠÑĤÑİÑĢÑĮ": 5023,
      "Ġ1984": 5024,
      "Ð¸ÑģÑĤÑĢ": 5025,
      "Ġ1975": 5026,
      "Ġ+": 5027,
      "ĠÐ¼Ð°ÑĤÑĩÐ°": 5028,
      "ĠÐĺÑģÐ¿Ð°Ð½Ð¸Ð¸": 5029,
      "ĠÐ¿ÑĢÐµÐ´Ð½Ð°Ð·Ð½Ð°Ñĩ": 5030,
      "ÑĭÐ´ÑĥÑī": 5031,
      "ĠÐ¼Ð¾ÑĢÐµ": 5032,
      "ĠÐºÑĥÑĢÑģ": 5033,
      "ĠÐ¿Ð¾ÑģÐ»": 5034,
      "ĠÑħÑĢÐ°Ð¼Ð°": 5035,
      "ĠÐ¾ÑĤÐ´ÐµÐ»Ð°": 5036,
      "Ġ1973": 5037,
      "ĠÐ£ÐºÐ°Ð·Ð¾Ð¼": 5038,
      "Ð»ÐµÐ±": 5039,
      "ĠÐºÐ°Ð¶Ð´ÑĭÐ¹": 5040,
      "ĠÐĶÐ°Ð»ÑĮ": 5041,
      "ĠÐ¼Ð°Ð¹Ð¾ÑĢ": 5042,
      "ĠÐ³ÐµÐ½": 5043,
      "Ð¸Ð¼Ð¾ÑģÑĤÑĮ": 5044,
      "ĠÐ¾ÑĤÐ½Ð¾ÑģÐ¸ÑĤÐµÐ»ÑĮÐ½Ð¾": 5045,
      "ÑĥÐ»ÑĤ": 5046,
      "ĠÐ²ÑģÑİ": 5047,
      "ÑĨÐ¾Ð¼": 5048,
      "ÐµÐºÐ¾": 5049,
      "ĠÐ¼Ð¸Ð½Ð¸ÑģÑĤÑĢ": 5050,
      "ĠÐ¶Ð°Ð½": 5051,
      "ĠÐ»Ð°": 5052,
      "ĠÐ¥Ð¾ÑĤÑı": 5053,
      "ĠÑįÐ¿Ð¸Ð·Ð¾Ð´": 5054,
      "Ð°Ð¼ÐµÑĤ": 5055,
      "ÑİÑīÐ¸Ð¼": 5056,
      "Ð²Ð°Ð»": 5057,
      "ĠÐ¿ÑĢÐµÐ¼ÑĮÐµÑĢ": 5058,
      "ĠÑģÐ²ÑıÑīÐµÐ½": 5059,
      "ĠÐ¿ÑıÑĤÐ¸": 5060,
      "ÐµÑĢÐ°ÑĤÐ¾ÑĢÐ°": 5061,
      "ĠÐ¼ÑĥÐ¶ÑĩÐ¸Ð½": 5062,
      "ĠÐĲÐºÐ°Ð´ÐµÐ¼Ð¸Ð¸": 5063,
      "ĠÐ±Ð°Ð·Ðµ": 5064,
      "ĠÑĢÐµÑĪÐµÐ½Ð¸Ñı": 5065,
      "ĠÐĵÐµÑĢÐ¼Ð°Ð½": 5066,
      "Ð´Ð°Ð¼": 5067,
      "ĠÐµÑģÑĤ": 5068,
      "ĠÐ¿Ð°Ð¿": 5069,
      "ec": 5070,
      "Ð¾Ð²Ð°Ð½Ð¸Ñİ": 5071,
      "ÐµÐ¼Ð¾ÑĢÐ¸": 5072,
      "ĠÐ¿ÑĢÐµÐ´Ð»Ð°Ð³": 5073,
      "ĠÑģÐ¾Ð±Ð¸ÑĢÐ°": 5074,
      "ĠÑĤÑĢÐµÐ½": 5075,
      "Ð¸Ð¼Ð¾ÑģÑĤÐ¸": 5076,
      "ĠÐ¿Ð¾ÑģÐµÑĤ": 5077,
      "ÑĩÐ°ÑģÑĤ": 5078,
      "Ġ1966": 5079,
      "ĠÐºÐ¾Ð»ÑħÐ¾Ð·": 5080,
      "ĠÐ¿ÐµÑĢÐ¸Ð¾Ð´Ð°": 5081,
      "ĠÐĹÐ´ÐµÑģÑĮ": 5082,
      "Ð¸ÑıÐ¼": 5083,
      "ĠÐ»Ð¸Ðº": 5084,
      "ĠÑĢÐ°Ð´": 5085,
      "ÐµÐ³Ð¾Ð´Ð½Ñı": 5086,
      "ĠÐ·Ð°Ð¿Ð°Ð´Ñĥ": 5087,
      "ÑĩÐµÐ½ÐºÐ¾": 5088,
      "ĠÐ±ÑĢÐ¸Ð³Ð°Ð´Ñĭ": 5089,
      "ĠÐļÑĢÐ°ÑģÐ½Ð¾Ð³Ð¾": 5090,
      "Ð¸ÑĨÐ¸Ñİ": 5091,
      "ĠÐ»ÐµÐº": 5092,
      "ĠÐ¸Ð·Ð´Ð°ÑĤÐµÐ»ÑĮ": 5093,
      "ĠÐ»Ð¸Ð³Ðµ": 5094,
      "ĠÑģÐ²Ð¾Ð¸Ð¼Ð¸": 5095,
      "ĠÑĢÐµÐ¶Ð¸Ð¼": 5096,
      "ĠÐ»Ð¾Ð´": 5097,
      "ĠÑĪÑĤÐ°ÑĤÐ°": 5098,
      "ĠÐ½Ð°ÑģÐµÐ»ÑĳÐ½Ð½ÑĭÑħ": 5099,
      "ĠÐĶÑĢÑĥÐ³": 5100,
      "ĠÑĥÐ³Ð»": 5101,
      "11": 5102,
      "ĠÐ¿Ð¾Ð·Ð²Ð¾Ð»ÑıÐµÑĤ": 5103,
      "ÑģÑĤÐ²ÐµÐ½Ð½Ð¾Ð¹": 5104,
      "ĠÐ²ÑĭÐ¿Ð¾Ð»Ð½Ñı": 5105,
      "Ð°Ð¼Ð¿": 5106,
      "ĠÐĶÐµÑĤ": 5107,
      "ĠÐ´ÐµÐ»Ð¾": 5108,
      "ĠÐĺÐ¾Ð°Ð½": 5109,
      "ĠÐ±Ð¾Ð»ÑĮÑĪÐ¾Ðµ": 5110,
      "ĠÑģÐµÐ¼ÑĮ": 5111,
      "Ð°Ð½Ð¾Ð²Ð°": 5112,
      "Ð¸Ð³Ð½": 5113,
      "ÐµÐ½Ð½Ð¾ÑģÑĤÑĮ": 5114,
      "ĠÑĥÐ»ÑĥÑĩÑĪ": 5115,
      "ĠÐ´Ð²Ð¸Ð¶ÐµÐ½Ð¸Ðµ": 5116,
      "ĠÐĴÐ¾Ð¹": 5117,
      "Ð¼Ð¾ÑĤÑĢ": 5118,
      "ĠÐ¿ÑĢÐ¸ÑģÐ²Ð¾ÐµÐ½Ð¾": 5119,
      "ĠÐ¿ÑĢÐ¸Ðµ": 5120,
      "ĠÐ¿ÑĢÐµÐ´ÑģÑĤÐ°Ð²Ð¸ÑĤÐµÐ»ÐµÐ¹": 5121,
      "ĠÑģÐ°Ð½": 5122,
      "Ð½Ð¾Ð·": 5123,
      "Ð¾ÐºÐµ": 5124,
      "ÑĥÐ¼Ð°Ð½": 5125,
      "ĠÐ³Ð¸Ð±": 5126,
      "ĠÐ´Ð¾Ð²Ð¾Ð»ÑĮ": 5127,
      "Ð¾Ð²ÐºÐ°": 5128,
      "ĠÐ¨Ð°ÑĢ": 5129,
      "ĠÐ±Ð¾ÑĢÑĮÐ±Ðµ": 5130,
      "Ġ1956": 5131,
      "Ð¸ÑĢÐ¾Ð²ÐºÐ¸": 5132,
      "Ġ1982": 5133,
      "ĠÐ¶ÐµÐ½Ð°": 5134,
      "ul": 5135,
      "ĠÑģÑĤÑĢÐ°ÑĤ": 5136,
      "ĠÐ»ÑİÐ´": 5137,
      "ĠÐ±Ð¾Ðº": 5138,
      "ĠÐ¿Ð¾Ð»Ñı": 5139,
      "ĠÐ·Ð°Ð½Ð¸Ð¼Ð°Ð»ÑģÑı": 5140,
      "Ġ1968": 5141,
      "ĠÐĲÐ²ÑģÑĤÑĢÐ°Ð»": 5142,
      "ĠÐ½Ð¸Ð¼Ð¸": 5143,
      "ĠÑįÐ»ÐµÐºÑĤÑĢ": 5144,
      "Ð¾ÑĩÐ½ÑĭÐµ": 5145,
      "ÑĥÐ»ÑĮÐ¼Ð°Ð½": 5146,
      "ĠÑģÐ»ÐµÐ´ÑĥÐµÑĤ": 5147,
      "ĠÑģÐ½Ð¸": 5148,
      "Ġ1936": 5149,
      "ĠÐ²Ð¸Ð´Ð°": 5150,
      "ĠÑĩÐ¸ÑģÐ»Ð°": 5151,
      "ĠÑĤÐ¾ÑĩÐºÐ¸": 5152,
      "ĠÐ±ÐµÐ´": 5153,
      "ĠÐ³Ð²Ð°ÑĢÐ´Ð¸Ð¸": 5154,
      "ĠÐ¸Ð½ÑģÑĤÑĢÑĥÐ¼ÐµÐ½ÑĤ": 5155,
      "ĠÑģÐ½Ð°ÑĩÐ°Ð»Ð°": 5156,
      "ĠÐ¿Ð¾Ð¼Ð¾ÑīÑĮ": 5157,
      "ÑĢÐµÑĤÐ°": 5158,
      "ĠÑĤÑĢÐ°ÐºÑĤ": 5159,
      "Ð¸Ð½Ð³Ð°": 5160,
      "ĠÐ¼ÑĥÐ·ÐµÑı": 5161,
      "ĠÐĽÐ¸": 5162,
      "Ġ37": 5163,
      "ĠÐ³ÐµÑĢÐ¾": 5164,
      "ĠÐ¿Ð¾Ð´Ð°Ð²": 5165,
      "ĠÐ²Ð¾ÑģÑĤÐ¾ÑĩÐ½Ð¾Ð¹": 5166,
      "ĠÐ²ÐµÑĢÑĤ": 5167,
      "ĠÐ¾ÑĤÐ´ÐµÐ»ÐµÐ½Ð¸Ñı": 5168,
      "ĠÐ¿Ð¾Ð»Ð¾Ð²Ð¸Ð½Ðµ": 5169,
      "Ġ300": 5170,
      "ĠÐłÐ¸Ñĩ": 5171,
      "ÐµÑĢÐµÐ¹": 5172,
      "ĠÐĳÑĢÐ¸ÑĤ": 5173,
      "ĠÐ³Ð¾Ð²Ð¾ÑĢÐ¸ÑĤ": 5174,
      "Ġ1954": 5175,
      "ĠÐ¿ÑĢÐ°Ð²Ð¸Ð»": 5176,
      "Ġ1972": 5177,
      "Ġ1979": 5178,
      "ĠÐ¿ÑĢÐµÐ´ÑĭÐ´ÑĥÑī": 5179,
      "ĠÐ¸Ð½ÑĤÐµÑĢÐ²": 5180,
      "Ġ1976": 5181,
      "ĠÐ®Ð¶Ð½Ð¾Ð¹": 5182,
      "ĠÑĩÐµÑĢÑĤ": 5183,
      "ÑģÑĥÐ¶Ð´": 5184,
      "ĠÐ·Ð°ÑģÑĤÐ°Ð²": 5185,
      "ÑĥÐ·Ð°": 5186,
      "Ð¾Ð½Ð¸": 5187,
      "ĠÐ¼Ð°ÐºÑģÐ¸Ð¼": 5188,
      "ĠÐĶÐ¸": 5189,
      "ĠÐĴÑħÐ¾Ð´Ð¸ÑĤ": 5190,
      "ĠÑģÑĢÐµÐ´ÑģÑĤÐ²Ð°": 5191,
      "ĠÐ·Ð°ÑīÐ¸ÑĤÑĭ": 5192,
      "ĠÐ½Ð°Ð¼": 5193,
      "ĠÐ²ÐµÑĢÑĪ": 5194,
      "ĠXVII": 5195,
      "Ġ1958": 5196,
      "ĠÐ²Ð½ÐµÑģ": 5197,
      "ĠÐºÐ»ÑİÑĩ": 5198,
      "ĠÐĲÐ´Ð¼Ð¸Ð½Ð¸ÑģÑĤÑĢÐ°ÑĤÐ¸Ð²": 5199,
      "ĠÐ·ÐµÐ¼ÐµÐ»ÑĮ": 5200,
      "Ð½Ð°ÐºÐ¾Ð¼": 5201,
      "ĠÐ½Ð¸Ð¶Ðµ": 5202,
      "ĠÐ¿ÑĢÐ¾Ð¸Ð·Ð²Ð¾Ð´ÑģÑĤÐ²Ð¾": 5203,
      "ÐĴÐ¡": 5204,
      "ÑĭÐ²Ð°Ñı": 5205,
      "ĠÐ´ÑĢÑĥÐ³Ð¸Ð¼": 5206,
      "ÐµÐ½Ð¸ÑıÐ¼": 5207,
      "Ð»ÑıÐµÐ¼": 5208,
      "em": 5209,
      "ÑĢÐ¾Ð¿Ð¾Ð»Ð¸ÑĤ": 5210,
      "ĠÐĹÐ°Ð½": 5211,
      "ĠÐŁÑĢÐ¾ÑĦÐ¸Ð»ÑĮ": 5212,
      "ĠÐ»Ð¸ÑģÑĤ": 5213,
      "Ð³ÐµÐ»ÑĮ": 5214,
      "ĠÐ¿ÑĢÐ¸Ð½Ð¸Ð¼Ð°Ð»": 5215,
      "ÑĮÑıÐ¼Ð¸": 5216,
      "ĠÐ´Ð¸Ð·": 5217,
      "ÐµÐºÐ¾Ð¼": 5218,
      "ĠÐ²Ð¾Ð¹ÑģÐºÐ°Ð¼Ð¸": 5219,
      "ĠÐºÐ¾Ð½ÑĤÑĢÐ¾Ð»ÑĮ": 5220,
      "ĠÐ¿ÐµÑĢÐ²Ð°Ñı": 5221,
      "Ġ1957": 5222,
      "ĠÐĴÐ°ÑģÐ¸Ð»Ð¸Ð¹": 5223,
      "ĠÑģÐ½Ñı": 5224,
      "ÑĢÐ¾Ð½Ð¾Ð¼": 5225,
      "Ð¾ÐºÑĢÐ°ÑĤÐ½Ð¾": 5226,
      "ĠÐŃÐ¹": 5227,
      "ĠÑĢÑĥÑģÑģÐºÐ¾Ð¹": 5228,
      "ĠÑĢÐµÐºÐ¾ÑĢÐ´": 5229,
      "ĠÐ°ÑĢÑħÐµ": 5230,
      "ĠÑģÐ»Ð°Ð±": 5231,
      "ĠÐ¾ÑĪÐ¸Ð±": 5232,
      "ĠÐĽÐ¸Ð²": 5233,
      "Ð½Ð¸ÐºÐ°Ð¼": 5234,
      "ÑĨÐ¸Ð°Ð»Ð¸Ð·": 5235,
      "ĠÐ¢ÑĢÑĥÐ´Ð°": 5236,
      "ĠÐ·Ð´Ð¾ÑĢÐ¾Ð²": 5237,
      "ĠÐĿÐ¸ÐºÐ¾Ð»Ð°Ñı": 5238,
      "og": 5239,
      "Ġ1935": 5240,
      "ĠÐ´Ð¾ÑĩÐµÑĢÐ¸": 5241,
      "ĠÐ³Ð¾ÑĢÐ¾Ð´Ð¾Ð²": 5242,
      "ĠÐ¿Ð¾Ð½ÑıÑĤ": 5243,
      "ĠÐ¡Ð¸Ð»": 5244,
      "ĠÐĶÐ¾Ð»": 5245,
      "ĠÐ°ÑĢÐ¼Ð¸Ñı": 5246,
      "ĠÑĢÐ°Ð±Ð¾ÑĤÐ°ÐµÑĤ": 5247,
      "ĠÐ°ÑĢÐ¼ÑıÐ½": 5248,
      "ĠÐ¼ÑĭÑģ": 5249,
      "ĠÐĿÐ°ÑħÐ¾Ð´": 5250,
      "ÑĢÐ¾Ð²Ð°": 5251,
      "ÑĢÑıÐ´Ð°": 5252,
      "ĠÐ²Ð·ÑĢÑĭÐ²": 5253,
      "ĠÐ§Ð°ÑģÑĤ": 5254,
      "ĠÑģÐ»ÐµÐ´ÑĥÑİÑīÐ¸Ðµ": 5255,
      "ĠÑĢÑĥÑģÑģÐºÐ¾Ð³Ð¾": 5256,
      "ĠÐ·ÑĢÐµÐ½Ð¸Ñı": 5257,
      "Ġ1974": 5258,
      "ĠÑįÑĤÐ½": 5259,
      "ĠÐĿÐ°Ð¿ÑĢ": 5260,
      "ĠÐ£Ð½Ð¸Ð²ÐµÑĢÑģÐ¸ÑĤ": 5261,
      "Ð¸ÑĢÐ¾Ð²Ð°Ð½Ð¾": 5262,
      "ĠÐ¾Ð±ÑĬÑĳÐ¼": 5263,
      "Ð½Ð°Ð±": 5264,
      "ĠÐĶÐ°": 5265,
      "ĠÐŁÐ°ÑĢÐ°": 5266,
      "ĠÐ¼Ð¸Ð½Ð¸Ð¼": 5267,
      "ĠÐ¿Ð¾Ð´Ð¿Ð¸ÑģÐ°Ð»": 5268,
      "ĠÐŁÐµÑĢÐµÐ´": 5269,
      "Ð°Ð»Ð¸Ð·Ð°ÑĨÐ¸Ð¸": 5270,
      "ĠÑıÐ·ÑĭÐºÐ¾Ð²": 5271,
      "ĠÑĢÑĥÐ±Ð»ÐµÐ¹": 5272,
      "ĠÑĤÑĢÑĥÐ´Ð°": 5273,
      "ĠÐ°ÑģÑģÐ¾ÑĨÐ¸": 5274,
      "ĠÐ¿ÑĢÐ¾Ð´ÑĥÐº": 5275,
      "ĠÑģÐ¾ÑĩÐ¸Ð½": 5276,
      "ĠÑĦÐ°Ð¼": 5277,
      "ĠÑģÐ°Ð¼Ð¾Ð¼": 5278,
      "ĠÐ°Ð¿Ð¿Ð°ÑĢÐ°ÑĤ": 5279,
      "ĠÐ´Ð¸Ð²Ð¸Ð·Ð¸Ð¾Ð½": 5280,
      "ĠÐºÐ½Ð¸Ð³Ðµ": 5281,
      "ĠÐ¡Ð»Ð¾Ð²": 5282,
      "ĠÐ¦Ðļ": 5283,
      "ĠÐ¿Ð¾ÑģÑĳÐ»ÐºÐ°": 5284,
      "ĠÐ¯Ð²Ð»Ñı": 5285,
      "ĠÐ¸Ð·Ð±Ð¸ÑĢÐ°ÑĤ": 5286,
      "ĠÐ»ÑĮ": 5287,
      "20": 5288,
      "ĠÐ½Ð°Ð¿ÑĢÑı": 5289,
      "ĠÑĥÐ¼ÐµÐ½ÑĮÑĪ": 5290,
      "ÐµÐµÐ²Ð¸Ñĩ": 5291,
      "ĠÐ¾ÑģÐ°Ð´": 5292,
      "ĠÐĴÐµÐ½Ð³": 5293,
      "ĠÐ²Ð·ÑıÑĤ": 5294,
      "ĠÐ¾ÐºÐµ": 5295,
      "Ð°ÑħÐ°": 5296,
      "ĠÑĢÐ°Ð±Ð¾ÑĤÐ°": 5297,
      "ĠÑĤÐµÐ°ÑĤÑĢÐ°Ð»ÑĮ": 5298,
      "ĠÐ·Ð½Ð°Ð¼ÐµÐ½Ð¸ÑĤ": 5299,
      "ĠÐŃÐ»ÑĮ": 5300,
      "ĠÐŀÐºÐ¾Ð½ÑĩÐ¸Ð»": 5301,
      "ĠÑįÐºÑģÐ¿Ð»ÑĥÐ°ÑĤÐ°": 5302,
      "Ġ1978": 5303,
      "ĠÐ¾ÑĤÐ¿": 5304,
      "ĠÑĦÐµÑĢ": 5305,
      "ĠÑģÐµÐ»ÑĮÑģÐºÐ¾Ðµ": 5306,
      "ĠÑģÐµÑģÑĤ": 5307,
      "ÐºÑĤÐ¾ÑĢÐ°": 5308,
      "Ð´Ñı": 5309,
      "Ġ177": 5310,
      "ĠÐĲÑĢÐ¼Ð¸Ð¸": 5311,
      "ÐµÑģÑĤÐ²Ñĥ": 5312,
      "ĠÐ¾ÑĢÐ³Ð°Ð½Ð¸Ð·Ð°ÑĨÐ¸Ñı": 5313,
      "Ð°Ð²ÑĢ": 5314,
      "ÐºÐ¾Ð²ÑģÐºÐ¸Ð¹": 5315,
      "Ð±Ð¾": 5316,
      "ĠÐ»ÑĥÑĩÑĪÐ¸Ñħ": 5317,
      "ĠÐĶÐ¼Ð¸ÑĤÑĢÐ¸Ð¹": 5318,
      "ĠÐ²ÑĤÐ¾ÑĢÐ¾Ð¼": 5319,
      "ĠÐ¼ÐµÑĢÐµ": 5320,
      "ĠÑģÑĤÐ°Ð½Ð´Ð°ÑĢÑĤ": 5321,
      "ĠÐºÐ¾Ð¼Ð¸ÑģÑģÐ¸Ð¸": 5322,
      "ĠÐĲÑģÑĤ": 5323,
      "ĠÐ¯ÑĢÐ¾ÑģÐ»Ð°Ð²": 5324,
      "Ġ1981": 5325,
      "ĠÑģÐ¸ÑģÑĤÐµÐ¼Ðµ": 5326,
      "ĠÑĢÐµÐ¹ÑĤ": 5327,
      "ĠÐ°Ð²ÑĤÐ¾Ð½Ð¾Ð¼": 5328,
      "ĠÑģÑĥÑīÐµÑģÑĤÐ²ÑĥÐµÑĤ": 5329,
      "Ð¸ÑĨÐ¸Ð¹": 5330,
      "ĠÑģÐ»ÐµÐ´ÑĥÑİÑīÐ¸Ð¹": 5331,
      "ĠÐŁÐµÑĤÐµÑĢÐ±ÑĥÑĢÐ³Ðµ": 5332,
      "Ð°ÑĤÐ¾ÑĢÐ¾Ð¼": 5333,
      "ĠÐ¤Ð¸Ð»": 5334,
      "ĠÑĥÐ²Ð¸Ð´": 5335,
      "ĠÑģÑĤÐ¾ÑĢÐ¾Ð½Ðµ": 5336,
      "ĠÐ»Ð¸ÑĤÐµÑĢÐ°ÑĤÑĥÑĢÑĭ": 5337,
      "ĠÐ´ÐµÐ¿ÑĥÑĤÐ°ÑĤÐ¾Ð²": 5338,
      "Ġ1962": 5339,
      "ĠÑĤÐ¾Ð¹": 5340,
      "Ġ1921": 5341,
      "ĠÐĶÐ°Ð»": 5342,
      "ĠÐ²ÐºÐ»ÑİÑĩÐ°ÐµÑĤ": 5343,
      "ĠÑģÐ¾ÑģÑĤÐ¾ÑıÐ»ÑģÑı": 5344,
      "ers": 5345,
      "ĠÑģÑĤÐ°ÑĢÑĤ": 5346,
      "Ġ1947": 5347,
      "ÑģÐ¾Ð»": 5348,
      "ĠÐ¾ÑĤÐ²ÐµÑĤÑģÑĤÐ²ÐµÐ½": 5349,
      "Ġ1964": 5350,
      "ĠÐ¿ÑĥÑĤÑĮ": 5351,
      "ĠÐ¿ÐµÑĢÐ²Ð¾Ðµ": 5352,
      "ÑİÑīÐµÐ³Ð¾": 5353,
      "ĠÐŀÑģÐ¾Ð±": 5354,
      "Ġ1971": 5355,
      "Ġ1983": 5356,
      "ÐµÑĤÑĥ": 5357,
      "Ð¸Ð½ÑĮ": 5358,
      "ĠÐ¾Ð±ÑģÑĥÐ¶Ð´": 5359,
      "ĠÐľÐ¸Ð½Ð¸ÑģÑĤÐµÑĢÑģÑĤÐ²Ð°": 5360,
      "Ð¾Ð½Ð¸Ðº": 5361,
      "Ð¸Ð²Ð°Ñı": 5362,
      "ĠÐ°ÑĢÑĤÐ¸Ð»Ð»ÐµÑĢ": 5363,
      "ĠÐ¸Ð½Ð¾ÑģÑĤÑĢÐ°Ð½Ð½ÑĭÑħ": 5364,
      "ĠÐĶÐ¶ÐµÐ¹Ð¼": 5365,
      "ĠÐ¿Ð¾Ð»ÐºÐ¾Ð²Ð½Ð¸Ðº": 5366,
      "ĠÐ¦ÐµÑĢÐºÐ¾Ð²": 5367,
      "ÑĢÐµÐ¼Ñı": 5368,
      "ĠÐľÐ°Ð¹Ðº": 5369,
      "ĠÑĢÐµÐ¶Ð¸ÑģÑģÑĳÑĢÐ°": 5370,
      "ĠÐ¸ÑģÑĤÐ¾ÑĢÐ¸Ñİ": 5371,
      "ĠÐ°Ð½Ð³": 5372,
      "ĠÐ±Ð¾Ð»ÑĮÑĪÑĥÑİ": 5373,
      "Ġ1924": 5374,
      "ĠÐ´Ð¸ÑģÑĤÐ°Ð½": 5375,
      "ĠÑģÑĤÑĢÐ°Ð½Ð°Ñħ": 5376,
      "Ð°ÑĤÑĥ": 5377,
      "ĠÐŁÐ°Ð½": 5378,
      "Ð¸Ð½Ð°ÑĨÐ¸Ð¸": 5379,
      "Ð¶ÐµÐ½Ð¸Ðµ": 5380,
      "ĠÐ¸Ð·Ð²ÐµÑģÑĤÐ½ÑĭÐ¹": 5381,
      "ĠÐłÐļ": 5382,
      "ĠÐ²ÑĭÐ²Ð¾Ð´": 5383,
      "ĠÐ¿ÑĥÑĤÑĳÐ¼": 5384,
      "ÑĤÐµÑĢÐ½": 5385,
      "Ð°Ð¼ÑıÑĤÑĮ": 5386,
      "ĠÐ¿ÑĢÐµÐ´ÑģÐµÐ´Ð°ÑĤÐµÐ»Ñı": 5387,
      "ĠÐ¢ÑĢÐ¸": 5388,
      "ĠÐ¡ÑĥÐ¿": 5389,
      "ĠÐºÐ½ÑıÐ·Ñı": 5390,
      "ĠÐ¤Ð¸Ð»Ð¸Ð¿Ð¿": 5391,
      "ĠÐ·Ð°Ð±Ð¾Ð»ÐµÐ²": 5392,
      "Ð»Ð°Ð¹": 5393,
      "ÑĨÐ¸ÑģÑĤ": 5394,
      "ĠÐķÐ²ÑĢÐ¾Ð¿Ðµ": 5395,
      "ĠÐ¸ÑĤÐ¾Ð³Ð°Ð¼": 5396,
      "ĠÐĶÐ¾Ð±": 5397,
      "Ġ1949": 5398,
      "ĠÐ°ÐºÑĤÐ¸Ð²Ð½Ð¾": 5399,
      "ÑĤÐ¾ÑĢÐ¾Ð¼": 5400,
      "ĠÐĶÐ½ÐµÐ¿": 5401,
      "ĠÐŁÑĥÑĤ": 5402,
      "Ð¾Ð±ÑĭÑĩ": 5403,
      "ĠÐ¿ÑĢÐµÑģÐ»ÐµÐ´": 5404,
      "ĠÐ½Ð¾Ð³": 5405,
      "ĠÐľÐ½Ð¾Ð³": 5406,
      "ĠÐŁÐ°ÑĤ": 5407,
      "ĠÐĳÐ°Ð¹": 5408,
      "ĠÑĤÐ¾Ð²Ð°ÑĢÐ¸Ñī": 5409,
      "Ð¸Ð´Ðµ": 5410,
      "ĠÐ²Ð¸ÑĨÐµ": 5411,
      "ĠÑģÐ´ÐµÐ»Ð°ÑĤÑĮ": 5412,
      "Ð½Ð¾ÑģÑĤÑıÑħ": 5413,
      "ĠÐ²ÐµÑĢÐ½ÑĥÑĤÑĮ": 5414,
      "ĠÐ¿ÑĢÐ¾Ð¸ÑģÑħÐ¾Ð¶Ð´ÐµÐ½Ð¸Ñı": 5415,
      "Ġ1961": 5416,
      "ĠÐ¸Ð·Ð³": 5417,
      "Ð³Ð¾Ðµ": 5418,
      "Ð¾ÑĢÑĦ": 5419,
      "ÑĳÐ¹": 5420,
      "ĠÐ·Ð²Ð°Ð½Ð¸Ñı": 5421,
      "ĠÑĦÐ¸ÑĢ": 5422,
      "ĠÐĸÐ°Ð½": 5423,
      "ĠÑįÑģÐºÐ°Ð´": 5424,
      "ĠÐĿÐ¸ÐºÐ¾Ð»Ð°ÐµÐ²": 5425,
      "Ð¸ÐµÐ¿Ð¸ÑģÐºÐ¾Ð¿": 5426,
      "ĠÐ¿ÑĥÐ±": 5427,
      "ĠÐ§Ð°ÑĢ": 5428,
      "ÑĥÐ»ÐµÐ¼": 5429,
      "ĠÐ§ÐµÐ»": 5430,
      "Ġ1967": 5431,
      "ĠÐ°ÑĢÐµÐ½Ð´": 5432,
      "ĠÐ¼ÐµÐ¶Ð´ÑĥÐ½Ð°ÑĢÐ¾Ð´Ð½ÑĭÑħ": 5433,
      "Ġf": 5434,
      "ĠÑģÐ¾Ð»": 5435,
      "ĠÐ±Ð¾ÑĢÑĮÐ±Ñĭ": 5436,
      "ĠÐŁÐ°Ð¼ÑıÑĤ": 5437,
      "Ġ1977": 5438,
      "ĠÐ¿Ð¾ÑģÐ»ÐµÐ´Ð½Ð¸Ð¹": 5439,
      "ĠÐ¿Ð¾Ð´Ð¿": 5440,
      "Ð¾ÑĩÐ½Ð°Ñı": 5441,
      "ĠÐŀÑĤÐº": 5442,
      "ĠÐ¿ÑĥÐ½ÐºÑĤÐ¾Ð²": 5443,
      "ĠÐºÐ³": 5444,
      "ĠÐĲÐ¿": 5445,
      "ÑĨÐ¸Ð¾Ð½Ð½ÑĭÐµ": 5446,
      "ĠÐ»Ð°Ð±Ð¾ÑĢÐ°ÑĤ": 5447,
      "ĠÐĶÐµÑĢÐµÐ²": 5448,
      "ĠÐ¾ÑĤÐ½Ð¾ÑģÑıÑĤ": 5449,
      "ĠÑĢÑĥÑģÑģÐºÐ¸Ñħ": 5450,
      "ĠÐµÐ¶ÐµÐ³Ð¾Ð´": 5451,
      "ĠÐ¿Ð¾Ð»Ð¸ÑĤÐ¸ÑĩÐµÑģÐºÐ¾Ð¹": 5452,
      "ĠÐ¾ÑĨ": 5453,
      "Ð°ÑĤÑĮÑı": 5454,
      "ĠÐŁÐ¾Ð¼Ð¸Ð¼Ð¾": 5455,
      "ĠÐ¾ÑģÐ½Ð¾Ð²Ð½ÑĭÑħ": 5456,
      "ĠÐ£Ð¸Ð»ÑĮÑıÐ¼": 5457,
      "ĠÐºÐ¾ÑĢÐ°Ð±Ð»Ñı": 5458,
      "ĠÐĿÐµÐ¼": 5459,
      "ĠÐ³Ð°Ð·ÐµÑĤÑĭ": 5460,
      "ĠÑĢÐ°ÑģÑģÑĤÐ¾ÑıÐ½Ð¸Ð¸": 5461,
      "ĠÐ²ÑĢÐµÐ¼ÐµÐ½ÐµÐ¼": 5462,
      "ĠÐ¿Ð¾ÑģÑĤÑĢÐ¾ÐµÐ½": 5463,
      "ĠÑģÐ¼ÐµÑĪ": 5464,
      "Ġ1922": 5465,
      "Ð»ÐµÑĢÐ°": 5466,
      "ĠÐŁÐ°ÑĢÐ¸Ð¶": 5467,
      "ĠÐķÐ²ÑĢÐ¾Ð¿ÐµÐ¹": 5468,
      "Ð»ÑĥÑĩ": 5469,
      "ĠÐºÐ°Ð¿Ð¸ÑĤÐ°Ð½": 5470,
      "ÑĳÑģÑĤ": 5471,
      "ĠÐłÐ¾Ð±ÐµÑĢÑĤ": 5472,
      "ĠÑĢÐµÐ·ÐµÑĢÐ²": 5473,
      "ĠÐ²Ð·ÑĢÐ¾Ñģ": 5474,
      "ĠÐ¸Ð³ÑĢÐ¾Ð²": 5475,
      "ĠÐ³ÑĢÐ°Ð½Ð¸ÑĨÑĭ": 5476,
      "ĠÐ°ÑĢÐ°Ð±": 5477,
      "ĠÐŀÐ±ÑĬ": 5478,
      "ĠÐ±Ð¾ÑĢÑĤ": 5479,
      "ĠÐ¼Ð¾Ð½Ð°ÑģÑĤÑĭÑĢÑı": 5480,
      "Ð¾Ð¼Ð½": 5481,
      "Ð¼Ð¾Ñģ": 5482,
      "ĠÑĤÐ¾Ð½Ð½": 5483,
      "Ð½Ð°ÑĩÐ°Ð»ÑĮÐ½Ð¾": 5484,
      "ÑĢÐ¸ÑģÐ°": 5485,
      "ĠÐ¼Ð°ÑĤÑĩÐ°Ñħ": 5486,
      "ĠÐ¡Ð¾ÑĨÐ¸Ð°Ð»Ð¸ÑģÑĤÐ¸ÑĩÐµÑģÐºÐ¾Ð³Ð¾": 5487,
      "ĠÐ·Ð²ÑĳÐ·Ð´": 5488,
      "ĠÐºÐ°Ð»": 5489,
      "ĠÑĢÐ°ÑģÐ¿Ð¾Ð»Ð¾Ð¶ÐµÐ½Ñĭ": 5490,
      "ĠÐ²Ð¾ÐµÐ½Ð½ÑĭÐ¹": 5491,
      "ĠÐ²Ð¾ÑĪÑĳÐ»": 5492,
      "ĠÐļÐ¾Ñģ": 5493,
      "Ð°ÑĤÐµÐ»ÑĮÐ½Ð¾Ð¹": 5494,
      "ĠÐ´ÐµÑģÑı": 5495,
      "ĠÑĢÐµÐºÐ¾Ð½ÑģÑĤ": 5496,
      "ĠÑĥÐ¿ÑĢÐ°Ð²Ð»ÐµÐ½Ð¸Ðµ": 5497,
      "ĠÐ¿ÑĢÐµÐ¸Ð¼ÑĥÑīÐµÑģÑĤÐ²ÐµÐ½Ð½Ð¾": 5498,
      "ĠÑģÐ»ÑĥÑĩÐ°Ñı": 5499,
      "ĠÐ´Ð¾Ð»Ð³": 5500,
      "ĠÐ°ÑĢÑħÐ¸ÑĤÐµÐºÑĤÐ¾ÑĢ": 5501,
      "ĠÐ¿ÑĥÑĪ": 5502,
      "ÐĵÐ£": 5503,
      "ĠÐ¶ÐµÑģÑĤ": 5504,
      "Ð°ÑİÑīÐ°Ñı": 5505,
      "ĠÑģÐ¾ÑģÑĤÐ°Ð²Ð»ÑıÐ»Ð¾": 5506,
      "ĠÐ´Ð¾ÑģÑĤÐ°Ð²": 5507,
      "ĠÑĢÐ¾Ð¼Ð°Ð½": 5508,
      "ĠÐ¾ÑĤÑģÑĤÑĥÐ¿": 5509,
      "ĠÐ¿ÑĢÐµÐ¶Ð´Ðµ": 5510,
      "ĠÐłÐµÐ·": 5511,
      "ĠÐ¡Ð»ÐµÐ´": 5512,
      "ĠÐ¶Ð¸Ð²Ð¾ÑĤÐ½ÑĭÑħ": 5513,
      "ĠÑĥÑĩÐ°ÑģÑĤÐ¾Ðº": 5514,
      "ĠÑģÑĢÐµÐ´Ð½ÐµÐ¹": 5515,
      "ĠÑģÐ¾Ð·Ð´Ð°Ð²": 5516,
      "ÑĳÐ½Ð½Ð¾Ðµ": 5517,
      "Ð²ÐµÐ½": 5518,
      "Ð¸Ð½Ð°Ñħ": 5519,
      "ĠÐ·ÐµÐ¼Ð»Ñı": 5520,
      "ĠÑĩÐ°ÑģÑĤÐµÐ¹": 5521,
      "Ġ1928": 5522,
      "ĠÐ´Ð¶": 5523,
      "ĠÐ¿Ð°ÑĢÑĤÐ¸Ñı": 5524,
      "ĠÐļÐ¾ÑĢÐ¾Ð»ÐµÐ²": 5525,
      "ĠÐ´Ð¾Ð²Ð¾Ð»ÑĮÐ½Ð¾": 5526,
      "ĠÑģÐµÐ²ÐµÑĢÐµ": 5527,
      "ĠÐ¿Ð¸Ñī": 5528,
      "Ġ150": 5529,
      "ĠÐ½Ð°Ð¿ÑĢÐ°Ð²Ð»ÐµÐ½Ð¸Ð¸": 5530,
      "ĠÑģÑĤÑĢÐ°ÑĤÐµÐ³": 5531,
      "Ð½ÐµÐ¼Ñĥ": 5532,
      "ĠÐ¡Ð¾ÑĦ": 5533,
      "ĠÐ®ÑĢÐ¸Ð¹": 5534,
      "ĠÐ§ÐµÐ¼Ð¿Ð¸Ð¾Ð½Ð°ÑĤ": 5535,
      "ĠÑģÐ¾Ð»Ð½": 5536,
      "ÑıÐµÐ¼": 5537,
      "ĠÐ·Ð°Ð½Ð¸Ð¼Ð°Ð»": 5538,
      "ĠÑĢÐ°Ð·Ð±": 5539,
      "ĠÐºÑĢÑĥÐ¿Ð½ÑĭÑħ": 5540,
      "ĠÐ¾Ð±ÑģÐ»ÑĥÐ¶": 5541,
      "ĠÐľÑĥÑħ": 5542,
      "ĠÐ¿Ð¾Ð»Ð¾Ñģ": 5543,
      "ĠÐ£Ð¿ÑĢÐ°Ð²": 5544,
      "ĠÂ°": 5545,
      "ĠÐ¿ÐµÑĢÐµÐ±": 5546,
      "ĠÐ¼ÐµÐ½Ñı": 5547,
      "ĠÐ¤ÐµÑĢ": 5548,
      "ÑĳÑĢÐ¾Ð²": 5549,
      "ĠÐ½Ð°Ð³": 5550,
      "ĠÐ¿ÑĢÐµÐ´Ð¼ÐµÑĤ": 5551,
      "ĠÐĿÐ¸": 5552,
      "ÑĥÐ»Ñĭ": 5553,
      "ĠÑĪÐ²ÐµÐ´": 5554,
      "ĠÐ¿Ð¾ÑĢÐ¾Ð´": 5555,
      "Ð°ÑĢÑģÐºÐ¾Ð³Ð¾": 5556,
      "Ð¸ÑĢÐ°Ð½": 5557,
      "ĠÐºÐ¾Ð¼Ð¸ÑĤÐµÑĤ": 5558,
      "ĠÐ¿Ð°ÑĢÑĤÐ¸Ð·": 5559,
      "ĠÑĢÐµÑģÑĥÑĢ": 5560,
      "ĠÐ»ÑİÐ±Ð¾Ð²": 5561,
      "ĠÐŁÐ¾Ð²": 5562,
      "ĠÑĢÐµÑĪÐ¸Ð»": 5563,
      "ĠÐŀÐ»Ð¸Ð¼Ð¿": 5564,
      "ÐµÐ»ÑĮÐ³": 5565,
      "ĠÐ¿ÑĭÑĤÐ°": 5566,
      "ĠÐ¤ÐµÐ´": 5567,
      "ĠÑģÐ¾Ð·Ð´Ð°Ð½Ð¸Ðµ": 5568,
      "Ð°Ð½Ð¸ÐµÐ¹": 5569,
      "ÑĩÐ°Ð½": 5570,
      "Ġm": 5571,
      "ĠÑģÐ¸Ð»Ñĥ": 5572,
      "ÑĢÐ°ÑĨÐ¸Ñı": 5573,
      "ĠÐ¾ÑĦÐ¸ÑĨÐ¸Ð°Ð»ÑĮÐ½Ð¾": 5574,
      "ĠÐºÐ¾Ð¼Ð°Ð½Ð´Ð¾Ð²Ð°Ð½Ð¸ÐµÐ¼": 5575,
      "ĠÐ¡ÐµÐ»Ð¾": 5576,
      "ĠÑģÐ¿Ð¾ÑģÐ¾Ð±ÑģÑĤÐ²": 5577,
      "ĠÐ½Ð¸ÐºÐ¾Ð³Ð´Ð°": 5578,
      "Ð¾Ð´Ñĥ": 5579,
      "ĠÐ²Ð¾Ð·Ð¼Ð¾Ð¶Ð½Ð¾ÑģÑĤÐ¸": 5580,
      "ĠÐŁÑĢÐ°Ð²Ð¸ÑĤÐµÐ»ÑĮ": 5581,
      "ĠÑİÐ³Ðµ": 5582,
      "ĠÐ¸ÑģÐ¿Ð¾Ð»ÑĮÐ·Ð¾Ð²Ð°Ð½Ð¸Ñı": 5583,
      "ĠÐ¿Ð¾Ð»Ð¾Ð¶ÐµÐ½Ð¸Ðµ": 5584,
      "ĠÐºÐ¾Ð»Ð»ÐµÐºÑĤÐ¸Ð²": 5585,
      "ĠCh": 5586,
      "ĠÐ¾ÑĤÐ±": 5587,
      "ĠÐ¼Ð¾ÑĤÐ¸Ð²": 5588,
      "Ð°ÐµÐ¼ÑĭÑħ": 5589,
      "ĠÐŁÑĢÐ¸Ð½": 5590,
      "Ð°Ð½ÑĤÐ¾Ð²": 5591,
      "ĠÐ³Ð°": 5592,
      "ĠÐ¸ÑģÑĩ": 5593,
      "ĠÐ¼ÑĥÑģÑĥÐ»ÑĮÐ¼Ð°Ð½": 5594,
      "ÑĤÐ°Ð¹": 5595,
      "ĠÐ¥ÑĢÐ¸ÑģÑĤ": 5596,
      "ĠÐ¿ÑĢÐ¾Ð¸Ð·Ð¾ÑĪÐ»Ð¾": 5597,
      "Ð¾Ð·Ð³": 5598,
      "ĠÐŀÐºÑĤÑıÐ±ÑĢÑĮ": 5599,
      "Ð¾ÑģÑģÐ¸Ð¹ÑģÐºÐ¾Ð¹": 5600,
      "ĠÐ³Ð¾ÑģÑĥÐ´Ð°ÑĢÑģÑĤÐ²": 5601,
      "ĠÑĤÐµÑħÐ½Ð¸ÐºÐ¸": 5602,
      "ĠÑĪÑĤÐ°Ð±": 5603,
      "Ð¼ÐµÑĢÑĩÐµÑģÐº": 5604,
      "ĠÐ±ÑĭÐ²ÑĪÐ¸Ð¹": 5605,
      "ĠÐºÐ»Ð¸": 5606,
      "ĠÐ¸Ð¼Ð¿ÐµÑĢÐ°ÑĤÐ¾ÑĢÐ°": 5607,
      "ĠÑģÐ¾Ð²Ð¼ÐµÑģÑĤÐ½Ð¾": 5608,
      "ĠÐ°Ð³ÐµÐ½ÑĤ": 5609,
      "ĠÑģÐµÐºÑĢÐµÑĤÐ°ÑĢÑĮ": 5610,
      "Ð¸Ð´Ñĭ": 5611,
      "Ð¾ÑĢÑģÐºÐ¾Ð³Ð¾": 5612,
      "ĠÐ´Ð»Ð¸Ð½Ð¾Ð¹": 5613,
      "ĠÑĦÐ¾ÑĢÐ¼Ðµ": 5614,
      "ĠÐ²ÑģÑĤÑĥÐ¿Ð¸Ð»": 5615,
      "ĠÐ¼ÑĥÐ½Ð¸ÑĨÐ¸Ð¿Ð°Ð»ÑĮÐ½Ð¾Ð³Ð¾": 5616,
      "ĠÐĴÐµÑģ": 5617,
      "ĠÐĳÐ¸": 5618,
      "ĠÐ½Ð°ÑĢÐ¾Ð´Ð¾Ð²": 5619,
      "ÑĭÐ¿": 5620,
      "Ð¾Ð²Ð°ÑĤÑĮÑģÑı": 5621,
      "ÑĭÐ³": 5622,
      "ĠÐĵÐ¾ÑģÑĥÐ´Ð°ÑĢÑģÑĤÐ²ÐµÐ½Ð½Ð¾Ð¹": 5623,
      "ĠÑģÑĤÐ°ÑĤÐ¸ÑģÑĤ": 5624,
      "ĠÐ½ÐµÑĥÐ´Ð°": 5625,
      "ĠÑģÑĥÐ´ÐµÐ±": 5626,
      "ĠÐ²ÑĭÑģÐºÐ°Ð·": 5627,
      "Ġ1969": 5628,
      "ĠÐ½Ð°ÑĨÐ¸Ð¾Ð½Ð°Ð»ÑĮÐ½Ð¾Ð³Ð¾": 5629,
      "Ġ1934": 5630,
      "ĠÑĢÐ°ÑĥÐ½": 5631,
      "ĠÐ±Ð¾ÑĢ": 5632,
      "ĠÑĦÐ¸Ð³ÑĥÑĢ": 5633,
      "ÑĥÑĢÐµÐ°ÑĤ": 5634,
      "ĠÑĢÐ¾Ð¶Ð´ÐµÐ½Ð¸Ñı": 5635,
      "ĠÐ¿Ð¾ÑģÑĤÑĢÐ¾Ð¹": 5636,
      "Ð¾Ð½ÑĮ": 5637,
      "ÑĥÐ¼Ð±": 5638,
      "ĠÐĲÐ½Ð³": 5639,
      "ĠÐĴÐ°Ð½": 5640,
      "ÑĤÐµÐ½": 5641,
      "Ð¸ÑĢÐ¾Ð²Ð°Ð½Ð½Ð¾Ð¹": 5642,
      "ÑĩÐ¸ÐºÐ°": 5643,
      "Ġ1923": 5644,
      "ĠÐĳÐµÑĢÐ»Ð¸Ð½": 5645,
      "ĠÑĢÐ°ÑģÐ¿ÑĢÐµÐ´ÐµÐ»": 5646,
      "ĠÐ¿Ð¾ÑģÑĢÐµÐ´": 5647,
      "ĠÐ´ÐµÐ»Ð°": 5648,
      "Ð»Ð¾ÑĤÑĮ": 5649,
      "ĠÐľÑį": 5650,
      "ĠÐľÑĥÑĢ": 5651,
      "Ġ1932": 5652,
      "ĠÐ¿ÑĢÐ¾Ð±Ð»ÐµÐ¼Ñĭ": 5653,
      "ĠÐĺÐ½ÑģÑĤÐ¸ÑĤÑĥÑĤ": 5654,
      "ĠÑģÑĥÑĤ": 5655,
      "Ð°ÑĤÐ¾": 5656,
      "ĠÐºÐ¾Ð»Ð»ÐµÐ´": 5657,
      "Ð¸Ð²Ð°ÑİÑĤÑģÑı": 5658,
      "ĠÐ¢ÑĢÑĥÐ´": 5659,
      "Ð¾ÐºÐ¸": 5660,
      "ĠÐ¿Ð¾ÑĩÑĳÑĤ": 5661,
      "Ð¸ÑĤÐµ": 5662,
      "Ð¸ÑĩÐ½ÑĭÐ¹": 5663,
      "ĠÐ¯ÐºÐ¾Ð²": 5664,
      "ĠÐĿÐ°Ð¿ÑĢÐ¸Ð¼ÐµÑĢ": 5665,
      "ĠÐ¼Ð°Ð»ÐµÐ½ÑĮ": 5666,
      "ĠÐ¿Ð¾ÑģÐ»ÐµÐ´Ð½Ð¸Ðµ": 5667,
      "ÑīÐ¸ÐºÐ¾Ð²": 5668,
      "Ð½Ð¸ÑĨÐµÐ¹": 5669,
      "ĠÐ¿Ð¾Ð»ÑĥÑĩÐ¸ÑĤÑĮ": 5670,
      "ĠÑģÑģ": 5671,
      "ĠÐ·Ð°ÐºÐ¾Ð½Ð¾Ð´Ð°ÑĤÐµÐ»ÑĮ": 5672,
      "ĠÐ½Ð°ÑĢÐ¾Ð´Ð°": 5673,
      "ĠÐ¡Ð¼Ð¾Ð»": 5674,
      "Ð»Ð¾Ð³": 5675,
      "Ð°Ð»ÑĮÐ´": 5676,
      "ĠÐ¿ÑĢÐ¸Ð½ÑıÑĤÐ¾": 5677,
      "ÑĢÐ¾ÑĢ": 5678,
      "ĠÑģÑĥÐ¿ÑĢÑĥÐ³": 5679,
      "ÑĤÐ¾ÑĢÐ°Ñı": 5680,
      "ĠÐ¾Ð±Ð¸ÑĤ": 5681,
      "ĠÐ½Ð°ÑĢ": 5682,
      "Ð°ÑĤÐµÐ»ÑĮÐ½ÑĭÑħ": 5683,
      "ĠÐ¼ÐµÑģÑĤÐ½ÑĭÑħ": 5684,
      "ĠÐ¿ÑĢÐµÐ´ÑģÐµÐ´Ð°ÑĤÐµÐ»ÐµÐ¼": 5685,
      "Ð°Ð»ÑĮÐ½ÑĭÐ¼Ð¸": 5686,
      "ĠÐ¸Ð½Ð¸ÑĨÐ¸Ð°ÑĤÐ¸Ð²": 5687,
      "ĠÑĢÐµÑģÐ¿ÑĥÐ±Ð»Ð¸ÐºÐ¸": 5688,
      "ĠÐĿÐ¾Ð²Ð¾Ñģ": 5689,
      "Ð°Ð·Ð°": 5690,
      "ĠÐļÐ²": 5691,
      "ĠÑĤÐ°": 5692,
      "ĠÐ¿ÑĢÐµÐ´ÑģÑĤÐ°Ð²Ð¸ÑĤÐµÐ»ÑĮ": 5693,
      "ĠÑģÐ¾Ð¿ÑĢÐ¾ÑĤÐ¸Ð²": 5694,
      "ub": 5695,
      "ÑģÐ²": 5696,
      "ÑıÑģÐ½Ñı": 5697,
      "ĠÑįÐ¼Ð¸": 5698,
      "ĠÑĤÐµÑĢÑĢÐ¸ÑĤÐ¾ÑĢÐ¸Ñı": 5699,
      "ĠÐ¡ÑĥÑīÐµÑģÑĤÐ²": 5700,
      "ĠÑģÐ²Ð¾ÐµÐ¼Ñĥ": 5701,
      "Ð¼ÐµÐ´": 5702,
      "ĠÐľÑĥ": 5703,
      "ĠÑĥÐ¿Ð¾Ð¼Ð¸Ð½Ð°ÐµÑĤÑģÑı": 5704,
      "ÐµÐ½Ð¸ÑĢÐ¾Ð²": 5705,
      "ĠÐ¸Ð·Ð²ÐµÑģÑĤÐµÐ½": 5706,
      "Ð¸Ð´ÐµÑĢÐ»Ð°Ð½Ð´": 5707,
      "ĠÑĪÐµÑģÑĤÑĮ": 5708,
      "ĠÐĲÑģÑģ": 5709,
      "Ð¸Ð»Ð¾Ð²": 5710,
      "ĠÐłÑĭ": 5711,
      "Ġn": 5712,
      "Ð½Ð°Ð¹": 5713,
      "Ð°ÑĢÑĥÑģ": 5714,
      "ĠÐŁÐ¾ÑĩÑĳÑĤ": 5715,
      "Ð¾ÑĩÑĮ": 5716,
      "Ð²Ð¾ÑģÑĤ": 5717,
      "Ġ1931": 5718,
      "ÑĨÐ¾": 5719,
      "ĠÑģÑĤÐ¸Ð»Ðµ": 5720,
      "ĠÐ¾ÑģÑĤÑĢÐ¾Ð²Ðµ": 5721,
      "ĠÐ´ÐµÐ¿Ð°ÑĢÑĤÐ°Ð¼": 5722,
      "ĠÐ°ÑģÐ¿": 5723,
      "ĠÐļÐ¸ÑĢÐ¾Ð²": 5724,
      "ĠÑĤÐµÐ¿ÐµÑĢÑĮ": 5725,
      "Ð°ÑĢÐ½": 5726,
      "ĠÐľÐ¾ÑģÐºÐ²Ð°": 5727,
      "ĠÐ¤ÑĢ": 5728,
      "Ġ1933": 5729,
      "ĠÐŁÐ»Ð¾ÑīÐ°Ð´": 5730,
      "Ð°Ð²ÑĪÐ¸Ðµ": 5731,
      "ĠÐ½Ð°ÑħÐ¾Ð´ÑıÑī": 5732,
      "ĠÐ´Ð¸ÑĢÐµÐºÑĤÐ¾ÑĢÐ°": 5733,
      "ĠÐ²Ð·Ð³Ð»Ñı": 5734,
      "ĠÐ½Ð°Ð¿ÑĢÐ°Ð²Ð»ÐµÐ½Ð¸Ñı": 5735,
      "ĠÑĢÐ°Ð´Ð¸Ð¾": 5736,
      "ĠÐŁÐ¾ÑįÑĤ": 5737,
      "ĠÐ¿Ð»Ð°": 5738,
      "ÐŃÐ¡": 5739,
      "Ġ42": 5740,
      "ĠÐ·Ð°Ð¿ÑĢÐµÑī": 5741,
      "ĠÑĦÐ¸Ð»ÑĮÐ¼Ð¾Ð²": 5742,
      "ÑĪÐ¸ÑģÑĮ": 5743,
      "ĠÑģÐµÐ¼ÐµÐ¹ÑģÑĤÐ²Ð°": 5744,
      "ĠÐ´Ð²Ð°Ð¶Ð´Ñĭ": 5745,
      "ĠÐ¡ÐµÐ²ÐµÑĢÐ¾": 5746,
      "Ð»Ð°Ð¶": 5747,
      "ĠÐ¸Ð·Ð¼ÐµÐ½ÐµÐ½Ð¸Ñı": 5748,
      "ĠÑĢÐ°ÑģÐ¿Ð¾ÑĢ": 5749,
      "ĠÐ¿ÐµÑĩ": 5750,
      "ÑĪÐ¸Ð¼Ð¸": 5751,
      "ĠÐºÐ°Ñģ": 5752,
      "ĠÐ¡Ð¸ÑĢ": 5753,
      "ĠÑģÑĨ": 5754,
      "ĠÐ´ÑĢÑĥÐ·": 5755,
      "Ġ1953": 5756,
      "ĠÐ¼ÐµÑģÑĤÐ½Ð¾Ð³Ð¾": 5757,
      "ĠÐĶÐ»Ð¸Ð½Ð°": 5758,
      "Ð¸ÑĢÑĥÐµÐ¼": 5759,
      "ĠÑĢÐµÐ³Ð¸": 5760,
      "Ð°ÑīÐ¸Ñħ": 5761,
      "ĠÐ´Ð¾ÑĢÐ¾Ð³Ð°": 5762,
      "ĠÐļÐŁÐ¡Ð¡": 5763,
      "Ð¸ÑĤÐµÐ»ÑĮÐ½ÑĥÑİ": 5764,
      "ÑĢÐ¾Ð²Ð¾Ð»ÑĮ": 5765,
      "ĠÐ¾Ð±Ðµ": 5766,
      "ĠÑĥÐºÑĢÐ°ÑĪ": 5767,
      "ĠÐŁÐ¾Ð·Ð´": 5768,
      "ĠÐ¤Ð¸Ð»ÑĮÐ¼": 5769,
      "ard": 5770,
      "ĠÐĽÑĮÐ²": 5771,
      "ĠÐ¿ÑĢÐ¸Ð²Ð»ÐµÐº": 5772,
      "ĠÐ°ÑĦ": 5773,
      "ĠÐĶÐµÐ¿": 5774,
      "ĠÐ´Ð¸Ð½Ð°ÑģÑĤ": 5775,
      "Ð¸Ð±Ð¾Ð»ÑĮÑĪ": 5776,
      "ĠÑĤÑĥÑĢÐ½Ð¸ÑĢ": 5777,
      "ĠÐ²ÑĭÑģÑĤÑĥÐ¿Ð¸Ð»": 5778,
      "ĠÑĥÑģÑĤÑĢÐ¾": 5779,
      "ÐµÑĩÐ½Ð¾Ð¹": 5780,
      "Ð½Ð¸ÐºÐ°Ñħ": 5781,
      "ĠÐĳÐ¾Ð»ÑĮÑĪÐ¾Ð¹": 5782,
      "ĠÐĿÐ¸ÐºÐ¾Ð»Ð°ÐµÐ²Ð¸Ñĩ": 5783,
      "ĠÐ³ÑĢÑĥÐ¿Ð¿Ðµ": 5784,
      "ĠÑĤÐµÐ°ÑĤÑĢ": 5785,
      "ĠÐ·Ð°Ð²Ð¸ÑģÐ¸Ð¼Ð¾ÑģÑĤÐ¸": 5786,
      "ĠÐ½Ð°ÑĩÐ°Ð»Ð¾ÑģÑĮ": 5787,
      "ĠÐ²ÑĭÐ¹": 5788,
      "ĠÐŁÐµÑĤÑĢÐ°": 5789,
      "ĠÐºÐ¾Ð»ÑĮ": 5790,
      "ĠÑģÐ¸Ð³Ð½": 5791,
      "ĠÐ¸Ð½Ð´Ð¸Ð²": 5792,
      "ĠÐ¨Ð°Ñħ": 5793,
      "ĠÑĪÐ¸ÑĢÐ¾ÐºÐ¾": 5794,
      "ĠÐ¥Ñĥ": 5795,
      "Ð°Ð»Ð¸Ð·Ð°": 5796,
      "ĠÑģÐ¾Ð²ÐµÑĤÑģÐºÐ¸Ñħ": 5797,
      "ĠÐ³ÐµÐ½ÐµÑĢÐ°Ð»Ð°": 5798,
      "Ð°Ð½Ð½Ð¾Ð³Ð¾": 5799,
      "ĠÐ¿Ð¾Ð²ÐµÑĢÑħÐ½Ð¾ÑģÑĤÐ¸": 5800,
      "Ġr": 5801,
      "ĠÐ¿ÑĢÐ¾Ð²ÐµÐ´ÐµÐ½Ð¸Ñı": 5802,
      "ÑģÐºÐ¾ÑĢ": 5803,
      "ÑĭÐ²Ð°Ð½Ð¸Ñı": 5804,
      "ĠÐ¼ÑĥÐ·ÑĭÐºÐ¸": 5805,
      "ĠÐĺÑħ": 5806,
      "ÑģÑĤÐ²ÐµÐ½Ð½ÑĭÐ¹": 5807,
      "ĠÑģÑĩÑĳÑĤÐ¾Ð¼": 5808,
      "ĠÐºÐ¸ÑĢ": 5809,
      "ĠÐ²ÑĭÐ¿ÑĥÑģÑĤ": 5810,
      "Ġ39": 5811,
      "ÐºÐ¾Ð²Ð¾": 5812,
      "ĠÐ²Ð½ÑĥÑĤÑĢÐ¸": 5813,
      "ĠÐ¸Ð¼ÐµÐ½ÐµÐ¼": 5814,
      "ĠÐĳÐµÐ»Ð¾ÑĢÑĥÑģÑģÐ¸Ð¸": 5815,
      "ĠÑĥÑĩÐ°ÑģÑĤÐ¸Ñı": 5816,
      "ĠÑĢÑĭÐ±": 5817,
      "ĠÐĸÐµÐ»": 5818,
      "ĠÐĴÐ¼ÐµÑģÑĤÐµ": 5819,
      "ĠÐ·ÐµÐ»Ñĳ": 5820,
      "ĠÐŁÐ°Ð²ÐµÐ»": 5821,
      "ĠÐĶÐµÐ²": 5822,
      "Ð¼Ð¾Ð²": 5823,
      "Ð¾Ð·Ð¼Ð¾Ð¶": 5824,
      "ÑĥÑİÑīÐµÐ¹": 5825,
      "ĠÐ»ÑĳÑĤ": 5826,
      "ĠÐ²Ð´Ð¾Ð»ÑĮ": 5827,
      "ÑħÐ¾Ð·Ð°": 5828,
      "ÑģÑĤÐ°": 5829,
      "ĠÐĺÐ³ÑĢÐ°": 5830,
      "ĠÐ¿Ð¾ÑģÑĤÐµÐ¿": 5831,
      "ĠÑĢÐ°Ð·Ð°": 5832,
      "ĠÐ´ÑĢÑĥÐ³Ð°": 5833,
      "ĠÐĲÐ»Ð¸": 5834,
      "ĠÑģÑĤÐ¾Ð»Ðº": 5835,
      "ĠÑĢÐµÐ±ÑĳÐ½": 5836,
      "ĠÐĿÐ°Ð¸Ð±Ð¾Ð»ÐµÐµ": 5837,
      "ĠÐ£Ð»Ð¸ÑĨÐ°": 5838,
      "ÑİÑīÐµÐ¹": 5839,
      "ĠÐ²Ð¾ÑģÐ¿ÑĢ": 5840,
      "ĠÐ±ÑĭÐ²ÑĪÐµÐ³Ð¾": 5841,
      "ĠÐºÐ¾ÑĢÐ¾Ð»ÑĮ": 5842,
      "Ð¸Ð½Ñı": 5843,
      "ĠÑģÐ´ÐµÐ»Ð°Ð»": 5844,
      "ÑĢÐ¸Ð³Ð°": 5845,
      "ĠÐĽÐµÑĤÐ¾Ð¼": 5846,
      "ĠÐ¸ÑģÑģÐ»ÐµÐ´Ð¾Ð²": 5847,
      "ÑİÑīÐ°Ñı": 5848,
      "Ð³ÐµÐ½ÑĤ": 5849,
      "ÐºÑĤÐ°": 5850,
      "ÐµÐ½Ð¾Ð¼": 5851,
      "Ð°ÑĨ": 5852,
      "ĠÐ¾Ð¿ÑĤ": 5853,
      "ĠÐ¾ÐºÐ¾Ð½ÑĩÐ°Ð½Ð¸Ð¸": 5854,
      "ĠÐłÐµ": 5855,
      "Ð¾Ð»ÑĮÑģÐºÐ¾Ð³Ð¾": 5856,
      "ĠÐļÐ°Ð±": 5857,
      "ĠÑĪÐ¾Ñĥ": 5858,
      "ĠÑĩÐµÐ¼Ð¿Ð¸Ð¾Ð½Ð¾Ð¼": 5859,
      "ĠÐŀÐ·": 5860,
      "ĠÐ¿ÑĢÐµÑģÑģ": 5861,
      "ĠÐ¾ÐºÑĢÑĥÐ³Ðµ": 5862,
      "ĠÐ¼ÐµÑĢÐ¾Ð¿ÑĢÐ¸ÑıÑĤ": 5863,
      "ÐµÐ¼Ð°": 5864,
      "ĠÐĴÐ¿ÐµÑĢÐ²ÑĭÐµ": 5865,
      "ĠÑĤÐ°Ð»": 5866,
      "ÑĮÐ¼": 5867,
      "Ð±Ð°Ð½": 5868,
      "ĠÐ²Ð²": 5869,
      "ĠÑĥÑĩÐ¸Ð»ÑģÑı": 5870,
      "Ð¾Ð¹ÑĤÐ¸": 5871,
      "ÐµÐ´Ð¶": 5872,
      "ÑģÐ¾Ð»ÑİÑĤ": 5873,
      "ĠÐ¾ÑĢÑĥÐ¶Ð¸Ñı": 5874,
      "ÐµÑĤÐ¾Ð²": 5875,
      "ĠÐ¼ÑĭÑĪ": 5876,
      "ĠÐ¿Ð¾ÑģÑĤÐ¾ÑıÐ½Ð½Ð¾": 5877,
      "Ġ1927": 5878,
      "Ð°ÑİÑīÐµÐ³Ð¾": 5879,
      "ĠÐ§ÑĳÑĢ": 5880,
      "ĠÐľÐµÐ»": 5881,
      "ĠÐ´ÐµÑģ": 5882,
      "ĠÐ´ÑĢÑĥÐ¶": 5883,
      "ĠÐ´Ð¸Ð¿Ð»Ð¾Ð¼Ð°ÑĤ": 5884,
      "ĠÐ¸Ð·Ð¾Ð±": 5885,
      "ÑĳÐº": 5886,
      "ĠÐĲÐ¼ÐµÑĢÐ¸ÐºÐ¸": 5887,
      "Ġ1955": 5888,
      "ĠÑģÐ¿Ð¾ÑĢÑĤÑģÐ¼ÐµÐ½": 5889,
      "ĠÐ°ÑĢÐ¼Ð¸Ñİ": 5890,
      "ÑĪÐ¸": 5891,
      "ĠÑģÐ¾Ð±ÑĭÑĤÐ¸Ð¹": 5892,
      "ĠÑįÐ²": 5893,
      "ĠÑĢÐ°Ð½ÐµÐ½": 5894,
      "ĠÑĦÐ°Ð±ÑĢ": 5895,
      "Ð¸Ð²ÑĪÐ¸Ñħ": 5896,
      "ĠÑģÐ²ÐµÑĢÑħ": 5897,
      "ĠÐĵÐµÐ½ÑĢÐ¸Ñħ": 5898,
      "ĠÑĥÑħÐ¾Ð´": 5899,
      "ĠÐ¶ÐµÐ½ÑīÐ¸Ð½Ñĭ": 5900,
      "ĠÑģÑĭÐ½Ð¾Ð²": 5901,
      "ĠÐ¡ÐµÐ»": 5902,
      "Ð¸Ð½ÐºÐ¸": 5903,
      "ĠÐ°ÑĢÑħÐ¸ÐµÐ¿Ð¸ÑģÐºÐ¾Ð¿": 5904,
      "ĠÑĢÐ°Ð±Ð¾ÑĩÐ¸Ñħ": 5905,
      "ÑĳÑĤÑĢ": 5906,
      "ÑĢÐµÐ¹Ñģ": 5907,
      "ĠÐŁÑĥÑĪ": 5908,
      "ĠÐ±ÑĢÐ¸Ð³Ð°Ð´": 5909,
      "Ð¸ÑĩÐµÑģÐºÐ¾Ð¼Ñĥ": 5910,
      "Ð°ÑİÑīÐ¸Ð¼": 5911,
      "ĠÐ¿ÑĢÑıÐ¼Ð¾": 5912,
      "ĠÐ²Ð»Ð°Ð´ÐµÐ»ÑĮ": 5913,
      "ÑĥÑĤÐ°": 5914,
      "ĠÐľÐ°Ð´": 5915,
      "ĠÑī": 5916,
      "ÐĲÐ¢": 5917,
      "ĠÑģÑĤÐ°ÑĤÐµÐ¹": 5918,
      "ÑĢÐµÑħ": 5919,
      "ĠÐ¿Ð¾ÑģÐ°Ð´": 5920,
      "Ð°Ð½ÑĤÑĭ": 5921,
      "Ð¾ÐºÐ¾Ð²": 5922,
      "Ġ1952": 5923,
      "ĠÐ±Ð¾Ð³Ð¾": 5924,
      "ĠÐļÑĢÐµÑģÑĤ": 5925,
      "Ð¸Ð½ÑģÐºÐ¾Ðµ": 5926,
      "ĠÑģÐ¼ÑĭÑģ": 5927,
      "Ð¸ÐºÐ°Ð¼Ð¸": 5928,
      "Ð¸ÑĢÐ¾Ð²Ð°Ð½Ð½ÑĭÐ¹": 5929,
      "Ġ1914": 5930,
      "ĠÐķÑīÑĳ": 5931,
      "ĠÐ¾ÑĤÐ´ÐµÐ»ÐµÐ½Ð¸Ðµ": 5932,
      "ĠÐĲÐ²ÑģÑĤÑĢ": 5933,
      "ĠÐºÐ°ÑĢÑĤÐ¸Ð½Ñĭ": 5934,
      "ĠÑįÐ¼": 5935,
      "ĠÑģÑĥÐ´ÑĮ": 5936,
      "ĠÑģÐµÑĤÐ¸": 5937,
      "ĠÐĲÐ»ÐµÐºÑģÐ°Ð½Ð´ÑĢÐ¾Ð²Ð¸Ñĩ": 5938,
      "ĠÐ½Ð°Ð´Ðµ": 5939,
      "ĠÐĲÐ½Ð°ÑĤÐ¾Ð»": 5940,
      "ĠÐ¿ÑĢÐµÐºÑĢÐ°ÑĤ": 5941,
      "ĠÐ½ÐµÐºÐ¾ÑĤÐ¾ÑĢÐ¾Ðµ": 5942,
      "ĠÐ¢ÑĢÐµÑĤ": 5943,
      "ÐµÐ»Ñİ": 5944,
      "Ð»ÑĳÐ½": 5945,
      "Ġ44": 5946,
      "ĠÐ¾ÑģÐ½Ð¾Ð²Ð°Ð½Ð¸Ð¸": 5947,
      "ĠÑģÑĥÑħ": 5948,
      "ĠÐ¸ÑģÑĤÐ¾ÑĢÐ¸Ñı": 5949,
      "ĠÐ¿ÑĢÐµÐ·Ð¸Ð´ÐµÐ½ÑĤÐ¾Ð¼": 5950,
      "Ð¾Ð»ÑĮÑĦ": 5951,
      "ĠÐĽÐµÐ¹": 5952,
      "ĠÐ¿Ð¾Ð´Ð²Ð¾Ð´": 5953,
      "ĠÐĲÐºÑĤ": 5954,
      "ĠÐľÐ¸ÑĤ": 5955,
      "Ġ75": 5956,
      "ÐºÑĢÐ°Ñī": 5957,
      "ĠÑĢÐµÐºÐ¾Ð¼": 5958,
      "ĠÑħÐ¾Ð»Ð¾Ð´": 5959,
      "ĠÐķÐ³Ð¸Ð¿": 5960,
      "ÑĢÐ´": 5961,
      "ĠÐĳÐ°ÑĤ": 5962,
      "ĠÑĩÐµÑĤÐ²ÑĳÑĢÑĤ": 5963,
      "ĠÐ¶ÐµÑĢÑĤÐ²": 5964,
      "ĠÐ¿Ð¸ÑĪ": 5965,
      "ÐµÑĢÐ°Ð¼": 5966,
      "ĠÐŁÑĳÑĤÑĢ": 5967,
      "ĠÐºÐ¸Ð»Ð¾Ð¼ÐµÑĤÑĢÐ¾Ð²": 5968,
      "Ġ43": 5969,
      "ĠÐ¤ÑĳÐ´Ð¾ÑĢÐ¾Ð²": 5970,
      "ĠÐ½ÐµÑĦÑĤ": 5971,
      "ĠÑĢÐµÐ²": 5972,
      "Ġ00": 5973,
      "ĠÐ¼Ð°ÑĢÑĪÑĢÑĥ": 5974,
      "ĠÑģÐ¿ÐµÐºÑĤÐ°Ðº": 5975,
      "ĠÑĢÐ°Ð·Ð½Ð¾": 5976,
      "ĠÐ¿ÑĢÐ¸ÑĳÐ¼": 5977,
      "ĠÐ¿ÑĥÐ»ÐµÐ¼": 5978,
      "ĠÐ¡Ð¾Ð»Ð½": 5979,
      "ĠÑĥÐ¶": 5980,
      "ĠÐľÐ°Ñħ": 5981,
      "ĠÐ¿Ð¾Ð»Ð¸ÑĤÐ¸ÐºÐ¸": 5982,
      "ĠÐ²ÑĭÑģÐ¾ÑĤÐµ": 5983,
      "ĠÑģÐ¾Ð¾ÑĤÐ²ÐµÑĤÑģÑĤÐ²ÐµÐ½Ð½Ð¾": 5984,
      "ĠÐļÐ¾": 5985,
      "Ð¾ÑĢÐ¸Ð¹": 5986,
      "ĠÐ¿ÑĥÑĤÐµÑĪÐµÑģÑĤÐ²": 5987,
      "ÐµÐ²Ð¸Ð·": 5988,
      "ĠÐ¤ÑĢÐ¸Ð´": 5989,
      "Ġ(": 5990,
      "ĠÑģÐ¾Ð²ÑĢÐµÐ¼ÐµÐ½Ð½Ð¾Ð¹": 5991,
      "ĠÑģÐ»ÐµÐ´ÑĥÑİÑīÐµÐ¼": 5992,
      "ĠÐ¿Ð°Ð½": 5993,
      "ÑĤÐ¾Ðµ": 5994,
      "ÑĢÐ¾Ð²Ð¾Ð´": 5995,
      "Ð¾ÑĤÐ°Ð½": 5996,
      "ĠÐ²Ð½ÑĥÑĤÑĢÐµÐ½Ð½Ð¸Ñħ": 5997,
      "Ġ1925": 5998,
      "ĠÑģÐµÐ½": 5999,
      "ĠÐ¸Ð¼ÐµÐ½": 6000,
      "Ð»Ð°Ñħ": 6001,
      "ÑĮÐ¼Ð¸": 6002,
      "ĠÐŁÐ»Ð¾ÑīÐ°Ð´ÑĮ": 6003,
      "ĠÐĲÐ±Ð´": 6004,
      "ĠÑģÑĥ": 6005,
      "Ġ65": 6006,
      "Ð°Ð²Ð°": 6007,
      "ĠÐ¼ÐµÑģÑıÑĨÐ°": 6008,
      "ÐµÐ»Ð»Ð¸": 6009,
      "ÐµÑĢÐ°Ð½": 6010,
      "ĠÐ²Ð¾Ð·Ð³Ð»Ð°Ð²Ð¸Ð»": 6011,
      "ĠÐĸÐµÐ½": 6012,
      "ĠÐ¸ÑģÑħÐ¾Ð´": 6013,
      "Ð¾ÑĩÐºÐ¸": 6014,
      "ĠÐ½Ð°ÑĩÐ°Ð»Ð°ÑģÑĮ": 6015,
      "ĠÐ·Ð°Ð½Ð¸Ð¼Ð°ÐµÑĤ": 6016,
      "ĠÐ²Ð·Ð°Ð¸Ð¼Ð¾Ð´ÐµÐ¹ÑģÑĤÐ²": 6017,
      "ÑįÐ»": 6018,
      "ĠÐļÐ¾Ð¼Ð°Ð½Ð´": 6019,
      "ĠÐĳÐ¾Ð»Ð³Ð°ÑĢ": 6020,
      "ĠÐ¾ÑģÐ½Ð¾Ð²Ð°Ð½Ð¸Ñı": 6021,
      "ÑĥÐ°": 6022,
      "ĠÐ¼Ð°Ð»Ð¾": 6023,
      "ĠÑģÑĤÐµÐ¿ÐµÐ½ÑĮ": 6024,
      "Ġcom": 6025,
      "ĠÑĢÐ°ÑģÐ¿Ð¾Ð»Ð¾Ð¶ÐµÐ½Ð¾": 6026,
      "ĠÐ¶ÐµÐ½Ð¸": 6027,
      "ĠÑģÐµÐ¼ÑĮÑı": 6028,
      "ĠÑģÐ²ÐµÐ´ÐµÐ½Ð¸Ñı": 6029,
      "Ð»ÑĥÐ³": 6030,
      "ĠÑĢÐ°ÑģÑĤÐµÐ½Ð¸Ð¹": 6031,
      "ĠÐ½ÐµÐ¼Ñĥ": 6032,
      "ĠÐºÐ¾Ð¶": 6033,
      "ÑĪÐ¸Ð½": 6034,
      "ĠÐ¾ÐºÐ°Ð·Ð°Ð»ÑģÑı": 6035,
      "ĠÐ¾ÐºÑĢÐµÑģÑĤ": 6036,
      "ĠÐĶÐ¸Ð½Ð°Ð¼": 6037,
      "ĠÑĥÑĢÐ¾Ð²ÐµÐ½ÑĮ": 6038,
      "ĠÐ¸Ð·Ð¼ÐµÑĢ": 6039,
      "Ð¿Ð»": 6040,
      "ĠÑĢÑĥÑĩ": 6041,
      "ĠÐ¿Ð°Ð¼ÑıÑĤÑĮ": 6042,
      "ĠÑĤÐ¾Ð¶Ðµ": 6043,
      "ĠÐ´Ð¾Ð¼Ð¾Ð²": 6044,
      "ĠÐ¸Ð·Ð¼": 6045,
      "ĠÐ¼Ð¸Ð»Ð»Ð¸Ð¾Ð½Ð¾Ð²": 6046,
      "ĠÐ±ÑĢÐ°ÑĤÐ°": 6047,
      "ĠÐķÐ´Ð¸Ð½": 6048,
      "ĠÐŁÐµÑĢÐ²Ð°Ñı": 6049,
      "ĠÑİÐ½Ð¾ÑĪ": 6050,
      "ĠÐ³Ð»Ð°Ð²Ð½Ð¾Ð¹": 6051,
      "ĠÐ»ÐµÐ´": 6052,
      "ĠÐ²Ð¾ÑĪÐ»Ð¸": 6053,
      "ce": 6054,
      "Ð¼Ð¾Ð½": 6055,
      "ĠÑĨÐ¸ÑĦ": 6056,
      "Ð³Ð¾ÑģÐ»Ð°Ð²": 6057,
      "ĠÐĳÑĢ": 6058,
      "ĠÐĿÐ°Ð·Ð²Ð°Ð½Ð¸Ðµ": 6059,
      "Ð°Ð²ÑĪÐµÐ³Ð¾": 6060,
      "ĠÐ°Ð´Ð¼Ð¸Ð½Ð¸ÑģÑĤÑĢÐ°ÑĤÐ¸Ð²Ð½Ð¾": 6061,
      "Ð°ÑĢÐ¸Ð¹": 6062,
      "ÑģÐ»Ð¾Ð²": 6063,
      "ĠÐ¿ÑĢÐ¾Ð´ÑİÑģ": 6064,
      "Ð»ÑĮÐ½ÑĭÐ¹": 6065,
      "ĠÑĢÐ¾Ð»": 6066,
      "Ð¸ÑĤÐµÐ»ÑĮÐ½Ð¾ÑģÑĤÑĮ": 6067,
      "ĠÐ²Ð¿Ð»Ð¾ÑĤÑĮ": 6068,
      "ĠÐ¸Ð·Ð´Ð°Ð½Ð¸Ñı": 6069,
      "ÑģÑĤÐ²ÐµÐ½Ð½Ð¾Ð³Ð¾": 6070,
      "ĠÐ½ÐµÑĥÐ´Ð°Ñĩ": 6071,
      "ĠÐĶÑĥÐ±": 6072,
      "ĠÐ³ÑĢÐ°ÑĦÐ°": 6073,
      "ĠÐĴÐ¾Ñģ": 6074,
      "Ð°Ð»Ð°Ñħ": 6075,
      "ĠÐºÐ¾Ð½ÑĨÐµÐ¿": 6076,
      "ĠÐĴÐ°ÑĪ": 6077,
      "ĠÑģÐ¾Ð²ÐµÑĤÑģÐºÐ¾Ð¹": 6078,
      "ĠÐ¸Ð³ÑĢÑĥ": 6079,
      "Ð¾Ð²Ðµ": 6080,
      "Ð°Ð¼ÐµÑĢ": 6081,
      "ĠÐºÐ¾Ð¼Ð¿Ð»ÐµÐº": 6082,
      "ĠXVI": 6083,
      "ĠÐĳÐµÐ»Ð°ÑĢÑĥÑģ": 6084,
      "ĠÐ¿ÑĢÐµÐ´Ð¿ÑĢÐ¸Ð½Ð¸Ð¼": 6085,
      "ĠÐ¾ÑĢÐ¸": 6086,
      "ÐµÐ»ÑĮÐ´": 6087,
      "ĠÐ»ÐµÑĤÐ½Ð¸Ñħ": 6088,
      "ĠÐ·Ð°Ð½ÑıÐ»Ð°": 6089,
      "ĠÐ¿ÑĢÐ¾Ð¶Ð¸Ð²Ð°Ð»Ð¾": 6090,
      "ĠÑĦÐ»Ð°Ð³": 6091,
      "ĠÐļÑĢÐ°ÑģÐ½Ð¾": 6092,
      "Ð°Ð³Ð°": 6093,
      "ĠÐºÐ¸Ð½Ð¾ÑĦ": 6094,
      "ĠÐ²ÑĭÐ´Ð°ÑİÑī": 6095,
      "Ð°ÑĤÐ¾ÑĢÐ¾Ð²": 6096,
      "Ð¸Ð¹ÑģÐºÐ°Ñı": 6097,
      "Ġ48": 6098,
      "ĠÐ¤Ð¸Ð½Ð»ÑıÐ½": 6099,
      "ĠÐĶÐ¼Ð¸ÑĤÑĢÐ¸": 6100,
      "ĠÐĻÐ¾ÑĢÐº": 6101,
      "ĠÐ¼Ð°ÑĤÐµÑĢ": 6102,
      "Ð³ÑĢÐµÑģÑģ": 6103,
      "ĠÐ²Ð¾Ð·Ð²ÐµÐ´": 6104,
      "ĠÐ·Ð°Ð´ÐµÑĢÐ¶": 6105,
      "ĠÑĥÐ¿Ð¾ÑĤÑĢÐµÐ±": 6106,
      "ĠÐŁÐ°ÑĢÐ¸": 6107,
      "Ð½Ð¸ÑĨÐµ": 6108,
      "ĠÐ£ÑģÑĤ": 6109,
      "ĠÐ¨Ð²Ðµ": 6110,
      "ĠÐ²ÑĭÑĤ": 6111,
      "ĠÑįÐºÐ¾Ð½Ð¾Ð¼Ð¸ÐºÐ¸": 6112,
      "ĠÐ½Ð°Ð»Ð¾Ð³": 6113,
      "ĠÐĹÐ½Ð°Ð¼ÐµÐ½Ð¸": 6114,
      "Ð²Ð¾Ð¹": 6115,
      "Ð¸ÑĢÐ¾Ð²Ð°Ð½Ð½ÑĭÐµ": 6116,
      "ĠÐ¿Ð¾ÑĢÑĤÑĢÐµÑĤ": 6117,
      "ĠÐ¿Ð»Ð°ÑĤÑĦÐ¾ÑĢÐ¼": 6118,
      "ĠÐ³ÑĢÑĥÐ¿Ð¿Ñĥ": 6119,
      "Ð¸ÑĤÐµÐ»ÑĮÐ½Ð¾ÑģÑĤÐ¸": 6120,
      "ĠÐ½Ð°ÑĩÐ°Ð»Ð¾Ð¼": 6121,
      "ist": 6122,
      "ĠÐĲÐ½Ð½Ð°": 6123,
      "ĠÐľÐ°ÑĢÐ¸Ð¸": 6124,
      "ĠÐ³Ð¸Ð¼Ð½Ð°Ð·": 6125,
      "ĠÑĦÐ¾ÑĢÐ¼Ñĥ": 6126,
      "ĠÐ±Ð¾Ñİ": 6127,
      "Ð¾ÑĩÐ½Ð¾Ð¼": 6128,
      "ĠÐ³Ð»Ð°Ð²Ð½ÑĭÑħ": 6129,
      "all": 6130,
      "ĠÐĳÐµÐ·": 6131,
      "Ð°Ð´Ð¸": 6132,
      "ĠÐ¿ÑĢÐµÐ´Ð¿ÑĢÐ¸ÑıÑĤÐ¸Ñı": 6133,
      "ĠÐ²ÑĭÑħÐ¾Ð´Ð°": 6134,
      "ĠÐ´ÐµÐ»Ðµ": 6135,
      "ĠÐ¼Ð°Ð³Ð¸ÑģÑĤ": 6136,
      "ĠÐłÐ°Ð±": 6137,
      "ĠÐ¾ÑĦÐ¾ÑĢÐ¼": 6138,
      "Ð½ÑĥÑĤÑĮ": 6139,
      "ĠÐ´ÑĥÐ±": 6140,
      "Ġand": 6141,
      "Ġin": 6142,
      "ĠÐ¿Ð¾ÑģÑĤÑĢÐ¾ÐµÐ½Ð°": 6143,
      "ĠÐ»ÐµÐ¶": 6144,
      "ĠÐ¢Ð¾Ð³Ð´Ð°": 6145,
      "ĠÐ¾Ð±ÑĬÐµÐºÑĤÐ¾Ð²": 6146,
      "ĠÐĴÐ¾ÑģÑĤÐ¾ÑĩÐ½Ð¾Ð¹": 6147,
      "ĠÐ¸ÑģÑĩÐµÐ·": 6148,
      "ĠÐ½Ð°ÑĩÐ¸Ð½Ð°ÐµÑĤ": 6149,
      "ĠÐ¾Ð·ÐµÑĢÐ¾": 6150,
      "ĠÐ¿ÑĢÐ¸ÑĪÐ»Ð¾ÑģÑĮ": 6151,
      "ĠÑģÐºÐ°Ð·Ð°Ð»": 6152,
      "ĠÑĤÐµÐ»ÐµÐ²Ð¸Ð´": 6153,
      "ĠÐ½Ð°Ð·Ð°Ð´": 6154,
      "ĠÑĨÐµÐ½": 6155,
      "ĠÐ¶ÑĳÐ»": 6156,
      "ÑĦÐ¾Ð½": 6157,
      "ÑĨÐ¸Ð¾Ð½Ð½Ð¾": 6158,
      "ĠÐ¶Ð¸ÑĤÐµÐ»Ð¸": 6159,
      "Ð¾Ð²ÑģÐºÐ¾Ð¼": 6160,
      "ĠÑĥÑģÐ¿ÐµÑĪÐ½Ð¾": 6161,
      "12": 6162,
      "Ð½ÐµÑĤ": 6163,
      "ĠÐĹÐ°Ð¿Ð°Ð´Ð½Ð¾Ð¹": 6164,
      "ĠÐ¿ÑĢÐ°Ð²Ð¾Ð¼": 6165,
      "ÐµÐ³Ð°": 6166,
      "ÐµÐ¾Ð´": 6167,
      "ĠÐĳÐ¾Ð±": 6168,
      "ĠÐ¾Ð»Ð¸Ð¼Ð¿Ð¸Ð¹": 6169,
      "Ð»Ð»ÐµÐ»ÑĮ": 6170,
      "ĠÐ²Ð¾Ð¹Ð½Ñĥ": 6171,
      "Ð»Ð¸ÑĪÐºÐ¾Ð¼": 6172,
      "ĠÐĺÐ½Ð´Ð¸Ð¸": 6173,
      "ĠÐ½Ð°ÑĤ": 6174,
      "ĠÐŀÐ³": 6175,
      "ĠÐĵÐ»": 6176,
      "ĠÐĴÐ°ÑģÐ¸Ð»ÑĮÐµÐ²Ð¸Ñĩ": 6177,
      "ĠÐ¦ÐµÑĢÐºÐ¾Ð²ÑĮ": 6178,
      "ĠÑģÐ¸ÑģÑĤÐµÐ¼Ñĥ": 6179,
      "ĠÐ¿ÑĢÐ¾ÑģÐ¿": 6180,
      "ĠÑĦÐ¸Ð½Ð°Ð»Ðµ": 6181,
      "ĠÐ½Ð°Ð¹ÑĤÐ¸": 6182,
      "ĠÐ¼ÐµÐ¶Ð´ÑĥÐ½Ð°ÑĢÐ¾Ð´Ð½Ð¾Ð³Ð¾": 6183,
      "ĠÐĳÐ°Ð»ÑĤ": 6184,
      "ÑĨÐ°ÑĤÐ¸": 6185,
      "ĠÐĴÐµÐ½": 6186,
      "ĠÑįÑĦÑĦÐµÐºÑĤ": 6187,
      "ÐµÑĢÐ°Ð¿": 6188,
      "ĠÐĹÐ°Ð¼": 6189,
      "Ġ55": 6190,
      "Ð¸ÑģÑĤÐ°Ð½Ð°": 6191,
      "ĠÐ¸Ð¼ÐµÐµÑĤÑģÑı": 6192,
      "ĠÐµÐµ": 6193,
      "ĠÐ¿ÑĢÐµÐºÑĢÐ°Ñī": 6194,
      "ĠÐĴÐ¿Ð¾ÑģÐ»ÐµÐ´ÑģÑĤÐ²Ð¸Ð¸": 6195,
      "ĠÐ¿ÑĢÐ¾Ð²ÐµÑĢ": 6196,
      "ĠÑįÐ½ÑĨÐ¸ÐºÐ»Ð¾Ð¿ÐµÐ´": 6197,
      "ĠÐ½ÑĭÐ½Ðµ": 6198,
      "ĠÐ·Ð°Ð¼ÐµÑģÑĤÐ¸ÑĤÐµÐ»ÐµÐ¼": 6199,
      "Ð»ÐµÐ½Ð½ÑĭÐ¹": 6200,
      "ĠÐ¿Ð¾ÑĪ": 6201,
      "ĠÐłÐ°Ð½": 6202,
      "ĠÐ¾ÑĢÐ³Ð°Ð½Ð¾Ð²": 6203,
      "ĠÐ¿ÑĢÐ¾ÑĪÑĳÐ»": 6204,
      "ĠÐ½Ð°Ð¼ÐµÑĢ": 6205,
      "ĠÐ¡Ðľ": 6206,
      "Ð¾ÐºÐ¾Ð¹": 6207,
      "ĠÐłÑĥÐ¼": 6208,
      "ĠÐ·Ð°Ð»Ð¾Ð¶": 6209,
      "ĠÐ²ÑĭÐ²": 6210,
      "ĠÐ¾Ð±ÑīÐµÑģÑĤÐ²Ð¾": 6211,
      "ĠÑģÐµÑĢÐ¸Ð°Ð»Ð°": 6212,
      "Ð¾ÑĤÐ¸Ð¿": 6213,
      "ĠÑģÑĤÑĢÐµÐ»ÐºÐ¾Ð²Ð¾Ð¹": 6214,
      "ĠÐ±ÑĢÐ¾Ñģ": 6215,
      "ĠÐ¿Ð¾ÑģÐ»ÐµÐ´Ð¾Ð²Ð°ÑĤÐµÐ»ÑĮ": 6216,
      "ĠÐ¿Ð¾Ð´Ðº": 6217,
      "ĠÑģÐ¾Ð·Ð´Ð°Ð½Ð¸Ð¸": 6218,
      "ÑĢÐµÐ·Ð²": 6219,
      "ĠÐºÐ½Ð¸Ð³Ð°": 6220,
      "ĠÑħÑĥÐ´Ð¾Ð¶Ð½Ð¸ÐºÐ°": 6221,
      "ÑĤÐ¾ÑĢÐ¾Ð²": 6222,
      "ĠÐ¿Ð¾Ð´Ð´ÐµÑĢÐ¶ÐºÑĥ": 6223,
      "ĠÐºÐ¾Ð¼ÐµÐ´": 6224,
      "Ð°Ð½ÑĤÐ¾Ð¼": 6225,
      "ĠÐ½Ð°Ð²": 6226,
      "ĠÐŀÐ¼": 6227,
      "ĠÑĩÐµÐ»Ð¾Ð²ÐµÑĩÐµÑģÐº": 6228,
      "ÑĢÑĥÑģ": 6229,
      "ĠÐĴÑĭÑģÑĤÑĥÐ¿": 6230,
      "ĠÐ¼Ð¾ÑĢÑģÐºÐ¾Ð¹": 6231,
      "ĠÑĢÐ°Ð¹Ð¾Ð½Ð½Ð¾Ð³Ð¾": 6232,
      "ĠÐĲÐ»ÑĮÐ±": 6233,
      "Ð¸ÑĢÐ¾Ð²Ð°Ð»ÑģÑı": 6234,
      "ĠÐ¸ÑģÐ¿Ð°Ð½": 6235,
      "ĠÐ²ÑĭÐ±Ð¾ÑĢÐ¾Ð²": 6236,
      "ĠÐºÐ»Ð¸Ð½": 6237,
      "ĠÐ¿ÑĢÐ¾Ð´Ð°Ð¶": 6238,
      "Ð½ÐµÐ²ÐµÐº": 6239,
      "Ð¸Ð·Ð²Ð¾Ð´": 6240,
      "Ð¾Ð¼Ð¸Ð½Ð°": 6241,
      "ĠÐ¢Ð°Ð½": 6242,
      "Ð²Ð°Ñĩ": 6243,
      "ĠÑĪÐºÐ¾Ð»ÑĮ": 6244,
      "ĠÐ¿ÑĢÐµÐ´ÑĥÑģ": 6245,
      "ĠÐ¡Ð²ÐµÑĤ": 6246,
      "ĠÐ»Ð¸ÑĨÐ°": 6247,
      "ĠÑĦÑĢÐ¾Ð½ÑĤ": 6248,
      "ĠÐ½Ð¸ÑĩÐµÐ³Ð¾": 6249,
      "ÐºÑĥÑİ": 6250,
      "ĠÐľÐ¸ÑħÐ°Ð¹Ð»Ð¾Ð²Ð¸Ñĩ": 6251,
      "ĠÐ°Ð´Ð¼Ð¸Ð½Ð¸ÑģÑĤÑĢÐ°ÑĨÐ¸Ð¸": 6252,
      "ĠÑĤÐµÑĢÑĢÐ¸ÑĤÐ¾ÑĢÐ¸Ñİ": 6253,
      "ĠÐ¿ÑĮÐµÑģ": 6254,
      "Ġ400": 6255,
      "ĠÐ¿Ð¾Ð´Ñģ": 6256,
      "ĠÐĳÑĢÐ°Ð·": 6257,
      "ĠÐ½Ð°ÐºÐ°Ð·": 6258,
      "ĠÐ¾ÑĤÐºÑĢÑĭÐ²": 6259,
      "ĠÐ»ÐµÐ³ÐºÐ¾": 6260,
      "ĠÐ¡ÐµÑĢÐ±": 6261,
      "ĠÐ±Ð¾Ð»ÑĮÑĪÐ°Ñı": 6262,
      "Ġ1951": 6263,
      "Ð´Ð¾Ð¼": 6264,
      "ew": 6265,
      "ĠÐ¿Ð°Ð¼ÑıÑĤÐ¸": 6266,
      "ĠÐ½Ð°ÑĩÐ°Ð»ÑĮÐ½Ð¸ÐºÐ¾Ð¼": 6267,
      "Ð¾Ð¹ÑĩÐ¸Ð²": 6268,
      "ĠÑģÐ¾ÑģÑĤÐ¾ÑıÐ½Ð¸Ð¸": 6269,
      "ĠÐŁÐ¾ÑįÑĤÐ¾Ð¼Ñĥ": 6270,
      "ĠÐ½ÐµÐ³": 6271,
      "ĠÐĲÐ²ÑģÑĤÑĢÐ°Ð»Ð¸Ð¸": 6272,
      "Ð°ÑīÐµ": 6273,
      "ĠÐ¿ÑĢÐ¾Ð¸Ð·Ð²ÐµÐ´ÐµÐ½Ð¸Ð¹": 6274,
      "ĠÐ¿ÑĢÐ¾Ð»": 6275,
      "ĠÐµÑģÑĤÐµÑģÑĤÐ²ÐµÐ½": 6276,
      "ĠÑģÐ»Ð¸ÑĪÐºÐ¾Ð¼": 6277,
      "ĠÐ¿Ð¾ÐºÐ¾Ð»": 6278,
      "ĠÐ¿Ð¾ÐµÐ´Ð¸Ð½": 6279,
      "ĠÑģÐ¾ÐºÑĢÐ°Ñī": 6280,
      "ĠÐ²Ð¾Ð¿ÑĢÐ¾ÑģÐ°Ð¼": 6281,
      "ĠÐŁÐ»": 6282,
      "Ð§": 6283,
      "ĠÐŁÐ°ÑĢÑĤ": 6284,
      "ĠÐºÐ°Ð¶Ð´Ð¾Ð¹": 6285,
      "ÐµÑīÐµÐ½Ð¸Ñı": 6286,
      "ĠÐ¿Ð°ÑģÑģÐ°Ð¶Ð¸ÑĢ": 6287,
      "ĠÑĤÑĢÐµÐ½ÐµÑĢÐ¾Ð¼": 6288,
      "ĠÐ¼Ð°Ð»ÑĮ": 6289,
      "ĠÐ°ÑĢÑħÐ¸ÑĤÐµÐºÑĤÑĥÑĢÑĭ": 6290,
      "ĠÐļÐ°Ð·Ð°ÑħÑģÑĤÐ°Ð½Ð°": 6291,
      "ĠÐ¿ÑĢÐ¸Ð³Ð¾Ð²Ð¾ÑĢ": 6292,
      "ÑĳÐ²Ð°": 6293,
      "Ð»ÑıÑİÑĤ": 6294,
      "ĠÐ´Ð°Ð½Ð½ÑĭÐµ": 6295,
      "ĠÑĢÐ°Ð±Ð¾ÑĤÐ°Ð»Ð°": 6296,
      "ĠÐ´Ð¸ÑĢÐµÐºÑĤÐ¾ÑĢÐ¾Ð¼": 6297,
      "Ð¸ÑģÑĤÐ¾Ð¼": 6298,
      "ĠÐĲÐĿ": 6299,
      "ĠÐ¼ÐµÑĤÐ°Ð»": 6300,
      "ĠÐ¥Ð°ÑĢÑĮÐºÐ¾Ð²": 6301,
      "ĠÐ¸Ð½ÑģÑĤÐ¸ÑĤÑĥÑĤÐµ": 6302,
      "Ð°ÑĤÐ¸": 6303,
      "Ð¸Ð¹ÑģÐºÐ¸Ñħ": 6304,
      "ĠÐ¿Ð°ÑĢÑĤÐ½": 6305,
      "Ġ1905": 6306,
      "ĠÑĨÐµÐ½ÑĤÑĢÐ°Ð»ÑĮÐ½Ð¾Ð¹": 6307,
      "ĠÐĳÑĢÐ°ÑĤ": 6308,
      "ĠÐ½Ð¾Ð¼Ð¸Ð½": 6309,
      "ĠÑĢÐ°Ð·Ð´": 6310,
      "ĠÐ·Ð°ÑģÐµÐ´": 6311,
      "ĠÐ³ÐµÐ¾Ð³ÑĢÐ°ÑĦ": 6312,
      "ÐµÐºÑĤÐ¾ÑĢÐ°": 6313,
      "ĠÐ¸Ð½Ð´Ð¸Ð²Ð¸Ð´Ñĥ": 6314,
      "ĠÐŁÐ¾ÑħÐ¾ÑĢÐ¾Ð½ÐµÐ½": 6315,
      "ĠÐ¿ÐµÑĢÑģÐ¾Ð½": 6316,
      "Ð°ÑģÑĤÑĢÐ¾ÑĦ": 6317,
      "ĠÐ»Ð¾Ð³": 6318,
      "ĠÐļÐ°Ð»Ð¸Ð½": 6319,
      "ÑģÑĤÐ²Ð¸Ñı": 6320,
      "ĠÐ½Ð°ÑĩÐ¸Ð½Ð°ÐµÑĤÑģÑı": 6321,
      "ĠÐ¸Ð·Ð²ÐµÑģÑĤÐ½ÑĭÑħ": 6322,
      "ĠÑĤÑĢÐµÐ½Ð¸ÑĢÐ¾Ð²": 6323,
      "ÐµÐ½Ð´Ð°": 6324,
      "ĠÐ±ÐµÑģ": 6325,
      "Ð°ÑĢÐº": 6326,
      "ĠÐĵÐ¾Ð¼": 6327,
      "ĠÐºÐ»ÑĥÐ±Ðµ": 6328,
      "ĠÐ¾Ð±ÑĥÑĩÐµÐ½Ð¸Ñı": 6329,
      "ĠÐ¨Ð¸ÑĢ": 6330,
      "ÑĦÐ¸": 6331,
      "Ð½Ð¾Ð²ÐµÐ½Ð¸Ñı": 6332,
      "ĠÐļÐ°ÑĢÑĤ": 6333,
      "ĠÐ³ÐµÑĢÐ¼Ð°Ð½": 6334,
      "ĠÐ½ÐµÐ½": 6335,
      "ĠÑĪÐ¾ÑģÑģ": 6336,
      "ĠÑĢÐµÐ°Ð»Ð¸Ð·": 6337,
      "ĠÐĵÐ¾Ñģ": 6338,
      "ĠÐ¿Ð¾Ð´Ð³Ð¾ÑĤÐ¾Ð²ÐºÐ¸": 6339,
      "ĠÑĢÐµÐ³Ð¸Ð¾Ð½Ð°": 6340,
      "ap": 6341,
      "ĠÐºÐ»ÑĥÐ±Ð¾Ð¼": 6342,
      "ĠÐ¼Ð¾Ð´ÐµÐ»Ð¸": 6343,
      "ĠÐºÐ°Ð¶Ð´Ð¾Ð³Ð¾": 6344,
      "Ð¸ÑĦÐ¸ÐºÐ°": 6345,
      "ÐµÐ·Ð¶": 6346,
      "ĠÐ¾Ð¿ÑĥÐ±Ð»Ð¸ÐºÐ¾Ð²Ð°Ð½": 6347,
      "ĠÐĺÐ¼Ð¿ÐµÑĢÐ°ÑĤÐ¾ÑĢ": 6348,
      "ĠÐ¿Ð¾ÑıÐ²Ð¸Ð»Ð¸ÑģÑĮ": 6349,
      "Ð¸ÑĩÐ½ÑĭÐµ": 6350,
      "ĠÐ¿ÑĢÐ¸Ð½ÑĨ": 6351,
      "ÐµÐ¶Ð¸ÑģÑģ": 6352,
      "Ġ1915": 6353,
      "ĠÐŁÐ°ÑĢÐ¸Ð¶Ðµ": 6354,
      "Ð¿Ð¾Ð·": 6355,
      "ĠÑĢÐ°ÑģÑģÐ»ÐµÐ´": 6356,
      "ÐµÑĢÑģÐ¾Ð½": 6357,
      "ĠÐĶÐµ": 6358,
      "Ð»Ð¾Ð¹": 6359,
      "Ġ47": 6360,
      "ĠÐļÐ¾Ð½ÑģÑĤÐ¸ÑĤÑĥ": 6361,
      "ĠÐ½ÐµÐ¾Ð±ÑħÐ¾Ð´Ð¸Ð¼Ð¾": 6362,
      "Ð·Ñı": 6363,
      "Ġ52": 6364,
      "ĠÐĳÐ°Ðº": 6365,
      "ĠÐ½Ð°ÑħÐ¾Ð´Ð¸Ð»Ð°ÑģÑĮ": 6366,
      "ÐµÐ»ÐµÐ¼": 6367,
      "ÑĥÐ¼Ðµ": 6368,
      "ĠÐłÐ°Ð¼": 6369,
      "Ð¾ÑĢÐ³Ð°Ð½": 6370,
      "ÑĭÐ²Ð°ÑİÑĤÑģÑı": 6371,
      "ĠÐ½Ð°Ð·ÑĭÐ²Ð°ÑİÑĤ": 6372,
      "ĠÐĳÐ»Ð°Ð³Ð¾Ð´Ð°ÑĢÑı": 6373,
      "ĠÐ¸ÑģÐ¿Ð¾Ð»ÑĮÐ·Ð¾Ð²Ð°Ð½Ð¸Ðµ": 6374,
      "ĠÐ¼Ð¾Ð´ÐµÐ»ÑĮ": 6375,
      "Ð¸Ð½ÑģÑĤÐ²Ð¾": 6376,
      "ĠÐ°Ð´Ð¼Ð¸": 6377,
      "ĠÐ¼Ð¾Ð½Ð°ÑģÑĤÑĭÑĢÑĮ": 6378,
      "ĠÐĺÐ¼Ðµ": 6379,
      "Ð½Ð¾Ð¶": 6380,
      "ĠÐ½Ð°ÑĢÐ¾Ð´Ð½Ð¾Ð³Ð¾": 6381,
      "ĠÐ²ÐµÑģÑĮÐ¼Ð°": 6382,
      "Ð¾ÑĩÐºÐ°": 6383,
      "ĠÐŀÐ±ÑĢÐ°Ð·": 6384,
      "Ġ176": 6385,
      "ĠÐ¾ÑĤÐ¿ÑĢÐ°Ð²Ð¸Ð»ÑģÑı": 6386,
      "ĠÐŁÑĢÐ¾Ð´": 6387,
      "ĠÐľÐ½Ð¾Ð³Ð¸Ðµ": 6388,
      "ĠÐ¡ÐµÐ¼ÑĳÐ½": 6389,
      "ĠÐ²Ð¾Ð¹Ð½Ð°": 6390,
      "Ð¾ÑģÐµ": 6391,
      "ÐµÑĢÐ¸Ñı": 6392,
      "Ð¸ÑĩÐ½ÑĭÑħ": 6393,
      "ĠÑģÐ¾ÑģÑĤÐ¾ÑıÑī": 6394,
      "est": 6395,
      "ĠÐ¿ÐµÐ½Ñģ": 6396,
      "ĠÐºÐ¾Ð½ÑĨÑĥ": 6397,
      "ĠÐ²Ð°Ð³": 6398,
      "ĠÑĤÐ²Ð¾ÑĢÑĩÐµÑģÐº": 6399,
      "ĠÑĥÐ´Ð°": 6400,
      "ĠÐļÐ°Ð»Ð¸": 6401,
      "Ġ46": 6402,
      "ĠÐ¸Ð½ÑĤÐµÑĢÐ½": 6403,
      "ĠÐ¿ÑĢÐ¸Ð²ÐµÐ»Ð¾": 6404,
      "Ð³ÐµÑĢ": 6405,
      "ĠÐ£Ð»ÑĮ": 6406,
      "ĠÐ¿Ð¾ÑıÐ²Ð¸Ð»ÑģÑı": 6407,
      "ĠÐ½ÐµÐ²Ð¾Ð·Ð¼Ð¾Ð¶": 6408,
      "ÑıÑīÐ¸Ñħ": 6409,
      "ĠÐļÐ½Ð¸": 6410,
      "ĠÐºÐ¾Ð¼Ð½": 6411,
      "ĠÐ¿Ð¾Ð±ÐµÐ´Ñĭ": 6412,
      "ĠÐ²ÑĭÐ½ÑĥÐ¶Ð´ÐµÐ½": 6413,
      "ĠÐ¸Ð¼ÐµÐ»Ð°": 6414,
      "ĠÑģÐ²Ð¸Ð´ÐµÑĤÐµÐ»ÑĮÑģÑĤÐ²": 6415,
      "ĠÐ¾ÑĤÐ²ÐµÑĩ": 6416,
      "ĠÐľÐ¾ÑģÐºÐ²Ñĥ": 6417,
      "ĠÐŁÐµÑģ": 6418,
      "ĠÑĩÐ»ÐµÐ½Ñĭ": 6419,
      "ÑıÐ»Ð¸ÑģÑĮ": 6420,
      "ĠÐ¸Ð³ÑĢÐ¾ÐºÐ¾Ð¼": 6421,
      "ĠÐľÐ°ÑĢÐ¸": 6422,
      "Ð²Ð°Ð¹": 6423,
      "ÐµÐ½ÑĩÐµÑģÐº": 6424,
      "ĠÐ¿ÑĥÐ½ÐºÑĤÑĭ": 6425,
      "30": 6426,
      "ĠÐ¿ÐµÑĢÐµÐµÑħÐ°Ð»": 6427,
      "Ð¼ÐµÐ¹": 6428,
      "ĠÐ´ÑĢÑĥÐ³Ð¾Ð¼": 6429,
      "ĠÐ½Ð¾Ð²Ð¾Ðµ": 6430,
      "ĠÐ·Ð°Ð²Ð¾Ð´Ðµ": 6431,
      "ĠÐ°ÑĢÐµÑģÑĤÐ¾Ð²Ð°Ð½": 6432,
      "ĠÐĳÐ°": 6433,
      "ĠÐ²ÑĢÐµÐ¼ÐµÐ½Ð°": 6434,
      "ĠÐ¿ÑĢÐµÑĤ": 6435,
      "Ð½Ð¸ÐµÐ¼": 6436,
      "ĠÐ¾ÑĢÐ³Ð°Ð½Ð¸Ð·Ð¾Ð²Ð°Ð½": 6437,
      "ĠÑĤÐµÐ»ÐµÐºÐ°Ð½": 6438,
      "ÑĢÐ¸Ð³Ð°Ð´Ð°": 6439,
      "ĠÑĤÐµÐ¼Ð¿ÐµÑĢÐ°ÑĤÑĥÑĢÐ°": 6440,
      "ĠÐļÐ¸Ð½": 6441,
      "ĠÐ¾ÐºÑĢÐ°": 6442,
      "ĠÐĵÑĢÐ°Ð¶Ð´Ð°Ð½": 6443,
      "ĠÐ¾ÑģÐ²Ð¾Ð±Ð¾Ð´": 6444,
      "ĠÑĦÑĥÐ½ÐºÑĨÐ¸Ð¸": 6445,
      "Ð°Ð¹Ð´": 6446,
      "ĠÐ¾ÑĤÑĩ": 6447,
      "ĠÐ±Ð¾Ð»ÑĮÑĪÐ¸Ð¼": 6448,
      "ĠÐĿÐµÐ²": 6449,
      "ĠÑĥÐ´Ð¾ÑģÑĤÐ¾ÐµÐ½": 6450,
      "Ð·Ð¸": 6451,
      "ĠÐºÐ½Ð¸Ð³Ñĥ": 6452,
      "Ð¾Ð³Ð¾ÑĢ": 6453,
      "ĠÐ¼Ð°ÑĤÐµÑĢÐ¸Ð°Ð»Ð¾Ð²": 6454,
      "ĠÑģÑĤÐ°Ð´Ð¸Ð¾Ð½": 6455,
      "ĠÐ£Ð´": 6456,
      "ĠÐ¿ÑĢÐµÐ´ÑģÑĤÐ°Ð²Ð¸ÑĤÐµÐ»Ð¸": 6457,
      "ĠÐ±ÐµÐ»Ð¾ÑĢÑĥÑģ": 6458,
      "ĠÑģÐµÐ³Ð¾Ð´Ð½Ñı": 6459,
      "Ð¸Ð»Ð¸Ð·": 6460,
      "ÑĢÐµÐ¶": 6461,
      "ĠÐľÐ¾Ð³": 6462,
      "ĠÐ½Ð¾ÑĩÑĮ": 6463,
      "ĠÐ¾Ð¿ÐµÑĢ": 6464,
      "Ð°Ð½Ð³ÐµÐ»ÑĮ": 6465,
      "ĠÐĳÑĢÑİ": 6466,
      "ĠÑģÐ¿ÑĥÑĤ": 6467,
      "ĠÑģÐ¾ÑĢÐµÐ²Ð½Ð¾Ð²Ð°Ð½Ð¸ÑıÑħ": 6468,
      "ĠÐ¿Ð¾Ð»Ð¸ÑĨÐ¸Ð¸": 6469,
      "ĠÐ¼Ð¸ÑĦ": 6470,
      "ĠÐ±Ð°ÑĤÐ°": 6471,
      "ĠÐĲÐ¼ÐµÑĢÐ¸ÐºÐ°Ð½": 6472,
      "ÑģÑĤÐ²ÐµÐ½Ð½ÑĭÐµ": 6473,
      "ĠÐļÐ¾ÑĤ": 6474,
      "ĠÐ¿ÑĢÐ¾ÑĦÐµÑģÑģÐ¾ÑĢÐ°": 6475,
      "ĠÑģÐ¾ÑģÑĤÐ°Ð²Ð»ÑıÐ»Ð°": 6476,
      "ĠÑģÐµÐ²ÐµÑĢÐ½Ð¾Ð¹": 6477,
      "ĠÐ²ÑħÐ¾Ð´ÑıÑĤ": 6478,
      "ĠÐĴÐ¾Ð¾ÑĢÑĥÐ¶": 6479,
      "ĠÐŁÐµÑĢÐ²ÑĭÐµ": 6480,
      "ĠÑģÐ¾Ð²ÑĢÐµÐ¼ÐµÐ½Ð½Ð¾Ð³Ð¾": 6481,
      "ĠÐĴÐļ": 6482,
      "ĠÐ¿Ð¾ÑħÐ¾Ð¶": 6483,
      "ĠÑĢÐ°Ð¹Ð¾Ð½Ð¾Ð²": 6484,
      "ĠÐ¾ÑħÐ¾ÑĤ": 6485,
      "ĠÐľÐ¸ÑħÐ°Ð¸Ð»Ð°": 6486,
      "ĠÐ½ÐµÐ±Ð¾Ð»ÑĮÑĪÐ¾Ð¹": 6487,
      "Ð¾Ð¸Ñħ": 6488,
      "Ð¸ÑĩÐ½Ð¾Ð¹": 6489,
      "ĠÐ¾Ð±ÑĬÐµÐºÑĤÐ°": 6490,
      "ĠÑĦÐ¸Ð»Ð¸": 6491,
      "ĠÐĳÐ°ÑĪÐº": 6492,
      "ĠÐ´ÐµÑıÑĤ": 6493,
      "ĠÐ·Ð°Ð¼ÐµÑĩ": 6494,
      "ĠÐĴÐ¾ÑĢÐ¾Ð½Ðµ": 6495,
      "ĠÐ°Ð½Ð°Ð»Ð¸Ð·": 6496,
      "ÑĭÐ²Ð°Ð»Ð¾ÑģÑĮ": 6497,
      "ĠÑĢÐ°ÑģÑħÐ¾Ð´": 6498,
      "ĠÐ°ÑĢÑħÐ¸Ð²": 6499,
      "ĠÐºÐ°ÑĢÑĮÐµÑĢÑĭ": 6500,
      "ĠÐļÐ¸ÑĤÐ°Ð¹": 6501,
      "ĠÑģÐºÐ»Ð°Ð´": 6502,
      "ĠÑħÑĥÐ´Ð¾Ð¶Ð½Ð¸ÐºÐ¾Ð²": 6503,
      "ĠÐĽÐ°ÑĤÐ²": 6504,
      "ov": 6505,
      "ĠÐ²ÑģÐ»ÐµÐ´": 6506,
      "ĠÐľÐ¾Ð»Ð¾Ð´": 6507,
      "ĠÐĺÐ²Ð°Ð½Ð°": 6508,
      "40": 6509,
      "ĠÐ¸ÑģÐ¿Ð¾Ð»ÑĮÐ·ÑĥÑİÑĤÑģÑı": 6510,
      "ĠÐ½ÐµÐ¾Ð´Ð½Ð¾ÐºÑĢÐ°ÑĤÐ½Ð¾": 6511,
      "ĠÐ¼ÐµÑģÑĤÐ½Ð¾ÑģÑĤÐ¸": 6512,
      "ĠÐ½Ð°Ð·Ð²Ð°Ð½": 6513,
      "ĠÐ»ÐµÑĤÐ¾Ð¼": 6514,
      "ĠÑĤÐ°ÐºÐ¾Ð³Ð¾": 6515,
      "Ð»ÑİÐ±": 6516,
      "ĠÐ¿Ð°ÑĢÐº": 6517,
      "ĠÑįÐºÑģÐ¿ÐµÑĢÑĤ": 6518,
      "ĠÐĽÐµÑģ": 6519,
      "ĠÐĳÐ°Ð±": 6520,
      "ĠÐľÐµÐºÑģ": 6521,
      "ĠÐĴÑģÐµÐ¼": 6522,
      "ĠÑģÐ»ÑĥÑĩÐ°ÑıÑħ": 6523,
      "ĠÑĦÐ°ÐºÑĥÐ»ÑĮÑĤÐµÑĤÐ°": 6524,
      "ĠÐ¿ÑĢÐ¾ÑħÐ¾Ð´Ð¸Ð»": 6525,
      "ÑĨÐµÐ¿": 6526,
      "Ð¾ÑĢÐµÑĩ": 6527,
      "ĠÐĳÐ¾Ð¶": 6528,
      "ĠÐļÐ»Ð¸Ð¼": 6529,
      "ĠÐ°Ð²ÑĤÐ¾Ð±ÑĥÑģ": 6530,
      "Ð»Ð»Ñİ": 6531,
      "ÐµÐ¼Ð¾Ð½": 6532,
      "ĠÐ¿Ð¾Ð»Ð¸ÑĤÐ¸ÑĩÐµÑģÐºÐ¸Ð¹": 6533,
      "ĠÑİÐ¶Ð½Ð¾Ð¹": 6534,
      "ÑĢÐ¾Ð»": 6535,
      "ÐµÑģÐ¾ÑİÐ·": 6536,
      "Ð°Ð»ÐµÐ¹": 6537,
      "ĠÐ¿Ð¾ÑĩÑĤÐ¾Ð²": 6538,
      "ĠÐ½Ð°ÑĨÐ¸Ð¾Ð½": 6539,
      "ĠÐ¡Ð°ÑĢÐ°ÑĤ": 6540,
      "ĠÐĹÐ°Ð½Ð¸Ð¼": 6541,
      "ĠÐ±Ð°Ð½Ðº": 6542,
      "Ð°ÐºÐ¾Ð¼": 6543,
      "ĠÐ½Ð¾Ð²ÑĥÑİ": 6544,
      "ĠÐķÐ²Ð³ÐµÐ½Ð¸Ð¹": 6545,
      "ĠÐ¾ÑĤÐ´ÐµÐ»ÑĮÐ½ÑĭÑħ": 6546,
      "ĠÐĴÐĴÐ¡": 6547,
      "ĠÐ¾Ð±ÑīÐµÐ³Ð¾": 6548,
      "ĠÑģÐºÐ»Ð¾Ð½": 6549,
      "ÐµÑĤÑĢÐ¾Ð²": 6550,
      "ĠÐĵÐ°Ð·": 6551,
      "ĠÐ½Ð°ÑħÐ¾Ð´Ð¸Ð»Ð¸ÑģÑĮ": 6552,
      "ĠÑĩÑĥÐ²ÑģÑĤÐ²": 6553,
      "Ð¸ÑĢÑĥÑİÑĤ": 6554,
      "ĠÐ¡ÑĤÐ°Ð½Ð¸ÑģÐ»Ð°Ð²": 6555,
      "Ð°ÑĤÐµÐ»ÑĮÐ½ÑĭÐ¹": 6556,
      "ĠÐ·Ð°ÐºÑĢÐµÐ¿": 6557,
      "ĠÐ¿ÑĢÐµÐ´Ð»Ð¾Ð¶Ð¸Ð»": 6558,
      "ÑĬÑĳÐ¼": 6559,
      "ĠÐ¥Ð°Ð½": 6560,
      "ĠÑģÐ¾Ð·Ð´Ð°Ð½Ð°": 6561,
      "ĠÑĥÐ³Ð¾Ð»Ð¾Ð²": 6562,
      "ĠÑĦÐ¾ÑĢÑĤ": 6563,
      "ĠÐ¿Ð¾ÐºÐ¸Ð½ÑĥÐ»": 6564,
      "ÐĿÐł": 6565,
      "ĠÐĶÐµÐ¹ÑģÑĤÐ²": 6566,
      "ĠÐ¢Ð²ÐµÑĢ": 6567,
      "ĠÐ°ÐºÑĤÑĢÐ¸ÑģÐ°": 6568,
      "ÐºÐµÑĢ": 6569,
      "ĠÐ½Ð°Ð´Ð¿": 6570,
      "ĠÐľÑĭ": 6571,
      "ĠÐ±Ð»Ð°": 6572,
      "ĠÑģÑĢÐµÐ´Ð½ÐµÐ¼": 6573,
      "Ð²Ð¸Ð´Ð°": 6574,
      "ĠÐ¼Ð¸Ð»": 6575,
      "ĠÑģÐºÑĥÐ»ÑĮÐ¿ÑĤ": 6576,
      "ĠÐ¾ÑĤÐ½Ð¾ÑĪÐµÐ½Ð¸Ð¹": 6577,
      "Ð½Ð¾Ðº": 6578,
      "ĠÐ´Ð²Ð¾Ð¹": 6579,
      "ĠÐ¡Ð¿Ðµ": 6580,
      "ĠÐ±Ð°ÑĤÐ°Ð»ÑĮÐ¾Ð½": 6581,
      "ĠÑģÐ¾ÑģÑĤÐ¾ÑıÐ»": 6582,
      "ĠÐ²Ð¾Ð·Ð´ÐµÐ¹ÑģÑĤÐ²": 6583,
      "ĠÐ²ÑģÑĤÑĢÐµÑĩÐ°ÐµÑĤÑģÑı": 6584,
      "Ð¸ÑĦÐ¸ÐºÐ°ÑĨÐ¸Ð¸": 6585,
      "ĠÐ±Ð°ÑĤÐ°Ð»ÑĮÐ¾Ð½Ð°": 6586,
      "Ð¸Ð²Ð°Ð½Ð¸Ðµ": 6587,
      "ÑĭÑĩÐ°Ð¹": 6588,
      "Ð¾Ð¾Ð±ÑĢÐ°Ð·": 6589,
      "ÐµÐ½ÑĨÐ¸Ð¸": 6590,
      "ĠÐ¾ÑĢÐ³Ð°Ð½Ð¸Ð·Ð°ÑĨÐ¸Ð¹": 6591,
      "ĠÐ±Ð»": 6592,
      "Ġ41": 6593,
      "ĠÑĥÐ³ÑĢÐ¾Ð·": 6594,
      "ĠÐ´Ð¸ÑģÑĨÐ¸Ð¿": 6595,
      "ÑĩÐ¸Ð½Ñĭ": 6596,
      "Ð»ÐµÐ½Ð½Ð¾Ð¹": 6597,
      "ĠÐ¿Ð¾Ð»ÑĥÑĩÐµÐ½Ð¸Ñı": 6598,
      "ĠÐ¿ÑĢÐµÐ¼Ð¸Ñİ": 6599,
      "ĠÑģÐ¾ÑĨÐ¸Ð°Ð»Ð¸ÑģÑĤ": 6600,
      "ĠÐ¿Ð¾Ð»ÑĥÐ¾ÑģÑĤ": 6601,
      "ĠÐºÐ¾Ð¼Ð°Ð½Ð´Ð¸ÑĢÐ¾Ð¼": 6602,
      "ĠÑħÐ°ÑĢÐ°ÐºÑĤÐµÑĢÐ¸ÑģÑĤ": 6603,
      "Ð¾Ð·Ð½": 6604,
      "ĠÐ´ÐµÐ¼Ð¾Ð½ÑģÑĤ": 6605,
      "ĠÐ¡Ð²ÑıÑĤÐ¾Ð¹": 6606,
      "ÑĮÐµÑĤ": 6607,
      "ĠÐĶÐ·": 6608,
      "ĠÑĨÐ¸Ðº": 6609,
      "ĠÑģÐ°Ð¼ÑĭÐ¹": 6610,
      "ĠÐ£ÑĤ": 6611,
      "ĠÐ±Ð¾Ð¼Ð±Ð°ÑĢÐ´Ð¸ÑĢÐ¾Ð²": 6612,
      "ÑıÐ½ÑĥÑĤ": 6613,
      "ĠÑģÑĤÐ°": 6614,
      "ĠÐĲÐ´Ð¼Ð¸Ð½Ð¸ÑģÑĤÑĢÐ°ÑĤÐ¸Ð²Ð½ÑĭÐ¹": 6615,
      "ĠÑĥÐ¿ÑĢÐ°Ð²Ð»Ñı": 6616,
      "ĠÐłÑĥÐ´": 6617,
      "ÑĢÐ°Ð¼Ð¸": 6618,
      "ort": 6619,
      "ĠÐļÐ°Ð¶Ð´": 6620,
      "ĠÐ»ÑĥÑĩÑĪÐ¸Ð¹": 6621,
      "ĠÑĦÐµÐ´ÐµÑĢÐ°Ð»ÑĮ": 6622,
      "ĠÐ¿ÐµÑģÐ½Ñı": 6623,
      "Ð¾Ð»Ð¾Ð³Ð¸ÑĩÐµÑģÐºÐ¾Ð¹": 6624,
      "ĠÐĲÐ¡Ð¡Ðł": 6625,
      "ÑĳÐ½Ð½ÑĭÐ¼Ð¸": 6626,
      "ĠÐ¯Ð²Ð»ÑıÐµÑĤÑģÑı": 6627,
      "ĠÐ¿Ð¾Ð²ÑĢÐµÐ¶Ð´": 6628,
      "ĠÐŀÑĢÐ³Ð°Ð½": 6629,
      "ĠÐ¿ÑĢÐ¸ÑĩÑĳÐ¼": 6630,
      "ĠÑĤÐµÐ»ÐµÑĦ": 6631,
      "ĠÐ¿Ð¾ÑıÐ²Ð¸Ð»Ð°ÑģÑĮ": 6632,
      "ĠÐ´Ð¾Ð±ÑĢÐ¾Ð²Ð¾Ð»ÑĮ": 6633,
      "ĠÐ°ÑįÑĢÐ¾Ð¿Ð¾ÑĢÑĤ": 6634,
      "ĠÐĴÐ¸Ð´": 6635,
      "ĠÑĦÐ¾Ð½Ð´": 6636,
      "ĠÐŁÐ¾Ð»ÑĮÑĪÐ¸": 6637,
      "ĠÐ³Ð¾ÑĢÑĭ": 6638,
      "ĠÐļÑĥÐ±Ð¾Ðº": 6639,
      "ĠÐ¼ÑĥÐ½Ð¸ÑĨÐ¸Ð¿Ð°Ð»": 6640,
      "ĠÐ¿Ð»Ð¾Ñħ": 6641,
      "ĠÑħÐ¾ÐºÐºÐµ": 6642,
      "ĠÐ¿ÑĢÐ¸Ð²ÐµÐ´": 6643,
      "ĠÐ´Ð¾ÐºÑĥÐ¼": 6644,
      "ĠÐ¼ÐµÐ¼Ð¾ÑĢÐ¸": 6645,
      "ÐµÑĢÑģÐºÐ¸Ð¹": 6646,
      "ĠÐŀÑĤÐµÑĨ": 6647,
      "ĠÐ¸Ð¼ÐµÑĤÑĮ": 6648,
      "ĠÐ¿Ð¾ÑģÑĤÐµÐ¿ÐµÐ½Ð½Ð¾": 6649,
      "ĠÐ¿ÑĢÐ¸Ð²Ð¾Ð´Ð¸ÑĤ": 6650,
      "ĠÐ¸Ð³ÑĢÐ¾ÐºÐ¾Ð²": 6651,
      "ĠÐ¡Ð°Ðº": 6652,
      "ĠÐ¿Ð¾Ð»ÑĮÐ·Ñĥ": 6653,
      "ĠÐºÐ¾Ð¼Ð±Ð¸Ð½": 6654,
      "ĠÑĢÐµÐºÑĥ": 6655,
      "ĠÐ¾ÑģÑĤÐ°ÑĤ": 6656,
      "ĠÐłÐµÐ²": 6657,
      "ĠÐºÐ¾Ð½ÑĤÐ¸Ð½": 6658,
      "ĠÐĶÐ¶ÐµÐº": 6659,
      "ÑĢÐµÐ·Ð²ÑĭÑĩÐ°Ð¹": 6660,
      "ĠÐ¾Ð±ÐµÑģÐ¿ÐµÑĩÐµÐ½Ð¸Ñı": 6661,
      "ĠÐ²ÐµÑĢÐ¾ÑıÑĤÐ½Ð¾": 6662,
      "ÐµÐµÑģÑı": 6663,
      "ĠÐ¢Ð°Ð»": 6664,
      "ĠÐ¾ÑĤÐ½Ð¾ÑģÑıÑĤÑģÑı": 6665,
      "ĠÐ¿Ð¾ÐºÑĢÑĭÑĤ": 6666,
      "ĠÐ¾ÑģÑĤÐ°Ð»ÑģÑı": 6667,
      "ĠÐ¸Ð½Ð²ÐµÑģÑĤ": 6668,
      "ĠÐ£Ð·Ð±ÐµÐº": 6669,
      "ĠÐ¡ÑĤÐ¸Ð²": 6670,
      "ĠÐ¿Ð¾ÑıÐ²Ð»ÑıÐµÑĤÑģÑı": 6671,
      "ĠÐ¿Ð¾Ð»ÑĥÑĦÐ¸Ð½": 6672,
      "ÑĥÐ³Ð°": 6673,
      "ĠÐĴÐ»Ð°Ð´Ð¸Ð¼Ð¸ÑĢÐ¾Ð²": 6674,
      "Ð¸ÑīÐ°": 6675,
      "ĠÑĦÐ°ÐºÑĤÐ¸ÑĩÐµÑģÐºÐ¸": 6676,
      "ik": 6677,
      "ĠÐ¿ÑĢÐ¾ÑģÑĮ": 6678,
      "Ð°ÑģÐ¾Ð²": 6679,
      "ĠÐ¸Ð³ÑĢÐ°ÑĤÑĮ": 6680,
      "ĠÐĲÐ½Ð´Ð¶": 6681,
      "Ð¾Ð±Ð½Ð¾Ð²": 6682,
      "ĠÐµÐ¶": 6683,
      "ĠÐ¡Ð¸Ð´": 6684,
      "ĠÑĤÐ¾Ð¿Ð»Ð¸Ð²": 6685,
      "ĠÑĢÐ¾ÑģÑģÐ¸Ð¹ÑģÐºÐ¸Ñħ": 6686,
      "ĠÐ¿ÑĢÐ¸Ð½ÑıÐ»Ð¸": 6687,
      "ĠÐ¾Ð±ÑĬÑıÐ²Ð¸Ð»": 6688,
      "ĠÐ¿ÐµÑģÐµÐ½": 6689,
      "Ð¸ÑĢÑĭ": 6690,
      "ÐºÐ¾Ð²Ð¾Ð¹": 6691,
      "Ð¾ÑĩÐµÑĤ": 6692,
      "ĠÐ»ÑĥÑĩÑĪÐ¸Ð¼": 6693,
      "ĠÐ´Ð¸ÑģÑģÐµÑĢÑĤÐ°ÑĨÐ¸Ñİ": 6694,
      "ĠÐ½Ð°Ð¸Ð¼ÐµÐ½": 6695,
      "Ð°ÑħÐ°ÑĢ": 6696,
      "ĠÐļÐ¾Ð·": 6697,
      "ĠÐ²ÐµÐºÐ¾Ð²": 6698,
      "ÑĢÐµÐ³Ð¸ÑģÑĤÑĢ": 6699,
      "ĠÑĢÐ°Ð·Ð½Ð¾Ð¾Ð±ÑĢÐ°Ð·": 6700,
      "ĠÐĵÐ°": 6701,
      "ĠÐ¡ÑĤÐ°": 6702,
      "ĠÐºÐ¾ÑĢÐ°Ð±Ð»ÐµÐ¹": 6703,
      "ĠÐ°ÑĤÐ¼Ð¾Ñģ": 6704,
      "ĠÐĵÑĢ": 6705,
      "ĠÑĦÑĢÐ°Ð½ÑĨÑĥÐ·ÑģÐºÐ¸Ð¹": 6706,
      "Ð¸Ð»Ð»Ð°": 6707,
      "ÐºÐ°Ñģ": 6708,
      "ĠÑįÑĤÐ°Ð¿Ðµ": 6709,
      "ĠÑĤÑĳÐ¼": 6710,
      "ĠÐ¿Ð¾Ð¿Ð°Ð»": 6711,
      "ÐļÐŀ": 6712,
      "ÑĤÐµÐ·": 6713,
      "ĠÑģÑĩÐ¸ÑĤÐ°ÐµÑĤ": 6714,
      "ĠÑĤÐµÑģÑĤ": 6715,
      "ĠÑģÑĤÐ°Ð±": 6716,
      "ĠÐ¿Ð¾Ð»Ð¸ÑĤÐ¸ÑĩÐµÑģÐºÐ¸Ñħ": 6717,
      "ĠÐºÐ¾Ð¼Ð¼ÐµÑĢÑĩÐµÑģÐº": 6718,
      "ĠÑħÑĢÐ¾Ð½": 6719,
      "ĠÑģÐ¸Ð´": 6720,
      "ĠÑģÐ¾Ð±ÑĭÑĤÐ¸Ñı": 6721,
      "ÑĪÐ°Ð²": 6722,
      "ĠÐ¼ÐµÐ½ÑĮÑĪÐµ": 6723,
      "ĠÑįÐºÑģÐ¿ÐµÑĢÐ¸Ð¼ÐµÐ½ÑĤ": 6724,
      "ĠÐ¾Ð±ÑĢÐ°Ð±Ð¾ÑĤ": 6725,
      "ĠÑĦÑĥÐ½ÐºÑĨÐ¸Ð¾Ð½": 6726,
      "ĠÐĳÐ¾Ð»ÑĮÑĪÐ°Ñı": 6727,
      "ĠAn": 6728,
      "ĠÐ¾ÑĤÐ·": 6729,
      "Ð»ÑĭÑħ": 6730,
      "ĠÐľÐ¾Ð»": 6731,
      "ĠÐ·Ð´Ð°Ð½Ð¸Ð¸": 6732,
      "ĠÐ±ÑĥÐ¼": 6733,
      "ĠÐĲÑģ": 6734,
      "ĠÑĢÐ¾Ð´ÑģÑĤÐ²ÐµÐ½": 6735,
      "ĠÑĩÐ¸Ð½Ð¾Ð²": 6736,
      "ÑĢÐ¸Ð±": 6737,
      "ĠÐ½Ð°Ð·Ð²Ð°Ð»": 6738,
      "ĠÐ³ÐµÑĢÐ¾Ñı": 6739,
      "ĠÐ¿ÑĤÐ¸ÑĨ": 6740,
      "Ð°ÐºÐ¾Ð½": 6741,
      "ĠÐ²ÑħÐ¾Ð´Ð¸Ð»Ð°": 6742,
      "Ð³Ð¾Ð»ÑĮ": 6743,
      "ĠÐĺÑģÑĤÐ¾ÑĢ": 6744,
      "ĠÐ¼Ð¸ÐºÑĢÐ¾": 6745,
      "ĠÑĢÐ°ÑģÐ¿Ð¾ÑĢÑıÐ¶": 6746,
      "ĠÐ¿ÑĢÐ¾ÑĤÐµÐºÐ°ÐµÑĤ": 6747,
      "ĠÑĪÐµÑģÑĤÐ¸": 6748,
      "Ð»Ð°Ð½ÑĤ": 6749,
      "ĠÐŀÑĩ": 6750,
      "ĠÐ°ÑĢÑħÐ¸ÑĤÐµÐºÑĤÑĥÑĢ": 6751,
      "ĠÐ½Ð°Ð¿Ð°Ð´Ð°": 6752,
      "Ð¿Ð°ÑĤ": 6753,
      "ÑĭÐ²Ð°Ð»Ð°": 6754,
      "ĠÑĢÐµÐºÐ¾Ð½ÑģÑĤÑĢÑĥÐº": 6755,
      "ĠÐ¢ÐµÐ»": 6756,
      "Ð¾ÑħÐ¾Ð´": 6757,
      "ĠÐºÐ¾Ð½ÑģÑĤÑĢÑĥÐºÑĤ": 6758,
      "Ġ1000": 6759,
      "Ð°ÑĤÐµÐ»ÑĮÐ½Ð¾Ð³Ð¾": 6760,
      "ĠÑģÐ²ÑıÐ·ÑĮ": 6761,
      "ĠÐĿÐ¾Ð²Ð¾Ð¹": 6762,
      "ĠÑĢÐµÐ³Ð¸Ð¾Ð½Ðµ": 6763,
      "ĠÐºÑĥÐ´Ð°": 6764,
      "ĠÐ¿ÐµÑĢÐµÐ¸Ð¼ÐµÐ½Ð¾Ð²Ð°Ð½": 6765,
      "ĠÑģÐ¾Ð·Ð´Ð°Ð»": 6766,
      "ĠÐĶÐµÑĢÐµÐ²Ð½Ñı": 6767,
      "ĠÑĢÑĥÐºÐ¸": 6768,
      "ĠÑħÐ°ÑĢÐ°ÐºÑĤÐµÑĢÐ¸Ð·": 6769,
      "ĠÑįÐºÑĢÐ°Ð½": 6770,
      "ĠÐĳÑĢÐ°": 6771,
      "ĠÑıÐ´ÐµÑĢ": 6772,
      "ĠÐ¡ÑĭÐ½": 6773,
      "ĠÐŁÐ¾Ð»ÑĥÑĩ": 6774,
      "ÐµÐ¼Ð±": 6775,
      "ĠÐ¸Ð³ÑĢÐ¾ÐºÐ°": 6776,
      "Ð½Ð¸ÑĨÑĥ": 6777,
      "ĠÐĿÐµÐ¿": 6778,
      "Ð³ÑĢÐ°Ð´Ð°": 6779,
      "ĠÐĲÐ½Ð½Ñĭ": 6780,
      "ĠÐŁÐ¾Ð·Ð´Ð½ÐµÐµ": 6781,
      "ĠÑģÑĤÑĢÐµÐ»ÐºÐ¾Ð²Ð¾Ð³Ð¾": 6782,
      "ĠÐľÐ¸Ðº": 6783,
      "Ð¸ÑĢÐ¾Ð²Ð°Ð½Ð½Ð¾Ð³Ð¾": 6784,
      "ĠÑĦÐ°Ð½ÑĤÐ°": 6785,
      "ĠÐ°Ð»ÑĮÐ±Ð¾Ð¼Ð°": 6786,
      "ĠÐ¼Ð¾Ð¼ÐµÐ½ÑĤÐ°": 6787,
      "ĠÐ¨Ð²ÐµÐ¹ÑĨ": 6788,
      "ĠÑģÐ¾Ð¿ÐµÑĢ": 6789,
      "ĠÐ·Ð°Ð½Ð¸Ð¼Ð°ÑĤÑĮÑģÑı": 6790,
      "ĠÐĿÐ¾Ð²ÑĭÐ¹": 6791,
      "ĠÑĢÐ¾Ð´Ð¸Ð»Ð°ÑģÑĮ": 6792,
      "ĠÑĦÐ¸Ð½Ð°Ð½Ñģ": 6793,
      "ĠÐ¾ÑĢÐºÐµÑģÑĤ": 6794,
      "ĠÑĢÐµÐ·ÑĥÐ»ÑĮÑĤÐ°ÑĤÐ°Ð¼": 6795,
      "ĠÐ§Ð¶": 6796,
      "ĠÐĵÐ°Ð±": 6797,
      "ÐµÑģÑĤÐµÑĢ": 6798,
      "ĠÐ½ÑĥÐ¶Ð½Ð¾": 6799,
      "ĠÐ£ÑĩÐ°ÑģÑĤÐ½Ð¸Ðº": 6800,
      "ĠÐ¡ÑĤÑĢÐ¾": 6801,
      "ĠÐ¾ÑĩÐºÐ¾Ð²": 6802,
      "ĠÑģÐ¾ÑİÐ·Ð°": 6803,
      "ĠÐļÐ¾Ð¿": 6804,
      "ĠÐ¿ÑĢÐ¾ÑĨÐµÑģÑģÐµ": 6805,
      "ĠÐ¿Ð»Ð¾Ð´": 6806,
      "ĠÐºÐ°ÐºÐ¾Ð¹": 6807,
      "ĠÐ±Ð¸ÑĤÐ²Ðµ": 6808,
      "Ġl": 6809,
      "Ð¸ÑĢÐ¾Ð²Ð°Ð½Ð¸Ð¸": 6810,
      "ĠÐºÐ¾Ð¼Ð¿Ð»ÐµÐºÑģÐ°": 6811,
      "Ð½Ð°ÑģÑĤ": 6812,
      "ĠÐĽÑİÐ´": 6813,
      "Ð¼ÐµÐ½Ð°": 6814,
      "ĠÐ¿ÐµÑĤ": 6815,
      "Ġ1913": 6816,
      "ĠÑĥÑģÑĤÐ°Ð½Ð°Ð²Ð»Ð¸Ð²": 6817,
      "ĠÐ±ÑİÐ´Ð¶": 6818,
      "ĠÐľÐ°Ñģ": 6819,
      "ĠÐ¿ÑĢÐµÐ²ÑĢÐ°Ñī": 6820,
      "ĠÐ±ÑĥÐ´ÑĥÑĩÐ¸": 6821,
      "ĠÐ¿ÑĢÐµÐ¼Ð¸Ñı": 6822,
      "ĠÑģÐµÑĢÐ¶": 6823,
      "ÑıÑīÐ¸Ð¹": 6824,
      "ĠÐ½ÐµÐ¿Ð¾ÑģÑĢÐµÐ´ÑģÑĤÐ²ÐµÐ½Ð½Ð¾": 6825,
      "ĠÑħÐ°Ð½": 6826,
      "ĠÐ¿Ð¾ÑĤÐµÐ½": 6827,
      "ĠCom": 6828,
      "ĠÐ¼ÐµÑģÑĤÐ°Ñħ": 6829,
      "ÑĢÐ¾Ð¿Ð¾Ð»": 6830,
      "ĠÐ¾Ð·Ð½Ð°ÑĩÐ°ÐµÑĤ": 6831,
      "ÑĪÐµÐ¼Ñĥ": 6832,
      "Ð°ÑĤÐµÐ»ÑıÐ¼Ð¸": 6833,
      "ĠÐºÑĢÐµÐ¹Ñģ": 6834,
      "ĠÐ¾ÑĤÑģÑĤÐ°Ð²ÐºÑĥ": 6835,
      "ĠZ": 6836,
      "ĠÐ¡Ð¾ÐµÐ´Ð¸Ð½": 6837,
      "Ð¾Ð»Ð¾Ð³Ð¸ÑĩÐµÑģÐºÐ¾Ð³Ð¾": 6838,
      "ĠÐ¿ÐµÑĢÐµÐ²Ð¾Ð·": 6839,
      "ĠÑģÑħÐ¾Ð´": 6840,
      "Ð¾ÑĤÐ¾Ñĩ": 6841,
      "ĠÐłÐµÐ¹": 6842,
      "ĠÐ¾ÑĤÑĢÐ¸ÑĨ": 6843,
      "ĠÐĽÐ¾Ñģ": 6844,
      "ĠÐ´Ð¾ÑĢÐ¾Ð³Ðµ": 6845,
      "Ð¸ÑĤÐ¾Ð¼": 6846,
      "ĠÐľÐ¾": 6847,
      "ĠÐ±Ð¾Ð»ÑĮÑĪÐ¸Ðµ": 6848,
      "ĠÑĤÑĢÐµÑħ": 6849,
      "ĠÐ·Ð°Ð²Ð¾ÐµÐ²Ð°Ð»": 6850,
      "ĠÐłÑıÐ·": 6851,
      "ĠÐ½Ð°Ð¿Ð°Ð´": 6852,
      "ĠÐŁÑĢÐµÐ´ÑģÐµÐ´": 6853,
      "ĠÐ¿ÑĢÐµÐ´Ð¿Ð¾Ñĩ": 6854,
      "ĠÐĶÐ¸Ð½Ð°Ð¼Ð¾": 6855,
      "ĠÐ¸Ð½ÑĤÐµÑĢÐ²ÑĮÑİ": 6856,
      "ÐµÑĢÑĭÐ²": 6857,
      "ĠÐ¾ÑĤÐ¼ÐµÐ½": 6858,
      "ĠÐµÐ²ÑĢÐµÐµÐ²": 6859,
      "ab": 6860,
      "Ð¾Ð»Ð³Ð¾": 6861,
      "ĠÐ°Ð²ÑĤÐ¾Ð´": 6862,
      "ĠÐºÐ¾Ð½ÑģÑĤÐ¸ÑĤÑĥ": 6863,
      "ÑĨÐ¸ÑıÐ¼Ð¸": 6864,
      "ĠÑĥÑĤÐ²ÐµÑĢÐ¶": 6865,
      "ĠÐ³ÑĢÐ°Ð½Ð¸ÑĨ": 6866,
      "ĠÑįÐ»ÐµÐ¼ÐµÐ½ÑĤ": 6867,
      "ĠÐ¼Ð¾ÑĤ": 6868,
      "ĠÐ³Ð¾ÑģÑĥÐ´Ð°ÑĢÑģÑĤÐ²ÐµÐ½Ð½ÑĭÑħ": 6869,
      "ĠÑģÑģÑĭÐ»": 6870,
      "ÐµÐ²Ð¾Ð³Ð¾": 6871,
      "ÐºÐ¾Ð²ÑĭÑħ": 6872,
      "Ð¾ÑģÐ½Ð¾Ð²": 6873,
      "ĠÐºÐ°ÑĦÐµÐ´ÑĢÑĭ": 6874,
      "ĠÐĳÑĢÐ¾Ð½": 6875,
      "ĠÐ·Ð¾Ð»Ð¾ÑĤÐ¾Ð¹": 6876,
      "ÐµÐ½ÑĨÐµÐ²": 6877,
      "ĠÐ¡Ð¾Ð²ÐµÑĤÑģÐºÐ¾Ð¹": 6878,
      "ĠÐ²Ð°Ð»": 6879,
      "ĠÑģÐ¾Ð·Ð´Ð°ÑĤÑĮ": 6880,
      "ĠÐ±Ð°ÑģÐº": 6881,
      "ĠÐĶÐ°Ð³": 6882,
      "ÐµÑģÐ»Ð°Ð²": 6883,
      "ĠÐ±Ð¾": 6884,
      "ĠÐ²ÑĭÑģÐ¾ÐºÐ¾Ð¹": 6885,
      "ĠÑĤÑĢÐ°Ð¼": 6886,
      "ÑĦÐ¾ÑĢÐ´": 6887,
      "ĠÑįÐ²Ð°ÐºÑĥ": 6888,
      "ĠÐłÑĥÑģÑģÐºÐ¾Ð¹": 6889,
      "ĠÑĦÐµÑģÑĤÐ¸Ð²": 6890,
      "ĠÐ¿Ð¾Ð»Ð¸ÑĨÐµÐ¹": 6891,
      "ĠÐ²ÑĭÑģÑĤÑĥÐ¿Ð»ÐµÐ½Ð¸Ñı": 6892,
      "ĠÐĹÐ°Ð±": 6893,
      "ĠÐ¿ÑĢÐ¾Ð²Ð¾Ð·Ð³": 6894,
      "ĠÐ½Ð¾Ð²ÑĭÐ¼": 6895,
      "Ð±Ð°ÑĤ": 6896,
      "ĠÐ·ÑĥÐ±": 6897,
      "ĠÑįÑĦ": 6898,
      "Ð¾Ð¿Ð¸Ñģ": 6899,
      "ĠÐ´Ð²Ð¾ÑĢÐ°": 6900,
      "ĠÑĤÐµÐ»ÐµÐ²Ð¸Ð·": 6901,
      "ĠÐ§ÐµÑĢÐ½": 6902,
      "ĠÐ°ÑĥÐ´": 6903,
      "ĠVI": 6904,
      "ĠÐĺÐ½ÑģÑĤÐ¸ÑĤÑĥÑĤÐ°": 6905,
      "ÑģÑĤÑĢÐµÐ»": 6906,
      "ÐµÐ½ÑģÐºÐ¾Ð¼": 6907,
      "ĠÐºÐ¾Ð¼Ð¿ÑĮÑİÑĤÐµÑĢ": 6908,
      "Ġ58": 6909,
      "ÐĴÐŀ": 6910,
      "ĠÐ³ÑĢÐµÐ±": 6911,
      "ĠÐŁÑĢÐµÐ´ÑģÑĤÐ°Ð²": 6912,
      "ÑĦÐ¸Ð¼": 6913,
      "ĠÑĨÐµÐ¿": 6914,
      "Ð¾Ð´Ð°ÑĢ": 6915,
      "ĠÐŁÐµÑĢÐ²Ð¾Ð½Ð°ÑĩÐ°Ð»ÑĮÐ½Ð¾": 6916,
      "ĠÐ´Ð¾Ð»Ð¶Ð½Ð¾": 6917,
      "ĠÐ°Ð²Ð¸Ð°ÑĨÐ¸Ð¸": 6918,
      "Ð¼Ð°Ñħ": 6919,
      "ĠÐºÑĢÐµÐ¿Ð¾ÑģÑĤÐ¸": 6920,
      "ĠÐºÐ¾ÑĢÐ°Ð±Ð»ÑĮ": 6921,
      "ĠÐ£ÐºÑĢÐ°Ð¸Ð½Ðµ": 6922,
      "Ð°ÑĳÑĤÑģÑı": 6923,
      "Ð¾Ð±ÑĢ": 6924,
      "ĠÐķÐ»Ð¸Ð·": 6925,
      "ĠMar": 6926,
      "ĠÐ²Ð¾Ð·Ð¾Ð±Ð½Ð¾Ð²": 6927,
      "ĠÐ¾ÑĤÐºÐ°Ð·Ð°Ð»ÑģÑı": 6928,
      "ÐµÐ²ÑĭÐ¼": 6929,
      "ĠÐĺÑģÐº": 6930,
      "ĠÐ´Ð¸Ð°Ð»": 6931,
      "ĠÑģÑĤÑĢ": 6932,
      "ĠÐ½Ð°Ð·ÑĭÐ²Ð°ÐµÑĤÑģÑı": 6933,
      "ĠÐ»Ð¾ÑĪ": 6934,
      "ĠÐĺÐ¾Ñģ": 6935,
      "ĠÑĤÐµÐ»ÐµÑģ": 6936,
      "ĠÐļÐ°Ð¹": 6937,
      "ĠÑĩÐ°ÑģÑĤÐ¸ÑĩÐ½Ð¾": 6938,
      "Ġ53": 6939,
      "Ð·ÐµÐ¼": 6940,
      "Ð»Ð¸Ð½Ñĭ": 6941,
      "ĠÐ·Ð°Ð¿ÑĢÐµÑĤ": 6942,
      "ÑĥÐ¿ÑĢÐ°Ð²": 6943,
      "ĠÐ¡Ð²ÐµÑĢÐ´": 6944,
      "ĠÐľÐ¾Ð»Ð´": 6945,
      "ĠÐŀÑģÑĤÑĢÐ¾Ð²": 6946,
      "Ð¸ÑĤÐµÐ»ÑıÐ¼": 6947,
      "ÑĥÐ½Ðµ": 6948,
      "ĠÐºÐ¾Ð¼Ð°Ð½Ð´Ð¾Ð¹": 6949,
      "Ð»Ð¸Ñģ": 6950,
      "ÑĥÐ±ÐµÐ¶": 6951,
      "ĠÑģÑĤÑĢÐ°Ñħ": 6952,
      "Ð°ÐºÑĤÐ¸Ð²": 6953,
      "ĠÐ¼Ð¸Ð½Ð¸ÑģÑĤÐµÑĢ": 6954,
      "ĠÑĦÐ°Ñģ": 6955,
      "Ð°Ð½Ð½ÑĭÐ¼": 6956,
      "Ġ1912": 6957,
      "ĠÐ´ÐµÐ½ÑĮÐ³Ð¸": 6958,
      "ĠÐºÐ¾Ð½ÐºÑĢÐµÑĤ": 6959,
      "Ð¸Ð¼ÑģÑı": 6960,
      "ĠÑİÐ½Ð¸": 6961,
      "ĠÐ°Ð²ÑĤÐ¾ÑĢÐ°": 6962,
      "ĠÐ¾ÑĤÑĢÑıÐ´Ð°": 6963,
      "ĠÑĤÐµÐ°ÑĤÑĢÐµ": 6964,
      "Ð¾ÑģÑĤÐ°Ð½": 6965,
      "ÑģÐ¿Ð¾ÑĢÑĤ": 6966,
      "Ð½ÑĥÐ»": 6967,
      "Ð¾ÐºÐ¾Ð»ÑĮ": 6968,
      "ÑĢÑĥÐµÑĤ": 6969,
      "ĠÐ¿ÑĢÐ¸Ð±Ð»Ð¸Ð·": 6970,
      "ĠÐ¸Ð·Ð±Ð¸ÑĢÐ°ÑĤÐµÐ»ÑĮ": 6971,
      "Ġ49": 6972,
      "ĠÑĦÐ¾ÑĤÐ¾Ð³ÑĢÐ°ÑĦ": 6973,
      "ĠÐ´Ð¸Ð°Ð¼ÐµÑĤ": 6974,
      "ĠÐĴÐ°Ð»ÐµÐ½ÑĤ": 6975,
      "ÑĭÐºÐ°": 6976,
      "ĠÑĢÐ°ÑģÑĤÐ²": 6977,
      "ÑĥÑĪÐºÐ°": 6978,
      "Ð¾Ð²ÑģÐºÐ°Ñı": 6979,
      "ĠÐ¿Ð¾Ð»Ð½Ð¾Ð¼Ð¾Ñĩ": 6980,
      "ĠÐ¾ÑĦÐ¸ÑĨÐµÑĢ": 6981,
      "ĠÐŀÐ±Ð»Ð°Ð´": 6982,
      "ĠÐ¿ÑĢÐµÐ¿": 6983,
      "ÑĩÐ¶": 6984,
      "ÑĭÑĪÐµ": 6985,
      "ĠÑģÐºÐ¾Ð½ÑĩÐ°Ð»ÑģÑı": 6986,
      "ĠRe": 6987,
      "ĠÐºÐ¾Ð»Ð»ÐµÐ³": 6988,
      "ÑįÑĤÐ°Ð¶": 6989,
      "Ð¸Ð¹ÑģÐºÐ¾Ð¼": 6990,
      "Ð¸Ð²Ð°ÑĤÑĮÑģÑı": 6991,
      "ĠÐ¡ÑĤÐ°Ð²": 6992,
      "ĠÐĿÐ°ÑĩÐ¸Ð½": 6993,
      "Ð¾Ð»Ð¾Ð³Ð¸ÑĩÐµÑģÐºÐ¸Ð¹": 6994,
      "ĠÐ¸Ð¼ÑĥÑīÐµÑģÑĤÐ²": 6995,
      "ĠÐºÐ¾Ð¼Ð¿Ð¾Ð·Ð¸ÑĤ": 6996,
      "ĠÐĳÐ¸ÑĢ": 6997,
      "ĠÐ»Ð¸Ð½ÐµÐ¹": 6998,
      "ĠÐ·Ð°ÑĢÐµÐ³Ð¸ÑģÑĤÑĢ": 6999,
      "ĠÑĢÑĥÐºÐ¾Ð²Ð¾Ð´ÑģÑĤÐ²Ð¾": 7000,
      "ĠÑģÐ¿ÐµÑĨÐ¸Ð°Ð»Ð¸Ð·": 7001,
      "Ð»ÐµÐ½Ð´": 7002,
      "ĠÐ³Ð¾ÑĢÐ¾Ð´Ð°Ñħ": 7003,
      "ine": 7004,
      "ĠÐ³ÐµÑĢÐ¾Ð¹": 7005,
      "ĠÑģÐ¾Ð·ÑĭÐ²Ð°": 7006,
      "ÑĳÑĢÑĤ": 7007,
      "ĠÐ³ÑĢÐ°Ð¼Ð¾ÑĤ": 7008,
      "ĠÑĤÑĢÐµÐ½ÐµÑĢÐ°": 7009,
      "ĠÐºÐ¾ÑĢÑĢÐµÑģÐ¿": 7010,
      "ĠÐ¿Ð¾ÑģÑĳÐ»ÐºÐµ": 7011,
      "ĠÑĪÑĤÑĥÑĢÐ¼": 7012,
      "ĠÐ¼Ð½Ðµ": 7013,
      "ĠÐ°ÑįÑĢÐ¾Ð´": 7014,
      "ÐĿÐļ": 7015,
      "Ð°ÑĢÐ¸Ñı": 7016,
      "ĠÐ·ÐµÐ¼Ð»Ðµ": 7017,
      "ĠÐĴÑģÐµÐ¼Ð¸ÑĢ": 7018,
      "ess": 7019,
      "ĠÐ¿Ð¾Ð»Ð°Ð³": 7020,
      "ĠÑħÑĥÑĤ": 7021,
      "ĠÐĽÐ¾Ð½Ð´Ð¾Ð½Ðµ": 7022,
      "ĠÐĹÐ¸Ð¼": 7023,
      "ĠÑģÐ¿ÐµÑĨ": 7024,
      "ĠÐļÐ°ÑĢÐ»Ð°": 7025,
      "Ġ1910": 7026,
      "ĠÑģÐµÐ²": 7027,
      "ĠÐŃÐ´Ñĥ": 7028,
      "ĠÐ¿ÑĢÐ¾Ð·Ð²": 7029,
      "ĠÐļÑĢÐ°": 7030,
      "ĠÐ¡Ð²ÐµÑĢÐ´Ð»Ð¾Ð²": 7031,
      "Ð¾Ð½Ð³": 7032,
      "ĠÐ³ÑĢÑĥ": 7033,
      "ĠÐ±Ð»Ð¸Ð¶Ð°Ð¹": 7034,
      "Ð¸Ð²ÑĪÐµÐ³Ð¾": 7035,
      "ĠÐ¢ÑĥÑĢÐº": 7036,
      "ĠÑģÐ¾Ð²ÐµÑĢÑĪÐ¸Ð»": 7037,
      "ĠÐ´ÐµÐ¿ÑĥÑĤÐ°ÑĤ": 7038,
      "ĠÐµÑīÐµ": 7039,
      "ĠÐŁÑĢÐµÐ·Ð¸Ð´ÐµÐ½ÑĤÐ°": 7040,
      "ĠÑģÑĥÐ»ÑĤ": 7041,
      "ant": 7042,
      "ĠÑģÐ¾Ð¿ÑĢÐ¾Ð²Ð¾Ð¶Ð´": 7043,
      "Ð¾Ð¿ÑĢÐ¾": 7044,
      "ĠÐ¸Ð·Ð´ÐµÐ»": 7045,
      "ĠÐ½ÐµÐ¼ÐµÑĨÐºÐ¸Ð¹": 7046,
      "Ð¾Ð·ÐµÑĦ": 7047,
      "ĠÐĶÑİ": 7048,
      "ĠÐ´Ð¸Ðº": 7049,
      "ri": 7050,
      "ĠÑĤÑĢÐµÑĤÐ¸Ð¹": 7051,
      "ÐµÐ½ÑģÑĤÐ²": 7052,
      "ĠÐ¡Ð»Ð°Ð²Ñĭ": 7053,
      "ĠÐ³ÑĢÐ°Ð¶Ð´Ð°Ð½ÑģÐºÐ¾Ð¹": 7054,
      "ĠÐŁÐµÑĤÑĢ": 7055,
      "ĠÐºÐ½ÑıÐ·ÑĮ": 7056,
      "Ð¸Ð²Ð°Ð»Ñı": 7057,
      "ĠSp": 7058,
      "Ð¸Ð½Ð³ÑĢÐ°Ð´": 7059,
      "ÑĢÐ¸ÑĦ": 7060,
      "ĠÐŁÐµÑĤÑĢÐ¾Ð²Ð¸Ñĩ": 7061,
      "ĠÐŁÐ°Ð¿": 7062,
      "ĠÐ±Ð¾Ð»ÑĮÑĪÐµÐ¹": 7063,
      "ĠÑģÑİÐ¶ÐµÑĤ": 7064,
      "ĠÐ´Ð¸Ð°Ð³": 7065,
      "Ġ1916": 7066,
      "ĠÐ·Ð´ÑĢÐ°Ð²": 7067,
      "ĠÐ£ÑĩÐ°ÑģÑĤÐ²": 7068,
      "ĠÐ±Ð°ÑģÑģÐµÐ¹Ð½Ð°": 7069,
      "Ð°Ð¼ÐµÑĢÐ¸ÐºÐ°Ð½": 7070,
      "ĠÑĢÐ¾Ð¼Ð°Ð½Ð°": 7071,
      "ĠÐŀÑĤÐºÑĢÑĭÑĤ": 7072,
      "ĠÑģÐ²ÑıÐ·Ð°Ð½Ð¾": 7073,
      "ĠÐ¾Ð±ÑīÐ¸Ð½Ñĭ": 7074,
      "Ð¾Ð½ÐµÑĩ": 7075,
      "ĠÐĶÐ¶ÐµÐ¹": 7076,
      "ĠÐłÐµÐ³": 7077,
      "ĠÐ²Ð¾ÑĪÐ»Ð°": 7078,
      "ĠÐŁÑĢÐ¾ÑĤ": 7079,
      "ĠÐ²ÑĤÐ¾ÑĢÐ¾Ðµ": 7080,
      "ĠÐ³Ð¾ÑģÐ¿Ð¸ÑĤ": 7081,
      "ĠÑģÐ¸Ð»Ð°Ð¼Ð¸": 7082,
      "ĠÑģÐ¾Ð´ÐµÑĢÐ¶Ð¸ÑĤ": 7083,
      "ĠÐľÐµÑģÑĤ": 7084,
      "ĠÐ°Ð²ÑģÑĤÑĢ": 7085,
      "ĠÐ¾ÑģÑĤÑĢÐ¾Ð²Ð¾Ð²": 7086,
      "ĠÐºÐ²Ð°Ð´": 7087,
      "ĠÐ¶ÐµÐ½Ð¸Ð»ÑģÑı": 7088,
      "ud": 7089,
      "ĠÑģÐºÐ¾ÑĢÐ¾ÑģÑĤÑĮ": 7090,
      "ĠÐ¿Ð¾Ð»ÑĥÑĩÐ°ÐµÑĤ": 7091,
      "ĠÐ²Ð¾Ð·Ð´ÑĥÑħ": 7092,
      "Ð¾Ð¾ÑħÑĢÐ°Ð½": 7093,
      "ĠÐ°ÑĤÐ¾Ð¼": 7094,
      "Ð¾ÑĢÐ´Ð¸Ð½": 7095,
      "ĠÐ¦Ð·": 7096,
      "ĠÐ¾Ð±Ð»Ð°ÑģÑĤÐ½Ð¾Ð³Ð¾": 7097,
      "Ð±Ð½": 7098,
      "ĠÐ¿ÑĢÐ¸ÑĢÐ¾Ð´Ñĭ": 7099,
      "ĠÐ¶ÐµÐ½Ñĭ": 7100,
      "ĠÑģÐ»Ð¾Ð²Ð¾": 7101,
      "ĠÐ¿ÑĢÐ¸ÑģÑĤÑĥÐ¿": 7102,
      "ĠÐ¾Ð±ÑĬÑıÑģÐ½": 7103,
      "ĠÐ²Ð¾ÑģÑģÑĤÐ°Ð½Ð¸Ñı": 7104,
      "ĠÑĢÐµÐ¹ÑĤÐ¸Ð½Ð³": 7105,
      "Ð¾Ð²Ð°Ð»Ð¸ÑģÑĮ": 7106,
      "ÐµÐ´ÑĢ": 7107,
      "ĠÐ²ÑĭÑģÑĪÐµÐ¹": 7108,
      "Ġde": 7109,
      "ĠÑģÐ¾Ð²ÑĢÐµÐ¼ÐµÐ½Ð½ÑĭÑħ": 7110,
      "ĠÐłÐĲÐĿ": 7111,
      "ĠAl": 7112,
      "ÑĨÐ²ÐµÑĤ": 7113,
      "ĠÐĵÑĢÐµÑĨÐ¸Ð¸": 7114,
      "ÑĪÑĤÐ°Ð±": 7115,
      "Ð°Ð½ÑģÐºÐ°Ñı": 7116,
      "ĠÐ¤Ð¾ÑĢ": 7117,
      "ÑģÐ¸Ð´": 7118,
      "ĠÐ¿ÑĢÐ°Ð²Ð¾ÑģÐ»Ð°Ð²Ð½Ð¾Ð¹": 7119,
      "ĠÐ°ÑģÑĤÑĢÐ¾Ð½Ð¾Ð¼": 7120,
      "ĠÑĢÐµÑģÐ¿ÑĥÐ±Ð»Ð¸ÐºÐ°Ð½": 7121,
      "ĠÐ»Ð¾Ð¶": 7122,
      "Ð°Ð½Ð¾Ð²Ð¸Ñĩ": 7123,
      "ĠÐ¡ÐµÐ¹": 7124,
      "ĠÑĦÑĥÑĤÐ±Ð¾Ð»Ñĥ": 7125,
      "ĠÐ¿Ð¾ÑĢÐ°Ð¶ÐµÐ½Ð¸Ðµ": 7126,
      "ĠÐ¥ÑĥÐ´Ð¾Ð¶": 7127,
      "ĠÐŀÐ´Ð½Ð°": 7128,
      "ĠÐ²ÐµÐ´Ð¾Ð¼": 7129,
      "ĠÐ¿ÑĢÐµÐ²ÑĭÑĪ": 7130,
      "Ð¸Ð²ÑĪÐ¸ÑħÑģÑı": 7131,
      "ĠÑģÐ¾ÑĢÐµÐ²Ð½Ð¾Ð²Ð°Ð½": 7132,
      "ĠÐŀÐ»Ð¸Ð¼Ð¿Ð¸": 7133,
      "ĠÐ¾Ð´ÐµÐ¶Ð´": 7134,
      "ĠÐ¸Ð»Ð»Ñİ": 7135,
      "ĠÐ²ÐµÑĢÑģÐ¸Ñı": 7136,
      "Ð³Ð¾Ð»": 7137,
      "ĠÑĤÑĢÑĥÐ±": 7138,
      "ĠÐ¿ÐµÑĢÐµÐ´Ð°ÑĩÐ¸": 7139,
      "Ġ56": 7140,
      "ĠÐ¾ÑĢÑĥÐ¶Ð¸Ðµ": 7141,
      "Ð¼Ð¾Ð¹": 7142,
      "ÐµÐ»Ð°Ð½Ð´": 7143,
      "Ð»Ð°Ð¼ÐµÐ½ÑĤÐ°": 7144,
      "ĠÐŁÐµÑĤÐµÑĢÐ±ÑĥÑĢÐ³Ð°": 7145,
      "Ð¾ÑģÑĤÐµÐ¹": 7146,
      "ĠÐ·Ð°ÐºÑĢÑĭ": 7147,
      "ĠÑīÐ¸ÑĤ": 7148,
      "ĠÐ¢ÑĢÐ°Ð½": 7149,
      "ĠÐļÐ°ÑģÑĤ": 7150,
      "Ġ54": 7151,
      "ĠAr": 7152,
      "Ġ62": 7153,
      "ĠÑĢÐ¸ÑģÑĥÐ½": 7154,
      "ĠÐ¿ÑĢÐ¸Ð¾Ð±ÑĢÐµÑĤ": 7155,
      "ĠÐ´Ð¾ÑĪ": 7156,
      "Ġ120": 7157,
      "ĠÑģÐ¾Ð±Ð¾ÑĢ": 7158,
      "Ð½Ð¾ÑģÑĤÑıÐ¼Ð¸": 7159,
      "Ð¸ÑĤÐµÐ»ÑĮÐ½Ð¾Ð¼": 7160,
      "ĠÑĥÑģÐ°Ð´ÑĮ": 7161,
      "ĠÐĴÐ¸ÐºÐ¸": 7162,
      "ĠÐ¡Ñĭ": 7163,
      "ĠÐĹÐµÐ¼Ð»Ð¸": 7164,
      "ÑĢÐ°ÑĤÑĮÑģÑı": 7165,
      "ĠÑģÐ¾Ð±ÑĢÐ°Ð½Ð¸Ñı": 7166,
      "ĠÐ¡ÐµÐ½ÑĤ": 7167,
      "ĠÐºÐ»Ð¸Ð¼": 7168,
      "Ð¸ÑĢÑĥÑĢÐ³": 7169,
      "Ð¸Ð»ÐµÐ¹": 7170,
      "ĠÑĤÑĢÐµÐ±Ð¾Ð²Ð°Ð½Ð¸Ñı": 7171,
      "ĠÐ¿ÑĭÑĤÐ°ÐµÑĤÑģÑı": 7172,
      "ÑįÐ´": 7173,
      "ĠÐľÐµÐ½": 7174,
      "ĠÑģÑĤÐµÐº": 7175,
      "ÑĳÐ¼Ð°": 7176,
      "ĠÑįÐ¿Ð¾ÑħÐ¸": 7177,
      "ĠÐ³Ð¾ÑĢÐ¾Ð´Ð¾Ð¼": 7178,
      "Ð»Ð¸Ð½Ð³": 7179,
      "ĠÐĴÐľ": 7180,
      "ĠÑĢÐµÐ·ÑĥÐ»ÑĮÑĤÐ°ÑĤÑĭ": 7181,
      "ÑĤÐµÑĢÐµÑģ": 7182,
      "ĠÑĤÑĢÐ°Ð½ÑģÐ¿Ð¾ÑĢÑĤÐ°": 7183,
      "ĠÑģÑĢÐ°Ð²Ð½ÐµÐ½Ð¸Ñİ": 7184,
      "ĠÐķÐºÐ°ÑĤÐµÑĢÐ¸Ð½": 7185,
      "ĠÑģÐ°Ð¼Ð¾Ð»ÑĳÑĤÐ°": 7186,
      "ĠÐĴÐµÐ½Ðµ": 7187,
      "ĠÑĤÐ°ÑĤÐ°ÑĢ": 7188,
      "ĠÐĶÐ²Ð°": 7189,
      "ĠÐĲÐ·ÐµÑĢÐ±Ð°Ð¹Ð´Ð¶Ð°Ð½Ð°": 7190,
      "ĠÐĴÐ¾ÑĢ": 7191,
      "ĠÐĿÐ¾Ð²Ð°Ñı": 7192,
      "ĠÐ²Ð¸Ð´Ñĭ": 7193,
      "ĠÐ°ÑĢÑĤÐ¸Ð»Ð»ÐµÑĢÐ¸Ð¹": 7194,
      "ĠÐ²Ð¼": 7195,
      "Ð½Ð¸Ð¼Ð¸": 7196,
      "ĠÐ±ÑĢÐ¸Ð³Ð°Ð´Ð°": 7197,
      "ĠÐ¶Ð¸Ð·Ð½": 7198,
      "ĠÐ¿ÑĢÐ¸ÑĩÐ¸Ð½": 7199,
      "ÐµÐ²Ð½Ð°": 7200,
      "ÐµÐ»Ð»Ð°": 7201,
      "ĠÑĩÐ°ÑīÐµ": 7202,
      "ĠÐ±Ð¸Ð±Ð»Ð¸Ð¾ÑĤÐµÐºÐ°": 7203,
      "ÑĭÐ²Ð°Ð»ÑģÑı": 7204,
      "ĠÐµÐ¿Ð°ÑĢÑħÐ¸Ð¸": 7205,
      "ĠÐĴÑģÐµÑĢ": 7206,
      "ĠÑģÐµÐ¹ÑĩÐ°Ñģ": 7207,
      "ĠÑĤÐµÑĢÐ¼": 7208,
      "ĠÐ¾Ð±ÑıÐ·Ð°Ð½Ð½Ð¾ÑģÑĤÐ¸": 7209,
      "ĠÐ¸ÑģÑĤÐ¾ÑĢÐ¸ÑĩÐµÑģÐºÐ¸Ñħ": 7210,
      "ĠÐ¿ÑĢÐ¾ÐµÐºÑĤÑĥ": 7211,
      "Ġ51": 7212,
      "Ġ64": 7213,
      "ĠÐ¾ÑĤÑĢÐ°Ñģ": 7214,
      "ĠÐ¿ÑĢÐµÐ´Ð²Ð°ÑĢ": 7215,
      "ĠÐºÐ¾Ð½ÑĦÐµÑĢÐµÐ½ÑĨÐ¸Ð¸": 7216,
      "Ð¾Ð»Ð¾Ð³Ð¸ÑĩÐµÑģÐºÐ¸Ðµ": 7217,
      "ĠÐĸÐµÐ»ÐµÐ·": 7218,
      "Ð°Ð»Ð¸Ñı": 7219,
      "Ð·Ð¸Ð¸": 7220,
      "ĠÑģÑĤÑĥÐ´ÐµÐ½ÑĤÐ¾Ð²": 7221,
      "ĠÐ¿ÑĢÐµÐ´Ð¿ÑĢÐ¸ÑıÑĤÐ¸Ð¹": 7222,
      "ĠÐ¼ÐµÑģÑĤÐ¾ÑĢ": 7223,
      "ĠÑĢÐµÐ³ÑĥÐ»Ð¸": 7224,
      "ÐºÐ¾ÑĤ": 7225,
      "ĠÐĿÐ¸Ð¶Ðµ": 7226,
      "Ð¾ÑĢÐ°ÑĤÐ¸Ð²": 7227,
      "ÑĤÐ¸ÐµÐ¼": 7228,
      "Ġ57": 7229,
      "Ð¾Ð¶Ð¸Ð´": 7230,
      "ĠÐ¶ÑĳÐ»ÑĤ": 7231,
      "ĠÐ³Ð¾ÑģÑĥÐ´Ð°ÑĢÑģÑĤÐ²ÐµÐ½Ð½Ð¾Ð¼": 7232,
      "ĠÐ¿ÐµÑĢÐµÐ½ÐµÑģ": 7233,
      "ĠÐĳÐ»": 7234,
      "ĠÐ¡ÑĤÐ°ÑĤ": 7235,
      "ĠÐ¿ÑĥÐ±Ð»Ð¸Ñĩ": 7236,
      "Ð¾ÑĤÐ»Ð°Ð½Ð´": 7237,
      "ĠÐĶÐ¶Ð¾Ð½Ð°": 7238,
      "ĠÐ¡ÑĤÐµÑĦ": 7239,
      "ĠÑĪÐ¾ÑģÑģÐµ": 7240,
      "ĠÑıÐº": 7241,
      "ĠÐĹÐ¾Ð»Ð¾ÑĤÐ°Ñı": 7242,
      "ĠÐ¾Ð±ÑĥÑĩÐµÐ½Ð¸Ðµ": 7243,
      "ĠÐºÐ¾Ð¼Ð¿Ð°Ð½Ð¸ÐµÐ¹": 7244,
      "ĠÑģÐ¾ÑĩÐµÑĤ": 7245,
      "ĠÑĢÑĥÐºÐ¾Ð²Ð¾Ð´Ð¸ÑĤÐµÐ»ÑĮ": 7246,
      "ĠÐ¾ÑĦÐ¸ÑĨÐµÑĢÐ¾Ð²": 7247,
      "ĠÐ°Ð½Ð¸Ð¼": 7248,
      "ĠÑĥÐ´ÐµÑĢÐ¶": 7249,
      "ĠÐ¾Ð¿ÐµÑĢÐ°ÑĤÐ¸Ð²": 7250,
      "ĠÐ½ÐµÐ¼Ð½Ð¾Ð³Ð¾": 7251,
      "Ð¾Ð±ÑīÐµ": 7252,
      "ĠÐĵÑĢÐ¸Ð³Ð¾ÑĢÑĮ": 7253,
      "Ð¾ÑĢÑıÐ´": 7254,
      "ĠÐºÐ°Ð²Ð°Ð»ÐµÑĢ": 7255,
      "ĠÑĢÐµÑĪÐµÐ½Ð¸ÐµÐ¼": 7256,
      "ĠÐ²Ð¾Ð·Ð´ÑĥÑħÐ°": 7257,
      "ĠÐ¿ÐµÑĢÐµÐ¶": 7258,
      "ÐµÑĤÑĤ": 7259,
      "ĠÐ·Ð°Ð¿Ð¸ÑģÐ¸": 7260,
      "ĠÐĵÐ¾ÑĢÑĮ": 7261,
      "ĠÐºÐ°Ð¼Ð¿Ð°Ð½Ð¸Ð¸": 7262,
      "ĠÐ¿Ð¾ÐºÑĥÐ¿": 7263,
      "ĠÐĶÐ²Ð¾ÑĢ": 7264,
      "ÐµÐ½Ð½Ð¸Ñģ": 7265,
      "ĠÑĥÐºÑĢÐ°Ð¸Ð½": 7266,
      "ÑģÑĤÐ²Ð°Ñħ": 7267,
      "ĠÐºÐ¸Ð»Ð¾Ð¼ÐµÑĤÑĢÐ°Ñħ": 7268,
      "Ð»ÐµÑĤÐ²Ð¾ÑĢ": 7269,
      "ĠÐ¿ÑĢÐ¸Ð½ÑıÑĤÑĮ": 7270,
      "ĠÐ¿Ð¾ÑĢÑıÐ´ÐºÐ°": 7271,
      "ĠÐłÐ¾Ð·": 7272,
      "ĠÐ¯Ðº": 7273,
      "ĠÑģÐ¾ÑĨÐ¸": 7274,
      "ÑıÑı": 7275,
      "ĠÑģÑĭÐ½Ð¾Ð¼": 7276,
      "ĠÐļÑĥÐ±ÐºÐµ": 7277,
      "ĠÐ¾ÑģÑĥÑīÐµÑģÑĤÐ²Ð»Ñı": 7278,
      "ĠÐŁÐ¾ÑģÐºÐ¾Ð»ÑĮÐºÑĥ": 7279,
      "ĠÐ²Ð¾ÑģÐµÐ¼": 7280,
      "Ð°Ð½ÐºÐ°": 7281,
      "ĠÐ¢Ñİ": 7282,
      "ĠÐ´Ð¾ÑģÑĤÐ¸Ð¶ÐµÐ½Ð¸Ñı": 7283,
      "ÑģÑĤÐ¾ÑıÑĤÐµÐ»ÑĮ": 7284,
      "ĠÐ¤ÑĢÐ¸Ð´ÑĢÐ¸Ñħ": 7285,
      "ĠÐŀÑĢÐ»Ð¾Ð²": 7286,
      "ĠÐŁÑĢÐ¸Ðº": 7287,
      "ĠÑģÐ¼Ð¾ÑĤ": 7288,
      "ĠÑĤÐµÑĢÑĢÐ¾ÑĢ": 7289,
      "ĠÐ¿ÑĢÐ¾Ð´Ð¾Ð»Ð¶Ð¸Ð»": 7290,
      "ĠÐĺÐµÑĢ": 7291,
      "ĠÑģÐµÐ»ÑĮÑģÐºÐ¸Ð¹": 7292,
      "ĠÐ²ÑĤÐ¾ÑĢÑĭÐ¼": 7293,
      "ĠÐ¾Ð¿Ð¿Ð¾Ð·": 7294,
      "ĠÐ½Ð°Ð·Ð½Ð°ÑĩÐµÐ½Ð¸Ñı": 7295,
      "ĠÐĿÐ°ÑħÐ¾Ð´Ð¸ÑĤÑģÑı": 7296,
      "ĠÐŁÐµÑĢÑģ": 7297,
      "ÑģÐ°Ð¼Ð±": 7298,
      "ĠÑģÐµÑĢÐµÐ´": 7299,
      "ĠÐ¾Ð±Ð¼ÐµÐ½": 7300,
      "ĠÐ¼Ð¾Ð±": 7301,
      "ĠÐ²Ð¾ÑĢÐ¾ÑĤÐ°": 7302,
      "Ð½ÑĳÐ¼": 7303,
      "ĠÑģÑĤÐ¾Ð¸ÑĤ": 7304,
      "ĠÐ¿ÑĢÐµÐ´ÑĪ": 7305,
      "ĠÐ¿ÑĢÐµÐ²ÑĢÐ°ÑĤ": 7306,
      "ĠÑģÑĤÑĢÐµÐ»ÑĮ": 7307,
      "ĠÑįÐºÑģÐ¿ÐµÐ´Ð¸ÑĨÐ¸Ð¸": 7308,
      "ĠÑĤÐµÐ¾ÑĢÐµÑĤ": 7309,
      "ct": 7310,
      "Ð¨": 7311,
      "ĠÐĴÐµÐ´": 7312,
      "Ð»Ð¸ÑģÑĤ": 7313,
      "Ð°Ð´Ñĥ": 7314,
      "Ð³ÑĢÐ°Ð½": 7315,
      "ĠÐłÐµÐ´": 7316,
      "ĠÐ²Ð¾ÑģÐ¿Ð¾Ð¼Ð¸Ð½": 7317,
      "ĠÐ·Ð½Ð°": 7318,
      "Ð»Ð°Ð³Ð°": 7319,
      "ĠÑĥÐ´Ð°Ñĩ": 7320,
      "ĠÐ¶Ð¸Ð´": 7321,
      "Ð¾Ð»Ðµ": 7322,
      "ĠÐĺÐ¾ÑģÐ¸ÑĦ": 7323,
      "ĠÑĪÐ¿": 7324,
      "ĠÐ£Ð¶Ðµ": 7325,
      "ĠÐ±Ð¾Ð»ÑĮÑĪÐ¸Ñħ": 7326,
      "ĠÐĳÐ¾Ð³Ð¾ÑĢÐ¾Ð´": 7327,
      "ĠÐľÐ°Ð»ÑĮ": 7328,
      "ĠÐĿÐ°Ð²": 7329,
      "ĠÐ¦ÐµÐ½ÑĤÑĢ": 7330,
      "ĠÐ¿ÐµÑĢÑģÐ¾Ð½Ð°Ð¶ÐµÐ¹": 7331,
      "ĠÐŀÐŀÐĿ": 7332,
      "ĠÐ³Ð½": 7333,
      "ÐµÐ½Ð¾Ð²": 7334,
      "ĠÑģÑĤÑĥÐ´Ð¸Ð¸": 7335,
      "ĠÐ¼Ð°ÑĪÐ¸Ð½Ñĭ": 7336,
      "ĠÑĢÐ¾Ðº": 7337,
      "Ð°ÑĤÐ¾ÑĢÐ¸Ð¸": 7338,
      "ĠÐ¿Ð¾ÑģÐ»ÐµÐ´Ð½ÐµÐ³Ð¾": 7339,
      "ĠÐķÐ»Ð¸Ð·Ð°Ð²": 7340,
      "ĠÐĺÐ³Ð¾ÑĢÑĮ": 7341,
      "ĠÐ¾Ð±Ð°": 7342,
      "ĠÐ¿ÑĢÐµÐ´ÐµÐ»Ð°Ñħ": 7343,
      "ĠÐ²ÑħÐ¾Ð´Ð¸Ð»": 7344,
      "ĠÑģÐ¾Ð±Ð¾ÑĢÐ°": 7345,
      "Ð¾ÑģÑĤÐ¾Ñı": 7346,
      "ĠÑĦÐ°ÑĪ": 7347,
      "ĠÐĶÐ²": 7348,
      "Ð½ÑĥÐ²": 7349,
      "ĠÐ¡Ð¿Ð°Ñģ": 7350,
      "ĠÐ£Ð¾Ð»": 7351,
      "ĠÐľÐ¾Ð½ÑĤ": 7352,
      "ĠÐ¢Ñĥ": 7353,
      "ĠÐ£ÑģÐ¿": 7354,
      "Ð¼ÐµÑĢÑĤ": 7355,
      "ĠÐłÐ°Ð±Ð¾ÑĤÐ°Ð»": 7356,
      "ĠÐ³ÑĢÑĥÐ¿Ð¿Ð¾Ð¹": 7357,
      "Ð³Ð¸Ð½": 7358,
      "ĠÐºÑĢÐ¸Ð·": 7359,
      "Ð¾Ð²Ð»ÐµÑĤÐ²Ð¾ÑĢ": 7360,
      "ĠÐ±Ð°ÑģÐºÐµÑĤ": 7361,
      "ĠÐºÐ¸ÑģÐ»Ð¾ÑĤ": 7362,
      "ĪĴ": 7363,
      "ĠÐ¥Ð°Ð»": 7364,
      "ĠÐ²Ð¾Ð·Ð³Ð»Ð°Ð²Ð»ÑıÐ»": 7365,
      "ĠÐĴÐ°ÑĢÑĪÐ°Ð²": 7366,
      "ĠÐ»Ð¸ÑĩÐ½Ð¾": 7367,
      "Ð²Ð°Ð½": 7368,
      "ĠÐ²Ð·ÑıÐ»": 7369,
      "ĠÐľÑĥÑħÐ°Ð¼": 7370,
      "Ð¸ÑĢÐ¸Ð¶": 7371,
      "ĠÐĿÐ°Ð³ÑĢÐ°": 7372,
      "ĠÐºÐ¾Ð½ÑĤÐ°ÐºÑĤ": 7373,
      "ĠÐĶÐ°ÑĢ": 7374,
      "up": 7375,
      "ĠÑĤÑĢÐ°Ð´Ð¸ÑĨÐ¸Ð¸": 7376,
      "ĠÐ°ÑģÑģÐ¾ÑĨÐ¸Ð°ÑĨÐ¸Ð¸": 7377,
      "Ð´Ð°Ñħ": 7378,
      "Ð»ÐµÐ½Ð½Ð¾": 7379,
      "ĠÐĴÐ¾ÐµÐ½Ð½Ð¾": 7380,
      "ĠÑįÐ»ÐµÐ¼ÐµÐ½ÑĤÐ¾Ð²": 7381,
      "ĠÐ¿Ð¸ÑĪÐµÑĤ": 7382,
      "ĠÐ¿ÑĢÐµÐ±": 7383,
      "ÐµÐ²Ð°Ñı": 7384,
      "Ð¸Ð²ÑĪÐ¸Ð¹ÑģÑı": 7385,
      "ĠÐ´Ð¸Ð½Ð°ÑģÑĤÐ¸Ð¸": 7386,
      "ĠÐŀÐ»": 7387,
      "ĠÑģÐµÐºÑĥÐ½Ð´": 7388,
      "Ð½Ð¸ÐºÐ¾Ð²Ð°": 7389,
      "Ð°ÑĤÐµÐ»ÑĮÑģÑĤÐ²Ð°": 7390,
      "ĠÑĥÑĩÐ¸Ð»Ð¸ÑīÐ°": 7391,
      "ÐĺÐĺ": 7392,
      "ĠÑģÐµÑĢÐµÐ±": 7393,
      "ĠÐ´Ð°Ð½Ð½Ð¾Ð¹": 7394,
      "ĠÑĩÐ¸ÑģÐ»ÐµÐ½Ð½Ð¾ÑģÑĤÑĮ": 7395,
      "ĠÐ±Ð¾ÐºÑģ": 7396,
      "ĠÐĽÐ¸Ð¿": 7397,
      "ĠÑģÐ¾Ð·Ð½": 7398,
      "ĠÐĿÐ¸Ð´ÐµÑĢÐ»Ð°Ð½Ð´": 7399,
      "ĠÐĳÐµÑĢÐ½": 7400,
      "ĠÐ´ÐµÐ¹ÑģÑĤÐ²Ð¸Ðµ": 7401,
      "ĠÐ»Ð¸Ð½Ð¸Ñı": 7402,
      "ĠÐ¿Ð¾Ð»ÑĳÑĤ": 7403,
      "ĠÐ²ÑģÑĤÑĢÐµÑĩÐ°ÑİÑĤÑģÑı": 7404,
      "ĠÐ¼Ð»ÑĢÐ´": 7405,
      "ĠÑĢÐµÐ¼Ð¾Ð½ÑĤ": 7406,
      "ĠÐ´Ð¾Ð³Ð¾Ð²": 7407,
      "ĠÐ¢Ð°ÑĤÐ°ÑĢ": 7408,
      "ĠÑģÐ¾ÑģÑĤÐ¾ÑıÐ½Ð¸Ðµ": 7409,
      "ĠÑĥÐ½Ð¸Ðº": 7410,
      "Ð°ÑĪÐ°": 7411,
      "ĠÐ·Ð¾Ð½Ðµ": 7412,
      "ĠÐ¾ÑĤÐ´ÑĭÑħ": 7413,
      "ĠÐ°Ð²ÑĤÐ¾Ð´Ð¾ÑĢÐ¾Ð³": 7414,
      "ĠÐĳÐ¾Ð»ÐµÐµ": 7415,
      "ĠÐĴÐ¸Ð»ÑĮÐ³ÐµÐ»ÑĮ": 7416,
      "ĠÐ³ÑĢÐµ": 7417,
      "ĠÐĿÐļ": 7418,
      "ĠÑģÐ¾ÑģÑĤÐ°Ð²Ð¸Ð»": 7419,
      "ĠÐ¼Ð»Ð°Ð´ÑĪÐ¸Ð¹": 7420,
      "ĠÑĥÐ²ÐµÑĢ": 7421,
      "ÑĢÑıÐ·": 7422,
      "ĠÐ³Ð»Ð°Ð²Ñĭ": 7423,
      "ĠÐ¿Ð¾Ð»Ð¾ÑĤ": 7424,
      "ĠÑĨÐ°ÑĢÑı": 7425,
      "ĠÐĿÐ°ÑĨÐ¸Ð¾Ð½Ð°Ð»ÑĮÐ½Ð¾Ð¹": 7426,
      "ĠÐ½Ð°ÑĥÑĩÐ½Ð¾Ð¹": 7427,
      "Ð¾Ð½ÑģÐºÐ¾Ð³Ð¾": 7428,
      "Ð°ÑĢÑģÐºÐ¸Ð¹": 7429,
      "ÐµÐ²ÑĭÐµ": 7430,
      "ĠÐ¿ÑĢÐµÐ´ÑģÑĤÐ°Ð²Ð»ÐµÐ½": 7431,
      "ĠÐ¶ÑĥÑĢÐ½Ð°Ð»": 7432,
      "ĠÑģÐµÐ´": 7433,
      "ĠÐ¸Ð·Ð¾Ð±ÑĢÐµÑĤ": 7434,
      "ĠÐ¡ÐľÐĺ": 7435,
      "ĠÐ¿ÑĢÐ¾Ð´Ð¾Ð»Ð¶Ð°Ð»": 7436,
      "ĠÑĤÐµÑħÐ½Ð¸Ðº": 7437,
      "ĠÑģÐµÐ¼Ð¸Ð½": 7438,
      "ĠÐ£Ñģ": 7439,
      "ĠÐŁÑģÐº": 7440,
      "ĠÐŁÐ¾Ð³": 7441,
      "ĠÐ¿ÐµÑĢÐµÑĩ": 7442,
      "ĠÎ": 7443,
      "Ð°ÑĢÑģÐºÐ¾Ð¹": 7444,
      "ĠÑĤÐµÐ»Ð¾": 7445,
      "Ð°Ð½Ð¸ÑıÑħ": 7446,
      "Ġ1900": 7447,
      "ĠÐ¡ÐµÑĢÐµÐ±ÑĢÑı": 7448,
      "ÑģÐµÐ¼": 7449,
      "ĠÐ´Ð°Ð»ÐµÐµ": 7450,
      "ĠÑĩÑĥÐ´": 7451,
      "ĠÐ¿Ð°ÑĢÐºÐ°": 7452,
      "Ð¸Ð²ÑĪÐ¸Ðµ": 7453,
      "Ð°ÐºÐ¾Ð²Ð°": 7454,
      "ĠÐ¡ÑĥÑħ": 7455,
      "ĠÐºÐ¾ÑĢÑĢÐµÑģÐ¿Ð¾Ð½Ð´": 7456,
      "ĠÐĶÑĢÐµÐ²": 7457,
      "ĠÑįÐ½ÐµÑĢÐ³Ð¸Ð¸": 7458,
      "ĠÐľÐ°Ð¼": 7459,
      "ĠÑĥÐ²Ð¾Ð»": 7460,
      "ĠÑģÐµÑĢÐ¸Ð¹": 7461,
      "ĠÐ²ÐµÐ½Ð³": 7462,
      "ĠÑįÐ½ÐµÑĢÐ³ÐµÑĤ": 7463,
      "ÑĥÑģÐ»Ð¾Ð²": 7464,
      "ĠÑĦÑĢÐ¾Ð½ÑĤÐµ": 7465,
      "Ð»Ð¾Ð¿": 7466,
      "ĠÑĢÐµÐ³Ð¸ÑģÑĤ": 7467,
      "ÑĢÐ¾Ð¼Ð°": 7468,
      "ĠÐ´Ð°Ð½Ð½ÑĭÐ¹": 7469,
      "ĠÑİÐ½Ð¾ÑĪÐµÑģÐº": 7470,
      "ĠÐ¿Ð¾Ð´Ð¾Ð·": 7471,
      "ĠÐ½Ð°ÑĩÐ¸Ð½Ð°": 7472,
      "ĠÐ¾Ð±ÑĬÐµÐ´Ð¸Ð½ÐµÐ½Ð¸Ñı": 7473,
      "ĠÐ³ÑĢÐ°Ð¼": 7474,
      "ĠÐ´ÐµÐ»Ð°ÐµÑĤ": 7475,
      "ĠÐłÐ¸ÑĩÐ°ÑĢÐ´": 7476,
      "Ð·ÑĭÑĩ": 7477,
      "ĠÐ¿Ð¾Ð´Ð½Ñı": 7478,
      "ÑĢÑıÐ´Ñĥ": 7479,
      "Ġ170": 7480,
      "ĠÐ±Ð°Ð½Ð´": 7481,
      "ĠÑģÐµÑĤÑĮ": 7482,
      "ĠÑĢÐ°Ð·Ð½ÑĭÐµ": 7483,
      "ÑĩÐ°": 7484,
      "ÐµÑĢÑģÐºÐ¾Ð¹": 7485,
      "ĠÐ½Ð°ÑĩÐ¸Ð½Ð°Ñı": 7486,
      "ĠÐ°Ð±ÑģÐ¾Ð»ÑİÑĤ": 7487,
      "ĠÐļÐ¸ÑĤÐ°Ñı": 7488,
      "Ð¸Ð¼ÑĭÑħ": 7489,
      "ĠÐ¸ÑģÑĤÐ¾ÑĩÐ½Ð¸ÐºÐ¾Ð²": 7490,
      "Ã©": 7491,
      "ĠÑģÑĢÐµÐ´Ð½ÐµÐ²ÐµÐº": 7492,
      "Ð¿Ðµ": 7493,
      "Ð¾Ð¼Ð°ÑĤ": 7494,
      "ĠÐºÐ°Ð½Ð°Ð´": 7495,
      "ĠÐ±ÑĢÐ°ÑĤÑĮ": 7496,
      "ĠÐ·Ð´Ð°Ð½Ð¸Ð¹": 7497,
      "ĠÐ´ÐµÐ»Ð°Ð¼": 7498,
      "ÑĳÐ½Ð½Ð¾Ð¼": 7499,
      "ÐµÐ²ÑģÐºÐ¾Ð¹": 7500,
      "ĠÑħÑĢÐµÐ±": 7501,
      "ĠÑĥÑĩÑĳÐ½ÑĭÐ¹": 7502,
      "ĠÐ¿ÑĢÐ¸Ð·Ð½Ð°Ðº": 7503,
      "ĠÐ§Ð¸Ñģ": 7504,
      "ĠÐºÐ°ÑĢÑĤÐµ": 7505,
      "ĠÐ¤Ð»Ð¾ÑĢ": 7506,
      "ĠÐ´ÐµÐ¿ÑĥÑĤÐ°ÑĤÐ¾Ð¼": 7507,
      "ĠÐ³ÑĥÐ±ÐµÑĢÐ½Ð°ÑĤÐ¾ÑĢ": 7508,
      "ĠÐ¿ÑĢÐ¾ÑĪÐ»Ð¸": 7509,
      "ĠÐĴÐµÑģÑĤ": 7510,
      "Ð²ÐµÑĢÑħ": 7511,
      "ĠÐºÐ¾Ð½ÑĨÐµÐ½ÑĤ": 7512,
      "ĠÑģÑĤÐ°ÑĤÑĮÐµ": 7513,
      "ĠÐ²ÑĭÑĢÐ¾Ñģ": 7514,
      "ĠÐĵÑĢÑĥÐ¿Ð¿": 7515,
      "ak": 7516,
      "ĠÐ½ÐµÐ¹ÑĤ": 7517,
      "ÐµÑĢÐ¿": 7518,
      "ĠÐŁÐµÑĢÐ¼": 7519,
      "Ð²Ð°Ð¶": 7520,
      "ÐµÑħÐ°Ð»": 7521,
      "ĠÐŁÐ»Ð°Ð½": 7522,
      "ĠÐĳÑĥÐ»": 7523,
      "ĠÐ¿Ð¾ÐºÑĢÐ¾Ð²": 7524,
      "Ġ1906": 7525,
      "Ð°Ð»Ð¸ÑĤ": 7526,
      "ĠÐľÑĥÐ·ÐµÐ¹": 7527,
      "ĠÐŀÐ±Ð»Ð°Ð´Ð°ÑĤÐµÐ»ÑĮ": 7528,
      "ĠÐµÐ´Ð¸Ð½ÑģÑĤÐ²ÐµÐ½Ð½ÑĭÐ¹": 7529,
      "ĠÐĽÑĥÑĩÑĪÐ¸Ð¹": 7530,
      "ĠÑģÑĤÐ¾Ð»ÐµÑĤ": 7531,
      "Ð±Ð»Ð¸Ð·": 7532,
      "Ð¾ÑĤÑĥ": 7533,
      "ÑıÐ½Ð¾Ð²": 7534,
      "ĠÐ¿Ð°ÑĢÐ°Ð»Ð»ÐµÐ»ÑĮ": 7535,
      "ĠÑĨÐ¸ÑĤ": 7536,
      "Ð½ÐµÑģÑĤ": 7537,
      "ĠÐ²ÑĭÐ¶": 7538,
      "ĠÐĺÐ¼ÐµÐ½Ð½Ð¾": 7539,
      "ĠÐ³Ð¾Ð»Ð¾ÑģÐ¾Ð²": 7540,
      "ÑģÐ¿ÐµÐºÑĤÐ¸Ð²": 7541,
      "ĠÐ½ÐµÐ·Ð°Ð²Ð¸ÑģÐ¸Ð¼Ð¾ÑģÑĤÐ¸": 7542,
      "ell": 7543,
      "Ð°ÑĨÐ¸Ñİ": 7544,
      "Ð°ÑĤÐµÐ»ÑĮÐ½ÑĭÐµ": 7545,
      "ÐµÐ´Ð°": 7546,
      "ÐµÐ´Ð»Ð¸Ð²": 7547,
      "ĠÑĢÐ°Ðº": 7548,
      "Ð¾ÑıÑĤ": 7549,
      "ĠÐ·Ð°Ð¼Ð¾Ðº": 7550,
      "ÑıÑīÐ¸Ðµ": 7551,
      "Ð¾Ð»ÑĮÐ½Ð¾Ð¹": 7552,
      "ĠÑĤÐµÑħÐ½Ð¾Ð»Ð¾Ð³Ð¸Ð¸": 7553,
      "ÐµÑĢÐ°Ñħ": 7554,
      "ĠÑĢÑĥÐ±ÐµÐ¶": 7555,
      "Ð°Ð»ÐµÐºÐ¾": 7556,
      "ĠÐ¸Ð´ÐµÐ½ÑĤ": 7557,
      "ĠÐ¾ÑģÐ½Ð¾Ð²Ð½ÑĭÐ¼": 7558,
      "ĠÑĢÐ°ÑģÑģÑĩÐ¸ÑĤ": 7559,
      "ĠÐ¿Ð°ÑĤÑĢÐ¸Ð°ÑĢÑħ": 7560,
      "ĠÐĿÐ¾ÑĢÐ²": 7561,
      "ĠÐ²ÑĭÑıÐ²": 7562,
      "ĠÑįÐ»": 7563,
      "Ð¾Ð»Ð¾Ð¼": 7564,
      "ĠÐ¡Ð°Ð´": 7565,
      "80": 7566,
      "ĠÐ»ÐµÑģÐ°": 7567,
      "ĠÐ¿ÑĢÐ¾Ð¿Ð°Ð³": 7568,
      "ĠÐ±Ð¾Ð»ÐµÐ·Ð½Ð¸": 7569,
      "ĠÐĴÐ¾ÑĢÐ¾Ð½ÐµÐ¶": 7570,
      "ĠÐºÐ¾Ð¼Ð°Ð½Ð´Ð¾Ð²Ð°Ð»": 7571,
      "ÑĤÐ¸ÑĦ": 7572,
      "ÐµÑģÑĤÐ¸Ð²": 7573,
      "ĠÑģÐ¾ÑģÑĢÐµÐ´": 7574,
      "ĠÑĢÐ°ÑĥÐ½Ð´Ðµ": 7575,
      "ill": 7576,
      "ĠÑİÐ³Ñĥ": 7577,
      "ĠÐ¼Ð¾Ð´ÐµÑĢÐ½": 7578,
      "ĠÐĿÐ°ÑĨÐ¸Ð¾Ð½Ð°Ð»ÑĮÐ½Ð¾Ð³Ð¾": 7579,
      "ĠÐĵÐµÐ½ÑĢÐ¸": 7580,
      "ĠÐĽÐ°ÑĢ": 7581,
      "ĠÐ´Ð²Ð°Ð´": 7582,
      "ĠÐ¿ÑĢÐ¸Ð±ÑĭÐ»": 7583,
      "ĠÐ´ÐµÐ²ÑıÑĤ": 7584,
      "ĠÐĽÐµÑĤ": 7585,
      "ĠÐĲÑĢÑħÐ°Ð½Ð³ÐµÐ»ÑĮ": 7586,
      "ĠÐ¿Ð¾Ð´Ð²": 7587,
      "ĠÐ¾ÑģÑĥÐ¶Ð´": 7588,
      "ĠÐ¨Ð²ÐµÑĨÐ¸Ð¸": 7589,
      "ĠÑĥÑģÐ»Ð¾Ð²Ð¸Ñı": 7590,
      "ÑĤÐ¾Ð½Ð°": 7591,
      "ĠÐ¢Ð¾Ðº": 7592,
      "ĠÐŁÐ¾ÑĢÑĤÑĥÐ³": 7593,
      "ĠÐ²ÐµÑģÑĤÐ¸": 7594,
      "Ð¸ÑĢÐ¾Ð¼": 7595,
      "ĠÐ¸Ð½Ð¶ÐµÐ½": 7596,
      "ĠÑģÐ¸ÑĤÑĥÐ°ÑĨÐ¸Ð¸": 7597,
      "ÑĥÐ·Ð°ÑīÐ¸ÑĤ": 7598,
      "ĠÐļÐ°Ð·Ð°ÑħÑģÑĤÐ°Ð½": 7599,
      "Ð¸ÑĩÐ¸": 7600,
      "ĠÐĿÐ°ÑĨÐ¸Ð¾Ð½Ð°Ð»ÑĮÐ½ÑĭÐ¹": 7601,
      "ĠÐºÐ¾Ð¼Ð¿Ð¾Ð½": 7602,
      "ĠÐĽÐ¸Ð±": 7603,
      "ĠÐ¡Ð¾Ð²ÑĢÐµÐ¼": 7604,
      "ĠÐĹÐ°ÐºÐ¾Ð½": 7605,
      "ĠÐłÐ¾Ð¼Ð°Ð½": 7606,
      "ĠÐĳÐ¾Ð»ÑĮÑĪÐ¸Ð½ÑģÑĤÐ²Ð¾": 7607,
      "ĠÐ¿Ð¾Ð´Ñĩ": 7608,
      "ĠÑĩÐµÑĪ": 7609,
      "ĠÐ¿ÑĢÐ¾ÑıÐ²Ð»Ñı": 7610,
      "ĠÑĦÐ¸Ð½Ð°Ð»Ð°": 7611,
      "ÐĺÐļ": 7612,
      "ĠÐºÑĢÑĥÐ¿Ð½ÐµÐ¹ÑĪÐ¸Ñħ": 7613,
      "ĠÐ¿ÑĢÐ¾Ð³ÑĢÐ°Ð¼Ð¼Ðµ": 7614,
      "ĠÐ·Ð°ÑīÐ¸ÑĤÐ¸Ð»": 7615,
      "ĠÐ±Ð°ÑĤÐ°ÑĢÐµ": 7616,
      "ĠÐ¿Ð¾Ð²ÐµÐ´": 7617,
      "ĠÐĹÐ°Ð³": 7618,
      "ÑĢÐ¸ÐºÐ°Ð½": 7619,
      "ĠÐ¿Ð°ÑĨÐ¸": 7620,
      "ĠÐ¥Ð°Ð¼": 7621,
      "ĠÐ²Ð¾Ð·Ð²ÑĭÑĪ": 7622,
      "Ð°Ñİ": 7623,
      "ĠÐ¢ÑĥÑĢÑĨÐ¸Ð¸": 7624,
      "ĠÐ½ÐµÐ¼ÐµÑĨÐºÐ¸Ñħ": 7625,
      "ĠÐ»Ð°Ð²": 7626,
      "ĠÐ³Ð¾Ð»ÑĥÐ±": 7627,
      "ĠÐ´Ð¾ÐºÑĤÐ¾ÑĢÐ°": 7628,
      "ĠÐ±Ð¾Ð»ÑĮÑĪÐ¾Ð³Ð¾": 7629,
      "ĠÐ²Ð¾Ð¿ÑĢÐ¾ÑģÑĭ": 7630,
      "ĠÐĵÐ¾ÑģÑĥÐ´Ð°ÑĢÑģÑĤÐ²ÐµÐ½Ð½Ð¾Ð³Ð¾": 7631,
      "Ð½ÐµÐ¹ÑĪÐ¸Ñħ": 7632,
      "ĠÐ¾ÑĨÐµÐ½Ð¸Ð²": 7633,
      "Ð¾ÑıÐ·ÑĭÑĩ": 7634,
      "ĠÐ»ÑİÐ±Ð¾Ð¹": 7635,
      "ĠÑĢÐ¸ÑģÐº": 7636,
      "ĠÐŁÐµÑĢÐ²ÑĭÐ¼": 7637,
      "ĠÑħÐ¾ÑĤÐµÐ»": 7638,
      "ĠÐłÑĥÐ¼ÑĭÐ½": 7639,
      "ĠÐŁÐ¸ÑĢ": 7640,
      "Ð¾Ð²Ð¸ÑĩÐ°": 7641,
      "ĠÐŁÑıÑĤ": 7642,
      "ÑĤÐ¾ÑĢÑĭ": 7643,
      "ĠÐľÐ°ÑģÑĤ": 7644,
      "Ð»Ð°Ð´Ðµ": 7645,
      "Ð¸Ð½ÐºÐ°": 7646,
      "ĠÑĢÐ°Ð¹Ð¾Ð½Ð°Ñħ": 7647,
      "av": 7648,
      "ÑĨÐµÐ»": 7649,
      "ĠÐ¾Ð±ÑģÑĤÐ¾ÑıÑĤÐµÐ»ÑĮ": 7650,
      "ĠÐłÑıÐ´": 7651,
      "ĠÐ¿Ð¾Ð»ÐµÐ·": 7652,
      "ĠÐ¿Ð¸ÑģÐ°ÑĤÐµÐ»Ñı": 7653,
      "ĠÐ²ÑĭÑĢÐ°Ð·": 7654,
      "ÑĨÐºÐ¸Ð¹": 7655,
      "Ġ$": 7656,
      "Ð¸ÑģÑĤÐ¸ÑĩÐµÑģÐºÐ¾Ð¹": 7657,
      "ĠÑıÐ´": 7658,
      "ĠÐĽÐ¸Ð³Ð¸": 7659,
      "ĠÑģÐµÑĢÐµÐ´Ð¸Ð½Ñĭ": 7660,
      "Ð°Ð²Ð¾Ð´": 7661,
      "ÑĩÐ¸ÐºÐ¸": 7662,
      "ĠÐ¾ÑĤÐµÑĩ": 7663,
      "ĠÐ¿Ð¾Ð´ÑĢÐ¾Ð±": 7664,
      "ĠÐłÐļÐļÐĲ": 7665,
      "ÐĵÐĳ": 7666,
      "ok": 7667,
      "ĠÑĥÑĢÐ¾Ð¶": 7668,
      "ÑĦÐ¸Ð»": 7669,
      "ĠÑĢÑĥÐºÐ¾Ð²Ð¾Ð´Ð¸Ð»": 7670,
      "ĠÐ¡Ð°ÑĢ": 7671,
      "ĠÐĹÐ¾Ð»Ð¾ÑĤÐ¾Ð¹": 7672,
      "ĠÐ¸Ð´ÑĳÑĤ": 7673,
[...]
